  0x20, 0x00, 0x00, 0x00, 0x54, 0x46, 0x4c, 0x33, 0x00, 0x00, 0x00, 0x00,
  0x14, 0x00, 0x20, 0x00, 0x1c, 0x00, 0x18, 0x00, 0x14, 0x00, 0x10, 0x00,
  0x0c, 0x00, 0x00, 0x00, 0x08, 0x00, 0x04, 0x00, 0x14, 0x00, 0x00, 0x00,
  0x1c, 0x00, 0x00, 0x00, 0x84, 0x00, 0x00, 0x00, 0x04, 0x01, 0x00, 0x00,
  0xd4, 0x06, 0x00, 0x00, 0xe4, 0x06, 0x00, 0x00, 0x60, 0x10, 0x00, 0x00,
  0x03, 0x00, 0x00, 0x00, 0x01, 0x00, 0x00, 0x00, 0x04, 0x00, 0x00, 0x00,
  0x6a, 0xf8, 0xff, 0xff, 0x0c, 0x00, 0x00, 0x00, 0x1c, 0x00, 0x00, 0x00,
  0x3c, 0x00, 0x00, 0x00, 0x0f, 0x00, 0x00, 0x00, 0x73, 0x65, 0x72, 0x76,
  0x69, 0x6e, 0x67, 0x5f, 0x64, 0x65, 0x66, 0x61, 0x75, 0x6c, 0x74, 0x00,
  0x01, 0x00, 0x00, 0x00, 0x04, 0x00, 0x00, 0x00, 0x70, 0xff, 0xff, 0xff,
  0x0c, 0x00, 0x00, 0x00, 0x04, 0x00, 0x00, 0x00, 0x0b, 0x00, 0x00, 0x00,
  0x71, 0x75, 0x61, 0x6e, 0x74, 0x5f, 0x64, 0x65, 0x6e, 0x73, 0x65, 0x00,
  0x01, 0x00, 0x00, 0x00, 0x04, 0x00, 0x00, 0x00, 0x0e, 0xf9, 0xff, 0xff,
  0x04, 0x00, 0x00, 0x00, 0x07, 0x00, 0x00, 0x00, 0x69, 0x6e, 0x70, 0x75,
  0x74, 0x5f, 0x31, 0x00, 0x03, 0x00, 0x00, 0x00, 0x5c, 0x00, 0x00, 0x00,
  0x2c, 0x00, 0x00, 0x00, 0x04, 0x00, 0x00, 0x00, 0xb8, 0xff, 0xff, 0xff,
  0x10, 0x00, 0x00, 0x00, 0x04, 0x00, 0x00, 0x00, 0x13, 0x00, 0x00, 0x00,
  0x43, 0x4f, 0x4e, 0x56, 0x45, 0x52, 0x53, 0x49, 0x4f, 0x4e, 0x5f, 0x4d,
  0x45, 0x54, 0x41, 0x44, 0x41, 0x54, 0x41, 0x00, 0xdc, 0xff, 0xff, 0xff,
  0x0f, 0x00, 0x00, 0x00, 0x04, 0x00, 0x00, 0x00, 0x13, 0x00, 0x00, 0x00,
  0x6d, 0x69, 0x6e, 0x5f, 0x72, 0x75, 0x6e, 0x74, 0x69, 0x6d, 0x65, 0x5f,
  0x76, 0x65, 0x72, 0x73, 0x69, 0x6f, 0x6e, 0x00, 0x08, 0x00, 0x0c, 0x00,
  0x08, 0x00, 0x04, 0x00, 0x08, 0x00, 0x00, 0x00, 0x0e, 0x00, 0x00, 0x00,
  0x04, 0x00, 0x00, 0x00, 0x13, 0x00, 0x00, 0x00, 0x6d, 0x69, 0x6e, 0x5f,
  0x72, 0x75, 0x6e, 0x74, 0x69, 0x6d, 0x65, 0x5f, 0x76, 0x65, 0x72, 0x73,
  0x69, 0x6f, 0x6e, 0x00, 0x11, 0x00, 0x00, 0x00, 0xcc, 0x05, 0x00, 0x00,
  0xc4, 0x05, 0x00, 0x00, 0xac, 0x05, 0x00, 0x00, 0x94, 0x05, 0x00, 0x00,
  0x64, 0x05, 0x00, 0x00, 0x54, 0x03, 0x00, 0x00, 0x4c, 0x03, 0x00, 0x00,
  0x44, 0x03, 0x00, 0x00, 0x3c, 0x03, 0x00, 0x00, 0x34, 0x03, 0x00, 0x00,
  0xe4, 0x00, 0x00, 0x00, 0xcc, 0x00, 0x00, 0x00, 0xc4, 0x00, 0x00, 0x00,
  0xbc, 0x00, 0x00, 0x00, 0x9c, 0x00, 0x00, 0x00, 0x7c, 0x00, 0x00, 0x00,
  0x04, 0x00, 0x00, 0x00, 0xee, 0xf9, 0xff, 0xff, 0x04, 0x00, 0x00, 0x00,
  0x68, 0x00, 0x00, 0x00, 0x10, 0x00, 0x00, 0x00, 0x00, 0x00, 0x00, 0x00,
  0x08, 0x00, 0x0e, 0x00, 0x08, 0x00, 0x04, 0x00, 0x08, 0x00, 0x00, 0x00,
  0x10, 0x00, 0x00, 0x00, 0x2c, 0x00, 0x00, 0x00, 0x00, 0x00, 0x06, 0x00,
  0x08, 0x00, 0x04, 0x00, 0x06, 0x00, 0x00, 0x00, 0x04, 0x00, 0x00, 0x00,
  0x02, 0x00, 0x00, 0x00, 0xeb, 0x03, 0x00, 0x00, 0xd0, 0x07, 0x00, 0x00,
  0x0c, 0x00, 0x18, 0x00, 0x14, 0x00, 0x10, 0x00, 0x0c, 0x00, 0x04, 0x00,
  0x0c, 0x00, 0x00, 0x00, 0x81, 0x7b, 0x0a, 0x3d, 0xf7, 0xb0, 0x3c, 0x11,
  0x02, 0x00, 0x00, 0x00, 0x02, 0x00, 0x00, 0x00, 0x04, 0x00, 0x00, 0x00,
  0x06, 0x00, 0x00, 0x00, 0x32, 0x2e, 0x31, 0x37, 0x2e, 0x31, 0x00, 0x00,
  0x62, 0xfa, 0xff, 0xff, 0x04, 0x00, 0x00, 0x00, 0x10, 0x00, 0x00, 0x00,
  0x00, 0x00, 0x00, 0x00, 0x00, 0x00, 0x00, 0x00, 0x00, 0x00, 0x00, 0x00,
  0x00, 0x00, 0x00, 0x00, 0x7e, 0xfa, 0xff, 0xff, 0x04, 0x00, 0x00, 0x00,
  0x10, 0x00, 0x00, 0x00, 0x32, 0x2e, 0x33, 0x2e, 0x30, 0x00, 0x00, 0x00,
  0x00, 0x00, 0x00, 0x00, 0x00, 0x00, 0x00, 0x00, 0x60, 0xf2, 0xff, 0xff,
  0x64, 0xf2, 0xff, 0xff, 0xa2, 0xfa, 0xff, 0xff, 0x04, 0x00, 0x00, 0x00,
  0x08, 0x00, 0x00, 0x00, 0x8a, 0xff, 0xff, 0xff, 0x76, 0x00, 0x00, 0x00,
  0xb6, 0xfa, 0xff, 0xff, 0x04, 0x00, 0x00, 0x00, 0x40, 0x02, 0x00, 0x00,
  0x64, 0xad, 0xb9, 0x68, 0x93, 0x3a, 0xe3, 0x35, 0xa7, 0xc8, 0xa6, 0x46,
  0xbe, 0xc0, 0xa4, 0x1e, 0xae, 0xb4, 0x87, 0xbb, 0x3f, 0xa0, 0xae, 0xde,
  0x2e, 0xfd, 0x36, 0xbe, 0x6a, 0x11, 0x63, 0xfd, 0x46, 0x10, 0x94, 0x05,
  0x92, 0x01, 0xba, 0xe5, 0xc7, 0x58, 0x4b, 0x22, 0xe9, 0xba, 0xb9, 0xd5,
  0x43, 0x9b, 0xb2, 0xf3, 0xa1, 0x19, 0x4c, 0xf4, 0xf3, 0x6f, 0x0f, 0x94,
  0xa1, 0xa1, 0xf6, 0x40, 0x01, 0x2f, 0xc0, 0x57, 0xea, 0x57, 0xa6, 0x0d,
  0x5e, 0xf7, 0x4e, 0xb8, 0x3d, 0xbe, 0x6c, 0x8f, 0x6b, 0xcf, 0xe3, 0x59,
  0xb5, 0x03, 0xe3, 0xef, 0xaa, 0x5a, 0x8b, 0x39, 0x50, 0x96, 0x70, 0x9d,
  0x67, 0xd1, 0xf1, 0x05, 0x6b, 0x5c, 0xd4, 0xce, 0x13, 0xc6, 0x90, 0xe2,
  0xc7, 0xff, 0xaf, 0x05, 0x08, 0xce, 0x9b, 0xb6, 0x1c, 0xed, 0xb9, 0xa4,
  0xd5, 0x60, 0x26, 0x28, 0xa7, 0x4b, 0x0d, 0xa8, 0x08, 0xac, 0xe8, 0x27,
  0x21, 0xf1, 0xff, 0xee, 0xc4, 0xa5, 0xd5, 0xdd, 0x55, 0x25, 0x51, 0xd1,
  0x60, 0xf0, 0x88, 0x0e, 0xd2, 0xce, 0xfc, 0x10, 0x53, 0xe9, 0x54, 0x8c,
  0x84, 0x56, 0xe3, 0x0a, 0x57, 0x34, 0x6e, 0x6a, 0xc4, 0x22, 0x9a, 0x0b,
  0x17, 0x6a, 0xc2, 0xd8, 0x03, 0x18, 0xa9, 0x8c, 0x09, 0x8e, 0xd8, 0x8b,
  0x3e, 0xe0, 0x53, 0xa8, 0xcb, 0x8f, 0xf4, 0x21, 0x60, 0x1b, 0x19, 0xe8,
  0xc3, 0xd5, 0xd2, 0x2e, 0x2c, 0xab, 0xcf, 0x37, 0x26, 0x61, 0xc0, 0x95,
  0x5c, 0x13, 0x46, 0xd4, 0xff, 0xc0, 0xb3, 0x19, 0xb9, 0x06, 0xae, 0x94,
  0xda, 0x46, 0xba, 0x46, 0x0e, 0xc9, 0x3f, 0xac, 0xe6, 0x10, 0xb5, 0x19,
  0x25, 0x8a, 0xe7, 0x47, 0x70, 0xba, 0x29, 0xad, 0x2e, 0xca, 0xda, 0x08,
  0x51, 0x77, 0xbf, 0x04, 0xc0, 0xda, 0x87, 0x59, 0x0d, 0xc9, 0x9b, 0xe6,
  0xaf, 0x05, 0x65, 0x6f, 0x5d, 0x76, 0xcc, 0x17, 0xdb, 0x87, 0x0c, 0x65,
  0x9e, 0xd0, 0xe5, 0x9f, 0x37, 0x3a, 0x57, 0x67, 0xb0, 0x69, 0x9e, 0x5e,
  0x36, 0x32, 0x4c, 0x34, 0xed, 0xb4, 0xee, 0x6f, 0x4a, 0x3f, 0x23, 0x4b,
  0xf3, 0x4c, 0x9d, 0x9e, 0x53, 0x46, 0x71, 0xee, 0x27, 0x1f, 0xbe, 0x4c,
  0x49, 0xde, 0x8f, 0x42, 0x19, 0x36, 0x96, 0x0f, 0x1e, 0x8f, 0xc5, 0xaf,
  0xf1, 0x4e, 0xf6, 0x8b, 0xf3, 0x92, 0xc5, 0xf7, 0x02, 0x43, 0xf9, 0xde,
  0xe9, 0xc7, 0x60, 0x39, 0xb6, 0x0e, 0x20, 0xcf, 0x2e, 0x7d, 0x65, 0x4b,
  0x0f, 0x0f, 0x66, 0x3c, 0x92, 0x15, 0x36, 0x98, 0xc8, 0xdd, 0x60, 0x4f,
  0x40, 0x54, 0x45, 0xeb, 0xe3, 0x35, 0xcd, 0x0e, 0x6f, 0xb8, 0x68, 0x1a,
  0xae, 0x9b, 0xe9, 0x97, 0xc0, 0x6d, 0xbe, 0xc1, 0xdf, 0x4a, 0xc5, 0x98,
  0x24, 0xda, 0xf7, 0xdf, 0x66, 0x8f, 0x8d, 0x24, 0x4b, 0xb4, 0xc7, 0xed,
  0xfc, 0x33, 0x64, 0x69, 0x51, 0x59, 0xdc, 0xe9, 0xb4, 0x91, 0xbe, 0x23,
  0xb2, 0x28, 0xed, 0x7f, 0xcd, 0x93, 0x19, 0x7f, 0x30, 0x9e, 0x02, 0x7f,
  0x95, 0x14, 0x3d, 0xf2, 0xe0, 0x6d, 0xfb, 0xba, 0x1c, 0x5d, 0x76, 0x18,
  0x7f, 0xb4, 0x9e, 0xed, 0xe3, 0x26, 0x7f, 0xe8, 0x73, 0x98, 0xbf, 0xc0,
  0x32, 0x0a, 0xb4, 0x84, 0xff, 0x92, 0xcb, 0xc1, 0xe0, 0x22, 0x05, 0xa1,
  0xf2, 0xb2, 0x1d, 0x3b, 0x58, 0xd0, 0xf4, 0x8b, 0xc1, 0xce, 0x97, 0x45,
  0x58, 0x32, 0xb8, 0xf4, 0xe8, 0xd9, 0x65, 0x38, 0xb8, 0xd8, 0x11, 0x92,
  0x2e, 0x41, 0x0b, 0xae, 0xdc, 0xd2, 0x4f, 0xdc, 0x19, 0x26, 0x87, 0x52,
  0x5f, 0x4a, 0xad, 0x86, 0xdd, 0x5f, 0xc4, 0x16, 0x17, 0x25, 0x99, 0x12,
  0x1b, 0x24, 0x99, 0x20, 0xd2, 0x05, 0x19, 0x0c, 0xcc, 0x64, 0x29, 0x98,
  0xdf, 0xe5, 0xe6, 0x9e, 0x71, 0xec, 0x1e, 0xc5, 0x71, 0x2b, 0xb1, 0xc7,
  0x35, 0xab, 0xe4, 0x26, 0x20, 0xc9, 0x20, 0x3e, 0xd0, 0x1e, 0x6c, 0xeb,
  0x9f, 0xb4, 0x38, 0xd3, 0x00, 0x9e, 0x7b, 0x2b, 0xcc, 0x5b, 0x28, 0x9b,
  0x15, 0xfa, 0x6d, 0x1b, 0x0b, 0x30, 0xc5, 0xc0, 0x8b, 0x9e, 0xed, 0x97,
  0x32, 0x8c, 0x74, 0x96, 0x0e, 0xaa, 0xae, 0x1b, 0x5e, 0x38, 0x5c, 0x6f,
  0xa5, 0xc2, 0x09, 0xc1, 0x35, 0xed, 0x12, 0x66, 0x68, 0xd3, 0x49, 0x18,
  0xc8, 0xf4, 0xff, 0xff, 0xcc, 0xf4, 0xff, 0xff, 0xd0, 0xf4, 0xff, 0xff,
  0xd4, 0xf4, 0xff, 0xff, 0x12, 0xfd, 0xff, 0xff, 0x04, 0x00, 0x00, 0x00,
  0x00, 0x02, 0x00, 0x00, 0x56, 0xc7, 0x7c, 0x16, 0x45, 0xf5, 0x38, 0xe1,
  0xf8, 0x49, 0xe7, 0x25, 0xf4, 0xed, 0x1f, 0x46, 0x47, 0xd0, 0xaa, 0xe3,
  0xde, 0x32, 0xad, 0x84, 0x73, 0x4d, 0x2e, 0x83, 0xee, 0xaf, 0x83, 0xae,
  0x9a, 0xf7, 0x26, 0xea, 0xad, 0xba, 0xf6, 0xfb, 0x72, 0x2f, 0x7f, 0x3c,
  0x17, 0xd1, 0xfd, 0xea, 0xf9, 0xa5, 0x00, 0x88, 0xb8, 0x91, 0x99, 0xe5,
  0xf7, 0xc8, 0x5b, 0xf9, 0xb9, 0x78, 0xe2, 0x24, 0x33, 0xbb, 0xfa, 0x89,
  0x98, 0x97, 0xb3, 0x9a, 0x74, 0x95, 0x01, 0xcc, 0xe2, 0xb0, 0xa5, 0x3e,
  0xb9, 0x01, 0x5d, 0xbf, 0x59, 0x12, 0x7a, 0xd9, 0xee, 0xe7, 0x15, 0x30,
  0x18, 0x91, 0x98, 0xc6, 0x43, 0x81, 0xb1, 0x5e, 0x54, 0x4c, 0xfc, 0xda,
  0x73, 0x5c, 0x61, 0xb9, 0x61, 0xa2, 0x07, 0xe9, 0xa9, 0xb7, 0xf6, 0xc8,
  0x16, 0x8d, 0x92, 0xf4, 0xee, 0x21, 0x70, 0x88, 0x8e, 0xaf, 0xdf, 0xa7,
  0xa9, 0xb6, 0x03, 0x41, 0x90, 0x4d, 0xdc, 0x84, 0xa2, 0x33, 0x91, 0x1a,
  0xb1, 0xa9, 0x1a, 0xb9, 0xb6, 0xd6, 0x43, 0x3f, 0x95, 0xd6, 0x57, 0x0e,
  0x79, 0x23, 0xaa, 0x66, 0x05, 0x9d, 0x81, 0x91, 0x35, 0xbe, 0x5c, 0xce,
  0xa0, 0xa6, 0x94, 0x74, 0xf0, 0xd5, 0x95, 0x4a, 0xa5, 0x2f, 0xdd, 0x3f,
  0x2b, 0x40, 0x66, 0x25, 0x62, 0x8a, 0x05, 0x8a, 0x0b, 0xb1, 0xdb, 0x72,
  0x3b, 0xca, 0x5b, 0x82, 0x2d, 0xd1, 0xb1, 0x77, 0xe9, 0x8c, 0xed, 0x5c,
  0x84, 0x06, 0x4d, 0x4a, 0x1c, 0xc2, 0x18, 0xbd, 0x8f, 0x16, 0x21, 0x47,
  0x5d, 0x9b, 0xb6, 0x5f, 0x59, 0xa9, 0x51, 0xac, 0xf6, 0x76, 0xe6, 0x94,
  0xe2, 0x5e, 0x38, 0xfc, 0xa0, 0xef, 0x22, 0x00, 0x0c, 0x10, 0xf9, 0xa8,
  0xa0, 0x59, 0xce, 0x6e, 0x69, 0xe1, 0x11, 0x3f, 0xf8, 0xc5, 0xa6, 0xf0,
  0x58, 0xec, 0xf0, 0xe5, 0x23, 0x68, 0x81, 0x11, 0x3b, 0x67, 0x6e, 0xa4,
  0x2c, 0x5b, 0x7a, 0x60, 0x88, 0xfc, 0x8d, 0x4e, 0xe9, 0x65, 0x4a, 0xe7,
  0xbf, 0x18, 0x0d, 0x4e, 0x70, 0xb5, 0x56, 0x65, 0xa4, 0x12, 0xf1, 0x5e,
  0x49, 0x35, 0xa9, 0x90, 0xea, 0x81, 0x65, 0x6c, 0xb0, 0x4f, 0xd2, 0x75,
  0xac, 0x08, 0x6f, 0x16, 0xb3, 0xd3, 0xcf, 0x8b, 0x21, 0x37, 0x05, 0x1f,
  0x98, 0xb9, 0x08, 0xd2, 0x1d, 0x5e, 0x59, 0x5b, 0xc4, 0x0a, 0x5e, 0xcd,
  0x2a, 0x5c, 0x82, 0xf1, 0xee, 0xe3, 0x8f, 0x19, 0x2c, 0x81, 0x8b, 0x8a,
  0x05, 0x1a, 0x2c, 0xc0, 0x70, 0x43, 0xdd, 0xce, 0xb7, 0xcc, 0x84, 0x60,
  0x0a, 0x2c, 0x38, 0x86, 0x65, 0xe9, 0xa1, 0x50, 0x21, 0x31, 0xa8, 0x56,
  0x3b, 0x93, 0xa3, 0x76, 0x25, 0x13, 0x0b, 0x5b, 0xe5, 0xd6, 0xed, 0x05,
  0x49, 0x9f, 0x43, 0xa5, 0xe4, 0x3b, 0x07, 0xc8, 0x90, 0x0e, 0xbc, 0xe1,
  0x91, 0x86, 0xdf, 0x16, 0xfb, 0x8b, 0x3b, 0xc6, 0x01, 0x0f, 0xa3, 0xab,
  0x26, 0xd5, 0x00, 0xd1, 0xf3, 0xf7, 0x2a, 0x8e, 0x01, 0xc9, 0xfb, 0x70,
  0x91, 0x61, 0x1c, 0xf8, 0xe7, 0x0e, 0x0a, 0xc9, 0xbc, 0x1c, 0xd9, 0xf9,
  0x28, 0x9c, 0x22, 0xfe, 0x29, 0x63, 0xfa, 0x07, 0xcc, 0xc7, 0x38, 0x34,
  0xb1, 0x8f, 0xc6, 0x4b, 0x3d, 0xd2, 0x88, 0x6d, 0x32, 0x49, 0x7f, 0xd0,
  0x94, 0x90, 0xa0, 0xb3, 0xe5, 0xda, 0xcb, 0x32, 0x0d, 0x06, 0xfd, 0x5f,
  0xa1, 0x03, 0x6a, 0x09, 0x97, 0x06, 0x4b, 0x43, 0x3f, 0x32, 0x24, 0x1e,
  0x3b, 0xb1, 0x03, 0xc5, 0x2e, 0x10, 0xc0, 0xa5, 0xef, 0x55, 0x62, 0xae,
  0x7e, 0x32, 0xf4, 0xab, 0x5f, 0x32, 0xbd, 0x22, 0x9a, 0x0a, 0x2b, 0xb8,
  0xd4, 0x16, 0x74, 0x70, 0xdd, 0x6d, 0x15, 0x2e, 0x5a, 0x61, 0x1d, 0x6a,
  0xb5, 0x6a, 0xea, 0x23, 0xb3, 0x9c, 0x68, 0xc5, 0x1f, 0xc6, 0x6f, 0x7f,
  0x1e, 0xff, 0xff, 0xff, 0x04, 0x00, 0x00, 0x00, 0x20, 0x00, 0x00, 0x00,
  0xbe, 0xff, 0xff, 0xff, 0xe8, 0xff, 0xff, 0xff, 0x12, 0x00, 0x00, 0x00,
  0xe4, 0xff, 0xff, 0xff, 0x15, 0x00, 0x00, 0x00, 0xe3, 0xff, 0xff, 0xff,
  0x43, 0x00, 0x00, 0x00, 0x30, 0x00, 0x00, 0x00, 0x4a, 0xff, 0xff, 0xff,
  0x04, 0x00, 0x00, 0x00, 0x08, 0x00, 0x00, 0x00, 0xff, 0xff, 0xff, 0xff,
  0x20, 0x01, 0x00, 0x00, 0x5e, 0xff, 0xff, 0xff, 0x04, 0x00, 0x00, 0x00,
  0x08, 0x00, 0x00, 0x00, 0x20, 0x00, 0x00, 0x00, 0x20, 0x00, 0x00, 0x00,
  0x38, 0xf7, 0xff, 0xff, 0x3c, 0xf7, 0xff, 0xff, 0x0f, 0x00, 0x00, 0x00,
  0x4d, 0x4c, 0x49, 0x52, 0x20, 0x43, 0x6f, 0x6e, 0x76, 0x65, 0x72, 0x74,
  0x65, 0x64, 0x2e, 0x00, 0x01, 0x00, 0x00, 0x00, 0x14, 0x00, 0x00, 0x00,
  0x00, 0x00, 0x0e, 0x00, 0x18, 0x00, 0x14, 0x00, 0x10, 0x00, 0x0c, 0x00,
  0x08, 0x00, 0x04, 0x00, 0x0e, 0x00, 0x00, 0x00, 0x14, 0x00, 0x00, 0x00,
  0x1c, 0x00, 0x00, 0x00, 0xc8, 0x01, 0x00, 0x00, 0xcc, 0x01, 0x00, 0x00,
  0xd0, 0x01, 0x00, 0x00, 0x04, 0x00, 0x00, 0x00, 0x6d, 0x61, 0x69, 0x6e,
  0x00, 0x00, 0x00, 0x00, 0x06, 0x00, 0x00, 0x00, 0x74, 0x01, 0x00, 0x00,
  0x10, 0x01, 0x00, 0x00, 0xac, 0x00, 0x00, 0x00, 0x84, 0x00, 0x00, 0x00,
  0x40, 0x00, 0x00, 0x00, 0x04, 0x00, 0x00, 0x00, 0x12, 0xff, 0xff, 0xff,
  0x1c, 0x00, 0x00, 0x00, 0x00, 0x00, 0x00, 0x09, 0x1c, 0x00, 0x00, 0x00,
  0x20, 0x00, 0x00, 0x00, 0x05, 0x00, 0x00, 0x00, 0x00, 0x00, 0x06, 0x00,
  0x08, 0x00, 0x04, 0x00, 0x06, 0x00, 0x00, 0x00, 0x00, 0x00, 0x80, 0x3f,
  0x01, 0x00, 0x00, 0x00, 0x0c, 0x00, 0x00, 0x00, 0x01, 0x00, 0x00, 0x00,
  0x0b, 0x00, 0x00, 0x00, 0x4a, 0xff, 0xff, 0xff, 0x14, 0x00, 0x00, 0x00,
  0x00, 0x00, 0x00, 0x08, 0x10, 0x00, 0x00, 0x00, 0x14, 0x00, 0x00, 0x00,
  0x04, 0x00, 0x00, 0x00, 0xfc, 0xf7, 0xff, 0xff, 0x01, 0x00, 0x00, 0x00,
  0x0b, 0x00, 0x00, 0x00, 0x03, 0x00, 0x00, 0x00, 0x08, 0x00, 0x00, 0x00,
  0x09, 0x00, 0x00, 0x00, 0x0a, 0x00, 0x00, 0x00, 0x00, 0x00, 0x0a, 0x00,
  0x10, 0x00, 0x0c, 0x00, 0x08, 0x00, 0x04, 0x00, 0x0a, 0x00, 0x00, 0x00,
  0x0c, 0x00, 0x00, 0x00, 0x10, 0x00, 0x00, 0x00, 0x03, 0x00, 0x00, 0x00,
  0x01, 0x00, 0x00, 0x00, 0x08, 0x00, 0x00, 0x00, 0x02, 0x00, 0x00, 0x00,
  0x07, 0x00, 0x00, 0x00, 0x02, 0x00, 0x00, 0x00, 0xae, 0xff, 0xff, 0xff,
  0x24, 0x00, 0x00, 0x00, 0x00, 0x00, 0x00, 0x05, 0x34, 0x00, 0x00, 0x00,
  0x38, 0x00, 0x00, 0x00, 0x02, 0x00, 0x00, 0x00, 0x00, 0x00, 0x0e, 0x00,
  0x18, 0x00, 0x17, 0x00, 0x10, 0x00, 0x0c, 0x00, 0x08, 0x00, 0x04, 0x00,
  0x0e, 0x00, 0x00, 0x00, 0x02, 0x00, 0x00, 0x00, 0x02, 0x00, 0x00, 0x00,
  0x02, 0x00, 0x00, 0x00, 0x02, 0x00, 0x00, 0x00, 0x00, 0x00, 0x00, 0x01,
  0x01, 0x00, 0x00, 0x00, 0x07, 0x00, 0x00, 0x00, 0x01, 0x00, 0x00, 0x00,
  0x06, 0x00, 0x00, 0x00, 0x00, 0x00, 0x0e, 0x00, 0x18, 0x00, 0x14, 0x00,
  0x10, 0x00, 0x0c, 0x00, 0x0b, 0x00, 0x04, 0x00, 0x0e, 0x00, 0x00, 0x00,
  0x20, 0x00, 0x00, 0x00, 0x00, 0x00, 0x00, 0x01, 0x2c, 0x00, 0x00, 0x00,
  0x30, 0x00, 0x00, 0x00, 0x01, 0x00, 0x00, 0x00, 0x0c, 0x00, 0x14, 0x00,
  0x13, 0x00, 0x0c, 0x00, 0x08, 0x00, 0x07, 0x00, 0x0c, 0x00, 0x00, 0x00,
  0x00, 0x00, 0x00, 0x01, 0x02, 0x00, 0x00, 0x00, 0x02, 0x00, 0x00, 0x00,
  0x00, 0x00, 0x00, 0x01, 0x01, 0x00, 0x00, 0x00, 0x06, 0x00, 0x00, 0x00,
  0x03, 0x00, 0x00, 0x00, 0x05, 0x00, 0x00, 0x00, 0x04, 0x00, 0x00, 0x00,
  0x03, 0x00, 0x00, 0x00, 0x00, 0x00, 0x0e, 0x00, 0x14, 0x00, 0x00, 0x00,
  0x10, 0x00, 0x0c, 0x00, 0x0b, 0x00, 0x04, 0x00, 0x0e, 0x00, 0x00, 0x00,
  0x18, 0x00, 0x00, 0x00, 0x00, 0x00, 0x00, 0x4a, 0x18, 0x00, 0x00, 0x00,
  0x1c, 0x00, 0x00, 0x00, 0x08, 0x00, 0x08, 0x00, 0x00, 0x00, 0x07, 0x00,
  0x08, 0x00, 0x00, 0x00, 0x00, 0x00, 0x00, 0x01, 0x01, 0x00, 0x00, 0x00,
  0x05, 0x00, 0x00, 0x00, 0x02, 0x00, 0x00, 0x00, 0x00, 0x00, 0x00, 0x00,
  0x01, 0x00, 0x00, 0x00, 0x01, 0x00, 0x00, 0x00, 0x0c, 0x00, 0x00, 0x00,
  0x01, 0x00, 0x00, 0x00, 0x00, 0x00, 0x00, 0x00, 0x0d, 0x00, 0x00, 0x00,
  0xe8, 0x06, 0x00, 0x00, 0x8c, 0x06, 0x00, 0x00, 0x34, 0x06, 0x00, 0x00,
  0x80, 0x05, 0x00, 0x00, 0xbc, 0x04, 0x00, 0x00, 0x18, 0x04, 0x00, 0x00,
  0x44, 0x03, 0x00, 0x00, 0xb0, 0x02, 0x00, 0x00, 0x34, 0x02, 0x00, 0x00,
  0x88, 0x01, 0x00, 0x00, 0x24, 0x01, 0x00, 0x00, 0x80, 0x00, 0x00, 0x00,
  0x04, 0x00, 0x00, 0x00, 0x62, 0xf9, 0xff, 0xff, 0x00, 0x00, 0x00, 0x01,
  0x18, 0x00, 0x00, 0x00, 0x20, 0x00, 0x00, 0x00, 0x3c, 0x00, 0x00, 0x00,
  0x0d, 0x00, 0x00, 0x00, 0x00, 0x00, 0x00, 0x09, 0x50, 0x00, 0x00, 0x00,
  0x02, 0x00, 0x00, 0x00, 0xff, 0xff, 0xff, 0xff, 0x02, 0x00, 0x00, 0x00,
  0x44, 0xf9, 0xff, 0xff, 0x08, 0x00, 0x00, 0x00, 0x10, 0x00, 0x00, 0x00,
  0x01, 0x00, 0x00, 0x00, 0x80, 0xff, 0xff, 0xff, 0xff, 0xff, 0xff, 0xff,
  0x01, 0x00, 0x00, 0x00, 0x00, 0x00, 0x80, 0x3b, 0x19, 0x00, 0x00, 0x00,
  0x53, 0x74, 0x61, 0x74, 0x65, 0x66, 0x75, 0x6c, 0x50, 0x61, 0x72, 0x74,
  0x69, 0x74, 0x69, 0x6f, 0x6e, 0x65, 0x64, 0x43, 0x61, 0x6c, 0x6c, 0x3a,
  0x30, 0x00, 0x00, 0x00, 0x02, 0x00, 0x00, 0x00, 0x01, 0x00, 0x00, 0x00,
  0x02, 0x00, 0x00, 0x00, 0xda, 0xf9, 0xff, 0xff, 0x00, 0x00, 0x00, 0x01,
  0x18, 0x00, 0x00, 0x00, 0x20, 0x00, 0x00, 0x00, 0x40, 0x00, 0x00, 0x00,
  0x0c, 0x00, 0x00, 0x00, 0x00, 0x00, 0x00, 0x09, 0x78, 0x00, 0x00, 0x00,
  0x02, 0x00, 0x00, 0x00, 0xff, 0xff, 0xff, 0xff, 0x02, 0x00, 0x00, 0x00,
  0xbc, 0xf9, 0xff, 0xff, 0x08, 0x00, 0x00, 0x00, 0x14, 0x00, 0x00, 0x00,
  0x01, 0x00, 0x00, 0x00, 0x00, 0x00, 0x00, 0x00, 0x00, 0x00, 0x00, 0x00,
  0x00, 0x00, 0x00, 0x00, 0x01, 0x00, 0x00, 0x00, 0x62, 0x3c, 0x40, 0x3d,
  0x3c, 0x00, 0x00, 0x00, 0x73, 0x65, 0x71, 0x75, 0x65, 0x6e, 0x74, 0x69,
  0x61, 0x6c, 0x2f, 0x71, 0x75, 0x61, 0x6e, 0x74, 0x5f, 0x64, 0x65, 0x6e,
  0x73, 0x65, 0x2f, 0x4d, 0x61, 0x74, 0x4d, 0x75, 0x6c, 0x3b, 0x73, 0x65,
  0x71, 0x75, 0x65, 0x6e, 0x74, 0x69, 0x61, 0x6c, 0x2f, 0x71, 0x75, 0x61,
  0x6e, 0x74, 0x5f, 0x64, 0x65, 0x6e, 0x73, 0x65, 0x2f, 0x42, 0x69, 0x61,
  0x73, 0x41, 0x64, 0x64, 0x00, 0x00, 0x00, 0x00, 0x02, 0x00, 0x00, 0x00,
  0x01, 0x00, 0x00, 0x00, 0x02, 0x00, 0x00, 0x00, 0xd2, 0xfa, 0xff, 0xff,
  0x00, 0x00, 0x00, 0x01, 0x14, 0x00, 0x00, 0x00, 0x34, 0x00, 0x00, 0x00,
  0x0b, 0x00, 0x00, 0x00, 0x00, 0x00, 0x00, 0x02, 0x40, 0x00, 0x00, 0x00,
  0x4c, 0xfa, 0xff, 0xff, 0x08, 0x00, 0x00, 0x00, 0x14, 0x00, 0x00, 0x00,
  0x01, 0x00, 0x00, 0x00, 0x00, 0x00, 0x00, 0x00, 0x00, 0x00, 0x00, 0x00,
  0x00, 0x00, 0x00, 0x00, 0x01, 0x00, 0x00, 0x00, 0x1f, 0xf1, 0x66, 0x38,
  0x12, 0x00, 0x00, 0x00, 0x74, 0x66, 0x6c, 0x2e, 0x70, 0x73, 0x65, 0x75,
  0x64, 0x6f, 0x5f, 0x71, 0x63, 0x6f, 0x6e, 0x73, 0x74, 0x32, 0x00, 0x00,
  0x01, 0x00, 0x00, 0x00, 0x02, 0x00, 0x00, 0x00, 0x32, 0xfb, 0xff, 0xff,
  0x00, 0x00, 0x00, 0x01, 0x14, 0x00, 0x00, 0x00, 0x30, 0x00, 0x00, 0x00,
  0x0a, 0x00, 0x00, 0x00, 0x00, 0x00, 0x00, 0x09, 0x84, 0x00, 0x00, 0x00,
  0xac, 0xfa, 0xff, 0xff, 0x08, 0x00, 0x00, 0x00, 0x10, 0x00, 0x00, 0x00,
  0x01, 0x00, 0x00, 0x00, 0x00, 0x00, 0x00, 0x00, 0x00, 0x00, 0x00, 0x00,
  0x01, 0x00, 0x00, 0x00, 0x2a, 0xba, 0x99, 0x3a, 0x5b, 0x00, 0x00, 0x00,
  0x73, 0x65, 0x71, 0x75, 0x65, 0x6e, 0x74, 0x69, 0x61, 0x6c, 0x2f, 0x71,
  0x75, 0x61, 0x6e, 0x74, 0x5f, 0x64, 0x65, 0x6e, 0x73, 0x65, 0x2f, 0x4d,
  0x61, 0x74, 0x4d, 0x75, 0x6c, 0x3b, 0x73, 0x65, 0x71, 0x75, 0x65, 0x6e,
  0x74, 0x69, 0x61, 0x6c, 0x2f, 0x71, 0x75, 0x61, 0x6e, 0x74, 0x5f, 0x64,
  0x65, 0x6e, 0x73, 0x65, 0x2f, 0x4c, 0x61, 0x73, 0x74, 0x56, 0x61, 0x6c,
  0x75, 0x65, 0x51, 0x75, 0x61, 0x6e, 0x74, 0x2f, 0x46, 0x61, 0x6b, 0x65,
  0x51, 0x75, 0x61, 0x6e, 0x74, 0x57, 0x69, 0x74, 0x68, 0x4d, 0x69, 0x6e,
  0x4d, 0x61, 0x78, 0x56, 0x61, 0x72, 0x73, 0x00, 0x02, 0x00, 0x00, 0x00,
  0x02, 0x00, 0x00, 0x00, 0x20, 0x01, 0x00, 0x00, 0x82, 0xfb, 0xff, 0xff,
  0x00, 0x00, 0x00, 0x01, 0x18, 0x00, 0x00, 0x00, 0x20, 0x00, 0x00, 0x00,
  0x3c, 0x00, 0x00, 0x00, 0x09, 0x00, 0x00, 0x00, 0x00, 0x00, 0x00, 0x09,
  0x50, 0x00, 0x00, 0x00, 0x02, 0x00, 0x00, 0x00, 0xff, 0xff, 0xff, 0xff,
  0x20, 0x01, 0x00, 0x00, 0x64, 0xfb, 0xff, 0xff, 0x08, 0x00, 0x00, 0x00,
  0x10, 0x00, 0x00, 0x00, 0x01, 0x00, 0x00, 0x00, 0xff, 0xff, 0xff, 0xff,
  0xff, 0xff, 0xff, 0xff, 0x01, 0x00, 0x00, 0x00, 0xd5, 0x4a, 0x40, 0x3d,
  0x1a, 0x00, 0x00, 0x00, 0x73, 0x65, 0x71, 0x75, 0x65, 0x6e, 0x74, 0x69,
  0x61, 0x6c, 0x2f, 0x66, 0x6c, 0x61, 0x74, 0x74, 0x65, 0x6e, 0x2f, 0x52,
  0x65, 0x73, 0x68, 0x61, 0x70, 0x65, 0x00, 0x00, 0x02, 0x00, 0x00, 0x00,
  0x01, 0x00, 0x00, 0x00, 0x20, 0x01, 0x00, 0x00, 0xfa, 0xfb, 0xff, 0xff,
  0x00, 0x00, 0x00, 0x01, 0x18, 0x00, 0x00, 0x00, 0x28, 0x00, 0x00, 0x00,
  0x44, 0x00, 0x00, 0x00, 0x08, 0x00, 0x00, 0x00, 0x00, 0x00, 0x00, 0x09,
  0x60, 0x00, 0x00, 0x00, 0x04, 0x00, 0x00, 0x00, 0xff, 0xff, 0xff, 0xff,
  0x06, 0x00, 0x00, 0x00, 0x06, 0x00, 0x00, 0x00, 0x08, 0x00, 0x00, 0x00,
  0xe4, 0xfb, 0xff, 0xff, 0x08, 0x00, 0x00, 0x00, 0x10, 0x00, 0x00, 0x00,
  0x01, 0x00, 0x00, 0x00, 0xff, 0xff, 0xff, 0xff, 0xff, 0xff, 0xff, 0xff,
  0x01, 0x00, 0x00, 0x00, 0xd5, 0x4a, 0x40, 0x3d, 0x20, 0x00, 0x00, 0x00,
  0x73, 0x65, 0x71, 0x75, 0x65, 0x6e, 0x74, 0x69, 0x61, 0x6c, 0x2f, 0x6d,
  0x61, 0x78, 0x5f, 0x70, 0x6f, 0x6f, 0x6c, 0x69, 0x6e, 0x67, 0x32, 0x64,
  0x2f, 0x4d, 0x61, 0x78, 0x50, 0x6f, 0x6f, 0x6c, 0x00, 0x00, 0x00, 0x00,
  0x04, 0x00, 0x00, 0x00, 0x01, 0x00, 0x00, 0x00, 0x06, 0x00, 0x00, 0x00,
  0x06, 0x00, 0x00, 0x00, 0x08, 0x00, 0x00, 0x00, 0x8a, 0xfc, 0xff, 0xff,
  0x00, 0x00, 0x00, 0x01, 0x18, 0x00, 0x00, 0x00, 0x28, 0x00, 0x00, 0x00,
  0x48, 0x00, 0x00, 0x00, 0x07, 0x00, 0x00, 0x00, 0x00, 0x00, 0x00, 0x09,
  0xa0, 0x00, 0x00, 0x00, 0x04, 0x00, 0x00, 0x00, 0xff, 0xff, 0xff, 0xff,
  0x0d, 0x00, 0x00, 0x00, 0x0d, 0x00, 0x00, 0x00, 0x08, 0x00, 0x00, 0x00,
  0x74, 0xfc, 0xff, 0xff, 0x08, 0x00, 0x00, 0x00, 0x14, 0x00, 0x00, 0x00,
  0x01, 0x00, 0x00, 0x00, 0xff, 0xff, 0xff, 0xff, 0xff, 0xff, 0xff, 0xff,
  0x00, 0x00, 0x00, 0x00, 0x01, 0x00, 0x00, 0x00, 0xd5, 0x4a, 0x40, 0x3d,
  0x5c, 0x00, 0x00, 0x00, 0x73, 0x65, 0x71, 0x75, 0x65, 0x6e, 0x74, 0x69,
  0x61, 0x6c, 0x2f, 0x71, 0x75, 0x61, 0x6e, 0x74, 0x5f, 0x63, 0x6f, 0x6e,
  0x76, 0x32, 0x64, 0x2f, 0x52, 0x65, 0x6c, 0x75, 0x3b, 0x73, 0x65, 0x71,
  0x75, 0x65, 0x6e, 0x74, 0x69, 0x61, 0x6c, 0x2f, 0x71, 0x75, 0x61, 0x6e,
  0x74, 0x5f, 0x63, 0x6f, 0x6e, 0x76, 0x32, 0x64, 0x2f, 0x42, 0x69, 0x61,
  0x73, 0x41, 0x64, 0x64, 0x3b, 0x73, 0x65, 0x71, 0x75, 0x65, 0x6e, 0x74,
  0x69, 0x61, 0x6c, 0x2f, 0x71, 0x75, 0x61, 0x6e, 0x74, 0x5f, 0x63, 0x6f,
  0x6e, 0x76, 0x32, 0x64, 0x2f, 0x43, 0x6f, 0x6e, 0x76, 0x32, 0x44, 0x3b,
  0x00, 0x00, 0x00, 0x00, 0x04, 0x00, 0x00, 0x00, 0x01, 0x00, 0x00, 0x00,
  0x0d, 0x00, 0x00, 0x00, 0x0d, 0x00, 0x00, 0x00, 0x08, 0x00, 0x00, 0x00,
  0x5a, 0xfd, 0xff, 0xff, 0x00, 0x00, 0x00, 0x01, 0x18, 0x00, 0x00, 0x00,
  0x28, 0x00, 0x00, 0x00, 0x44, 0x00, 0x00, 0x00, 0x06, 0x00, 0x00, 0x00,
  0x00, 0x00, 0x00, 0x09, 0x70, 0x00, 0x00, 0x00, 0x04, 0x00, 0x00, 0x00,
  0xff, 0xff, 0xff, 0xff, 0x20, 0x00, 0x00, 0x00, 0x20, 0x00, 0x00, 0x00,
  0x01, 0x00, 0x00, 0x00, 0x44, 0xfd, 0xff, 0xff, 0x08, 0x00, 0x00, 0x00,
  0x10, 0x00, 0x00, 0x00, 0x01, 0x00, 0x00, 0x00, 0x80, 0xff, 0xff, 0xff,
  0xff, 0xff, 0xff, 0xff, 0x01, 0x00, 0x00, 0x00, 0xd4, 0x2e, 0x09, 0x3e,
  0x30, 0x00, 0x00, 0x00, 0x73, 0x65, 0x71, 0x75, 0x65, 0x6e, 0x74, 0x69,
  0x61, 0x6c, 0x2f, 0x72, 0x65, 0x73, 0x69, 0x7a, 0x69, 0x6e, 0x67, 0x2f,
  0x72, 0x65, 0x73, 0x69, 0x7a, 0x65, 0x2f, 0x52, 0x65, 0x73, 0x69, 0x7a,
  0x65, 0x4e, 0x65, 0x61, 0x72, 0x65, 0x73, 0x74, 0x4e, 0x65, 0x69, 0x67,
  0x68, 0x62, 0x6f, 0x72, 0x00, 0x00, 0x00, 0x00, 0x04, 0x00, 0x00, 0x00,
  0x01, 0x00, 0x00, 0x00, 0x20, 0x00, 0x00, 0x00, 0x20, 0x00, 0x00, 0x00,
  0x01, 0x00, 0x00, 0x00, 0x52, 0xfe, 0xff, 0xff, 0x00, 0x00, 0x00, 0x01,
  0x14, 0x00, 0x00, 0x00, 0x88, 0x00, 0x00, 0x00, 0x05, 0x00, 0x00, 0x00,
  0x00, 0x00, 0x00, 0x09, 0x94, 0x00, 0x00, 0x00, 0xcc, 0xfd, 0xff, 0xff,
  0x08, 0x00, 0x00, 0x00, 0x4c, 0x00, 0x00, 0x00, 0x08, 0x00, 0x00, 0x00,
  0x00, 0x00, 0x00, 0x00, 0x00, 0x00, 0x00, 0x00, 0x00, 0x00, 0x00, 0x00,
  0x00, 0x00, 0x00, 0x00, 0x00, 0x00, 0x00, 0x00, 0x00, 0x00, 0x00, 0x00,
  0x00, 0x00, 0x00, 0x00, 0x00, 0x00, 0x00, 0x00, 0x00, 0x00, 0x00, 0x00,
  0x00, 0x00, 0x00, 0x00, 0x00, 0x00, 0x00, 0x00, 0x00, 0x00, 0x00, 0x00,
  0x00, 0x00, 0x00, 0x00, 0x00, 0x00, 0x00, 0x00, 0x00, 0x00, 0x00, 0x00,
  0x00, 0x00, 0x00, 0x00, 0x00, 0x00, 0x00, 0x00, 0x08, 0x00, 0x00, 0x00,
  0x7b, 0xde, 0x4c, 0x3a, 0x7c, 0xca, 0x58, 0x3a, 0x9c, 0x91, 0x5a, 0x3a,
  0xc2, 0x81, 0x59, 0x3a, 0xb5, 0xb4, 0x51, 0x3a, 0x01, 0x08, 0x47, 0x3a,
  0x95, 0x44, 0x59, 0x3a, 0x8d, 0x74, 0x58, 0x3a, 0x12, 0x00, 0x00, 0x00,
  0x74, 0x66, 0x6c, 0x2e, 0x70, 0x73, 0x65, 0x75, 0x64, 0x6f, 0x5f, 0x71,
  0x63, 0x6f, 0x6e, 0x73, 0x74, 0x31, 0x00, 0x00, 0x04, 0x00, 0x00, 0x00,
  0x08, 0x00, 0x00, 0x00, 0x08, 0x00, 0x00, 0x00, 0x08, 0x00, 0x00, 0x00,
  0x01, 0x00, 0x00, 0x00, 0x12, 0xff, 0xff, 0xff, 0x00, 0x00, 0x00, 0x01,
  0x14, 0x00, 0x00, 0x00, 0x84, 0x00, 0x00, 0x00, 0x04, 0x00, 0x00, 0x00,
  0x00, 0x00, 0x00, 0x02, 0x90, 0x00, 0x00, 0x00, 0x8c, 0xfe, 0xff, 0xff,
  0x08, 0x00, 0x00, 0x00, 0x48, 0x00, 0x00, 0x00, 0x08, 0x00, 0x00, 0x00,
  0x00, 0x00, 0x00, 0x00, 0x00, 0x00, 0x00, 0x00, 0x00, 0x00, 0x00, 0x00,
  0x00, 0x00, 0x00, 0x00, 0x00, 0x00, 0x00, 0x00, 0x00, 0x00, 0x00, 0x00,
  0x00, 0x00, 0x00, 0x00, 0x00, 0x00, 0x00, 0x00, 0x00, 0x00, 0x00, 0x00,
  0x00, 0x00, 0x00, 0x00, 0x00, 0x00, 0x00, 0x00, 0x00, 0x00, 0x00, 0x00,
  0x00, 0x00, 0x00, 0x00, 0x00, 0x00, 0x00, 0x00, 0x00, 0x00, 0x00, 0x00,
  0x00, 0x00, 0x00, 0x00, 0x08, 0x00, 0x00, 0x00, 0x13, 0x91, 0xdb, 0x38,
  0x09, 0x58, 0xe8, 0x38, 0xcf, 0x3f, 0xea, 0x38, 0x75, 0x1c, 0xe9, 0x38,
  0x22, 0xc0, 0xe0, 0x38, 0x62, 0x4f, 0xd5, 0x38, 0xe4, 0xda, 0xe8, 0x38,
  0xef, 0xfb, 0xe7, 0x38, 0x11, 0x00, 0x00, 0x00, 0x74, 0x66, 0x6c, 0x2e,
  0x70, 0x73, 0x65, 0x75, 0x64, 0x6f, 0x5f, 0x71, 0x63, 0x6f, 0x6e, 0x73,
  0x74, 0x00, 0x00, 0x00, 0x01, 0x00, 0x00, 0x00, 0x08, 0x00, 0x00, 0x00,
  0xc2, 0xff, 0xff, 0xff, 0x00, 0x00, 0x00, 0x01, 0x14, 0x00, 0x00, 0x00,
  0x14, 0x00, 0x00, 0x00, 0x03, 0x00, 0x00, 0x00, 0x00, 0x00, 0x00, 0x02,
  0x1c, 0x00, 0x00, 0x00, 0xac, 0xff, 0xff, 0xff, 0x0f, 0x00, 0x00, 0x00,
  0x61, 0x72, 0x69, 0x74, 0x68, 0x2e, 0x63, 0x6f, 0x6e, 0x73, 0x74, 0x61,
  0x6e, 0x74, 0x31, 0x00, 0x01, 0x00, 0x00, 0x00, 0x02, 0x00, 0x00, 0x00,
  0x00, 0x00, 0x16, 0x00, 0x1c, 0x00, 0x18, 0x00, 0x17, 0x00, 0x10, 0x00,
  0x0c, 0x00, 0x08, 0x00, 0x00, 0x00, 0x00, 0x00, 0x00, 0x00, 0x07, 0x00,
  0x16, 0x00, 0x00, 0x00, 0x00, 0x00, 0x00, 0x01, 0x18, 0x00, 0x00, 0x00,
  0x18, 0x00, 0x00, 0x00, 0x02, 0x00, 0x00, 0x00, 0x00, 0x00, 0x00, 0x02,
  0x20, 0x00, 0x00, 0x00, 0x04, 0x00, 0x04, 0x00, 0x04, 0x00, 0x00, 0x00,
  0x0e, 0x00, 0x00, 0x00, 0x61, 0x72, 0x69, 0x74, 0x68, 0x2e, 0x63, 0x6f,
  0x6e, 0x73, 0x74, 0x61, 0x6e, 0x74, 0x00, 0x00, 0x01, 0x00, 0x00, 0x00,
  0x02, 0x00, 0x00, 0x00, 0x00, 0x00, 0x16, 0x00, 0x20, 0x00, 0x1c, 0x00,
  0x1b, 0x00, 0x14, 0x00, 0x10, 0x00, 0x0c, 0x00, 0x00, 0x00, 0x00, 0x00,
  0x08, 0x00, 0x07, 0x00, 0x16, 0x00, 0x00, 0x00, 0x00, 0x00, 0x00, 0x01,
  0x18, 0x00, 0x00, 0x00, 0x34, 0x00, 0x00, 0x00, 0x54, 0x00, 0x00, 0x00,
  0x01, 0x00, 0x00, 0x00, 0x00, 0x00, 0x00, 0x09, 0x68, 0x00, 0x00, 0x00,
  0x04, 0x00, 0x00, 0x00, 0xff, 0xff, 0xff, 0xff, 0x18, 0x01, 0x00, 0x00,
  0x81, 0x00, 0x00, 0x00, 0x01, 0x00, 0x00, 0x00, 0x0c, 0x00, 0x0c, 0x00,
  0x00, 0x00, 0x00, 0x00, 0x08, 0x00, 0x04, 0x00, 0x0c, 0x00, 0x00, 0x00,
  0x08, 0x00, 0x00, 0x00, 0x14, 0x00, 0x00, 0x00, 0x01, 0x00, 0x00, 0x00,
  0x80, 0xff, 0xff, 0xff, 0xff, 0xff, 0xff, 0xff, 0x00, 0x00, 0x00, 0x00,
  0x01, 0x00, 0x00, 0x00, 0xd4, 0x2e, 0x09, 0x3e, 0x19, 0x00, 0x00, 0x00,
  0x73, 0x65, 0x72, 0x76, 0x69, 0x6e, 0x67, 0x5f, 0x64, 0x65, 0x66, 0x61,
  0x75, 0x6c, 0x74, 0x5f, 0x69, 0x6e, 0x70, 0x75, 0x74, 0x5f, 0x31, 0x3a,
  0x30, 0x00, 0x00, 0x00, 0x04, 0x00, 0x00, 0x00, 0x01, 0x00, 0x00, 0x00,
  0x18, 0x01, 0x00, 0x00, 0x81, 0x00, 0x00, 0x00, 0x01, 0x00, 0x00, 0x00,
  0x06, 0x00, 0x00, 0x00, 0x7c, 0x00, 0x00, 0x00, 0x5c, 0x00, 0x00, 0x00,
  0x48, 0x00, 0x00, 0x00, 0x38, 0x00, 0x00, 0x00, 0x18, 0x00, 0x00, 0x00,
  0x04, 0x00, 0x00, 0x00, 0xa8, 0xff, 0xff, 0xff, 0x19, 0x00, 0x00, 0x00,
  0x02, 0x00, 0x00, 0x00, 0x00, 0x00, 0x00, 0x19, 0xb8, 0xff, 0xff, 0xff,
  0x09, 0x00, 0x00, 0x00, 0x04, 0x00, 0x00, 0x00, 0x00, 0x00, 0x00, 0x09,
  0x0c, 0x00, 0x0c, 0x00, 0x0b, 0x00, 0x00, 0x00, 0x00, 0x00, 0x04, 0x00,
  0x0c, 0x00, 0x00, 0x00, 0x16, 0x00, 0x00, 0x00, 0x00, 0x00, 0x00, 0x16,
  0xe0, 0xff, 0xff, 0xff, 0x11, 0x00, 0x00, 0x00, 0x02, 0x00, 0x00, 0x00,
  0x00, 0x00, 0x00, 0x11, 0xf0, 0xff, 0xff, 0xff, 0x03, 0x00, 0x00, 0x00,
  0x03, 0x00, 0x00, 0x00, 0x00, 0x00, 0x00, 0x03, 0x0c, 0x00, 0x10, 0x00,
  0x0f, 0x00, 0x00, 0x00, 0x08, 0x00, 0x04, 0x00, 0x0c, 0x00, 0x00, 0x00,
  0x61, 0x00, 0x00, 0x00, 0x03, 0x00, 0x00, 0x00, 0x00, 0x00, 0x00, 0x61
  0x1c, 0x00, 0x00, 0x00, 0x54, 0x46, 0x4c, 0x33, 0x14, 0x00, 0x20, 0x00,
  0x1c, 0x00, 0x18, 0x00, 0x14, 0x00, 0x10, 0x00, 0x0c, 0x00, 0x00, 0x00,
  0x08, 0x00, 0x04, 0x00, 0x14, 0x00, 0x00, 0x00, 0x1c, 0x00, 0x00, 0x00,
  0x80, 0x00, 0x00, 0x00, 0x00, 0x01, 0x00, 0x00, 0xc8, 0x06, 0x00, 0x00,
  0xd8, 0x06, 0x00, 0x00, 0xfc, 0x0f, 0x00, 0x00, 0x03, 0x00, 0x00, 0x00,
  0x01, 0x00, 0x00, 0x00, 0x04, 0x00, 0x00, 0x00, 0x76, 0xf8, 0xff, 0xff,
  0x0c, 0x00, 0x00, 0x00, 0x1c, 0x00, 0x00, 0x00, 0x38, 0x00, 0x00, 0x00,
  0x0f, 0x00, 0x00, 0x00, 0x73, 0x65, 0x72, 0x76, 0x69, 0x6e, 0x67, 0x5f,
  0x64, 0x65, 0x66, 0x61, 0x75, 0x6c, 0x74, 0x00, 0x01, 0x00, 0x00, 0x00,
  0x04, 0x00, 0x00, 0x00, 0x74, 0xff, 0xff, 0xff, 0x0c, 0x00, 0x00, 0x00,
  0x04, 0x00, 0x00, 0x00, 0x05, 0x00, 0x00, 0x00, 0x64, 0x65, 0x6e, 0x73,
  0x65, 0x00, 0x00, 0x00, 0x01, 0x00, 0x00, 0x00, 0x04, 0x00, 0x00, 0x00,
  0x16, 0xf9, 0xff, 0xff, 0x04, 0x00, 0x00, 0x00, 0x07, 0x00, 0x00, 0x00,
  0x69, 0x6e, 0x70, 0x75, 0x74, 0x5f, 0x31, 0x00, 0x03, 0x00, 0x00, 0x00,
  0x5c, 0x00, 0x00, 0x00, 0x2c, 0x00, 0x00, 0x00, 0x04, 0x00, 0x00, 0x00,
  0xb8, 0xff, 0xff, 0xff, 0x10, 0x00, 0x00, 0x00, 0x04, 0x00, 0x00, 0x00,
  0x13, 0x00, 0x00, 0x00, 0x43, 0x4f, 0x4e, 0x56, 0x45, 0x52, 0x53, 0x49,
  0x4f, 0x4e, 0x5f, 0x4d, 0x45, 0x54, 0x41, 0x44, 0x41, 0x54, 0x41, 0x00,
  0xdc, 0xff, 0xff, 0xff, 0x0f, 0x00, 0x00, 0x00, 0x04, 0x00, 0x00, 0x00,
  0x13, 0x00, 0x00, 0x00, 0x6d, 0x69, 0x6e, 0x5f, 0x72, 0x75, 0x6e, 0x74,
  0x69, 0x6d, 0x65, 0x5f, 0x76, 0x65, 0x72, 0x73, 0x69, 0x6f, 0x6e, 0x00,
  0x08, 0x00, 0x0c, 0x00, 0x08, 0x00, 0x04, 0x00, 0x08, 0x00, 0x00, 0x00,
  0x0e, 0x00, 0x00, 0x00, 0x04, 0x00, 0x00, 0x00, 0x13, 0x00, 0x00, 0x00,
  0x6d, 0x69, 0x6e, 0x5f, 0x72, 0x75, 0x6e, 0x74, 0x69, 0x6d, 0x65, 0x5f,
  0x76, 0x65, 0x72, 0x73, 0x69, 0x6f, 0x6e, 0x00, 0x11, 0x00, 0x00, 0x00,
  0xc4, 0x05, 0x00, 0x00, 0xbc, 0x05, 0x00, 0x00, 0xa4, 0x05, 0x00, 0x00,
  0x8c, 0x05, 0x00, 0x00, 0x74, 0x05, 0x00, 0x00, 0x24, 0x03, 0x00, 0x00,
  0xf4, 0x02, 0x00, 0x00, 0xe4, 0x00, 0x00, 0x00, 0xdc, 0x00, 0x00, 0x00,
  0xd4, 0x00, 0x00, 0x00, 0xcc, 0x00, 0x00, 0x00, 0xc4, 0x00, 0x00, 0x00,
  0xbc, 0x00, 0x00, 0x00, 0xb4, 0x00, 0x00, 0x00, 0x94, 0x00, 0x00, 0x00,
  0x74, 0x00, 0x00, 0x00, 0x04, 0x00, 0x00, 0x00, 0xf6, 0xf9, 0xff, 0xff,
  0x04, 0x00, 0x00, 0x00, 0x60, 0x00, 0x00, 0x00, 0x0c, 0x00, 0x00, 0x00,
  0x08, 0x00, 0x0e, 0x00, 0x08, 0x00, 0x04, 0x00, 0x08, 0x00, 0x00, 0x00,
  0x10, 0x00, 0x00, 0x00, 0x28, 0x00, 0x00, 0x00, 0x00, 0x00, 0x06, 0x00,
  0x08, 0x00, 0x04, 0x00, 0x06, 0x00, 0x00, 0x00, 0x04, 0x00, 0x00, 0x00,
  0x01, 0x00, 0x00, 0x00, 0xeb, 0x03, 0x00, 0x00, 0x0c, 0x00, 0x18, 0x00,
  0x14, 0x00, 0x10, 0x00, 0x0c, 0x00, 0x04, 0x00, 0x0c, 0x00, 0x00, 0x00,
  0x81, 0x43, 0x0f, 0x37, 0x13, 0x47, 0x3d, 0x0a, 0x02, 0x00, 0x00, 0x00,
  0x02, 0x00, 0x00, 0x00, 0x04, 0x00, 0x00, 0x00, 0x06, 0x00, 0x00, 0x00,
  0x32, 0x2e, 0x31, 0x37, 0x2e, 0x31, 0x00, 0x00, 0x62, 0xfa, 0xff, 0xff,
  0x04, 0x00, 0x00, 0x00, 0x10, 0x00, 0x00, 0x00, 0x00, 0x00, 0x00, 0x00,
  0x00, 0x00, 0x00, 0x00, 0x00, 0x00, 0x00, 0x00, 0x00, 0x00, 0x00, 0x00,
  0x7e, 0xfa, 0xff, 0xff, 0x04, 0x00, 0x00, 0x00, 0x10, 0x00, 0x00, 0x00,
  0x32, 0x2e, 0x33, 0x2e, 0x30, 0x00, 0x00, 0x00, 0x00, 0x00, 0x00, 0x00,
  0x00, 0x00, 0x00, 0x00, 0xb8, 0xf2, 0xff, 0xff, 0xbc, 0xf2, 0xff, 0xff,
  0xc0, 0xf2, 0xff, 0xff, 0xc4, 0xf2, 0xff, 0xff, 0xc8, 0xf2, 0xff, 0xff,
  0xcc, 0xf2, 0xff, 0xff, 0xb2, 0xfa, 0xff, 0xff, 0x04, 0x00, 0x00, 0x00,
  0x00, 0x02, 0x00, 0x00, 0x00, 0xae, 0x72, 0xaf, 0xe4, 0x91, 0x25, 0xf0,
  0xe8, 0x34, 0xdc, 0x23, 0xb9, 0x08, 0xed, 0x28, 0x0d, 0xf8, 0xdc, 0xe8,
  0xff, 0x81, 0xb4, 0xc9, 0x55, 0x01, 0x11, 0xed, 0xed, 0xc4, 0xa9, 0xee,
  0xfa, 0x1e, 0x15, 0x25, 0x92, 0xa9, 0xcd, 0x06, 0x50, 0xfe, 0xf1, 0x37,
  0x9e, 0x2c, 0x25, 0xa4, 0x50, 0x13, 0x37, 0xe0, 0xa0, 0x9b, 0xf7, 0x3a,
  0x0f, 0xdd, 0x57, 0x4d, 0xbc, 0x64, 0x30, 0x22, 0x0f, 0xe5, 0xc6, 0xcc,
  0xc4, 0xd8, 0xf8, 0x1a, 0x12, 0xd8, 0xed, 0xba, 0xd7, 0x1a, 0xd0, 0x0a,
  0x0a, 0xff, 0xe8, 0xd7, 0x7f, 0x28, 0x34, 0x0d, 0x15, 0xee, 0xcd, 0x09,
  0xc7, 0xdf, 0xd9, 0x00, 0x00, 0xd0, 0x91, 0xaa, 0x34, 0xfa, 0x07, 0x11,
  0x1f, 0xe3, 0x05, 0xbe, 0x65, 0x0a, 0x05, 0xf0, 0xf7, 0xb0, 0x8e, 0xb5,
  0xb6, 0xe9, 0xf2, 0x0b, 0x29, 0xe5, 0x4c, 0xe6, 0xf7, 0x01, 0x03, 0xfc,
  0x0b, 0xfc, 0x1c, 0xe9, 0xb8, 0x49, 0xf7, 0xae, 0xc5, 0xfa, 0xd7, 0xd3,
  0xbf, 0x13, 0x26, 0xb8, 0xef, 0xf8, 0x61, 0xfb, 0xe2, 0xdc, 0x1e, 0x00,
  0x44, 0x38, 0xcd, 0x11, 0xf4, 0x15, 0xcb, 0x81, 0x3c, 0xda, 0x32, 0xce,
  0xbb, 0xed, 0xd0, 0x6f, 0xd0, 0xad, 0xbe, 0xf7, 0xda, 0x15, 0x15, 0xeb,
  0x41, 0x27, 0x2a, 0xfe, 0x6c, 0x92, 0x23, 0xf0, 0xff, 0xeb, 0xf0, 0x09,
  0x18, 0x23, 0x1e, 0xb3, 0x0f, 0xc8, 0x17, 0x24, 0x19, 0xde, 0x05, 0xeb,
  0xe0, 0xc8, 0x15, 0x10, 0x2f, 0xfc, 0xbe, 0xc1, 0xbb, 0xdf, 0x1d, 0x31,
  0x4d, 0xcf, 0xd1, 0xb3, 0x03, 0xab, 0x22, 0x0c, 0x32, 0x1b, 0xe7, 0x92,
  0xf3, 0xc7, 0x11, 0x29, 0x02, 0xf0, 0xf2, 0xc8, 0x24, 0xf2, 0x1d, 0x0c,
  0xdb, 0x09, 0xb3, 0x01, 0x2d, 0xc4, 0x16, 0x1d, 0x06, 0xf3, 0x81, 0xc9,
  0x09, 0xcc, 0xfe, 0x10, 0x16, 0x1e, 0x97, 0xa2, 0x08, 0x5d, 0x2c, 0xca,
  0x39, 0x40, 0x4c, 0x2f, 0xe1, 0xfb, 0xad, 0x1c, 0xeb, 0x09, 0x08, 0xd0,
  0xf5, 0xf7, 0x17, 0x2c, 0x43, 0xdd, 0xf6, 0x39, 0xac, 0xe1, 0xe1, 0x27,
  0xcd, 0x20, 0xd5, 0xdb, 0xa9, 0xaa, 0x2f, 0xf2, 0x81, 0x65, 0xb9, 0xe7,
  0x20, 0x11, 0x16, 0x1f, 0x1d, 0xdd, 0xca, 0x98, 0x05, 0x16, 0x13, 0x23,
  0x2e, 0xeb, 0x01, 0xd4, 0x32, 0x32, 0x03, 0x12, 0xc1, 0xc3, 0xf1, 0x95,
  0xe4, 0x59, 0xa1, 0xbd, 0xe6, 0x55, 0x06, 0xcc, 0x03, 0xeb, 0xf5, 0x99,
  0xd3, 0x25, 0x25, 0xc8, 0x2f, 0x1e, 0xa6, 0xdf, 0x9b, 0xfb, 0xe9, 0x2d,
  0xf2, 0x06, 0xd7, 0xdf, 0x60, 0x6b, 0xf7, 0xca, 0x30, 0xeb, 0xed, 0x5a,
  0x73, 0xe5, 0xe6, 0xfe, 0x13, 0xf7, 0x28, 0xf3, 0xe2, 0x34, 0x04, 0x60,
  0x35, 0xc8, 0xd2, 0x81, 0xb8, 0x1a, 0x00, 0xe8, 0xdb, 0x19, 0xc3, 0xa6,
  0xf5, 0xf2, 0x04, 0xc8, 0x17, 0xdc, 0xf4, 0xe8, 0xf4, 0x24, 0xed, 0xf4,
  0x02, 0xf0, 0xe7, 0xc7, 0x1b, 0x1f, 0x42, 0xf5, 0x04, 0xa9, 0x96, 0xe4,
  0xcd, 0x1f, 0xfb, 0x12, 0x04, 0x05, 0x2a, 0xe4, 0xe6, 0x22, 0x1e, 0x23,
  0x05, 0x9d, 0xad, 0xb1, 0xd7, 0x0a, 0xeb, 0x18, 0x1c, 0xc0, 0xf2, 0xd3,
  0xee, 0xcd, 0x06, 0x26, 0x06, 0xdb, 0x91, 0xda, 0xcd, 0x13, 0x20, 0xed,
  0x21, 0x81, 0xdb, 0xc5, 0x21, 0xfa, 0x23, 0x29, 0xcf, 0xe2, 0x1a, 0x12,
  0x19, 0xd2, 0xc0, 0xa7, 0xd5, 0xcb, 0x18, 0x07, 0x37, 0x09, 0xe0, 0xb0,
  0xd8, 0xf4, 0x24, 0x11, 0x3d, 0xf2, 0xa4, 0x82, 0xeb, 0xdc, 0x25, 0xf2,
  0x28, 0x0e, 0xd9, 0x81, 0x3a, 0xfc, 0x0f, 0x09, 0xe7, 0xec, 0x29, 0x9b,
  0xfc, 0xf3, 0x3d, 0x14, 0xe9, 0x29, 0xb8, 0x9b, 0x41, 0xcf, 0x13, 0x0f,
  0x08, 0x28, 0xd8, 0xda, 0xc9, 0xab, 0x12, 0x0e, 0x10, 0x0e, 0xf5, 0xd2,
  0xbe, 0xfc, 0xff, 0xff, 0x04, 0x00, 0x00, 0x00, 0x20, 0x00, 0x00, 0x00,
  0x2a, 0x00, 0x00, 0x00, 0xb0, 0x00, 0x00, 0x00, 0x6d, 0x00, 0x00, 0x00,
  0x91, 0x00, 0x00, 0x00, 0x68, 0x00, 0x00, 0x00, 0xa7, 0x00, 0x00, 0x00,
  0xa5, 0x00, 0x00, 0x00, 0xb2, 0x00, 0x00, 0x00, 0xea, 0xfc, 0xff, 0xff,
  0x04, 0x00, 0x00, 0x00, 0x40, 0x02, 0x00, 0x00, 0x10, 0xc3, 0xd0, 0x45,
  0xf7, 0xd2, 0xb8, 0x54, 0xef, 0x13, 0xd4, 0x13, 0xf4, 0x02, 0xe6, 0x03,
  0xea, 0xf9, 0xd7, 0xf4, 0x16, 0xdf, 0xd8, 0xf2, 0x03, 0x09, 0x09, 0xe6,
  0x1d, 0xde, 0x03, 0xfd, 0x16, 0x21, 0xfa, 0xf1, 0xda, 0x0d, 0x1d, 0xf2,
  0xe6, 0x26, 0x01, 0xff, 0x0c, 0xf6, 0x19, 0x00, 0x0a, 0x88, 0xe3, 0x35,
  0xf8, 0xe3, 0xb4, 0x06, 0xf8, 0x21, 0x06, 0x10, 0xee, 0x01, 0x0a, 0x20,
  0xfc, 0x0c, 0xf4, 0x0e, 0x08, 0x03, 0x07, 0x1c, 0x40, 0xee, 0x33, 0xe2,
  0x17, 0xee, 0x06, 0xe4, 0x24, 0x06, 0x00, 0xfb, 0xe8, 0xf6, 0x16, 0xf1,
  0xe7, 0x17, 0xeb, 0x0d, 0x29, 0xe5, 0x25, 0xe9, 0x1c, 0x9f, 0x19, 0x35,
  0x17, 0xe4, 0x83, 0x19, 0x2e, 0x0a, 0xea, 0x22, 0xe0, 0x1c, 0xe9, 0x20,
  0xe0, 0xdd, 0xec, 0xf4, 0xf2, 0xf0, 0xeb, 0xef, 0xf9, 0x1f, 0x18, 0x0d,
  0x00, 0x19, 0xf3, 0xe7, 0xf5, 0x0b, 0x00, 0x02, 0xf5, 0xf0, 0xf9, 0xf8,
  0xd4, 0x16, 0x00, 0xf4, 0x18, 0xe1, 0xfe, 0xf1, 0x21, 0xcd, 0xe6, 0x37,
  0x04, 0xd0, 0xaa, 0x2a, 0x38, 0x11, 0x19, 0xf0, 0xb3, 0x32, 0x03, 0x01,
  0x22, 0x16, 0xea, 0xf6, 0xcb, 0xdf, 0xde, 0x09, 0x2f, 0x21, 0xf8, 0xfc,
  0x01, 0xe3, 0xf0, 0xf0, 0x05, 0xdf, 0x0d, 0xc7, 0xf9, 0xfe, 0x1f, 0xdb,
  0xeb, 0xf3, 0xf2, 0xf9, 0x16, 0xf6, 0xff, 0x03, 0xff, 0xb5, 0xdc, 0x24,
  0x09, 0xbf, 0x81, 0x2b, 0x0e, 0x2c, 0xcc, 0x04, 0xee, 0x2b, 0x07, 0x05,
  0x01, 0xf5, 0xed, 0x03, 0xec, 0x17, 0x04, 0xcd, 0xf2, 0x12, 0x08, 0x07,
  0x1f, 0xeb, 0x0c, 0xd7, 0x10, 0x11, 0x06, 0xfc, 0x20, 0xf3, 0xf7, 0x11,
  0x19, 0x0b, 0x21, 0xe5, 0x0d, 0xf1, 0x09, 0xef, 0xf1, 0xbd, 0xdc, 0x39,
  0x10, 0xcf, 0x81, 0x52, 0x31, 0x29, 0x07, 0xef, 0xcc, 0xf5, 0x36, 0x0a,
  0xcc, 0x1c, 0xce, 0xfe, 0xd9, 0xd2, 0xf9, 0xfe, 0xe0, 0xfc, 0x17, 0xd2,
  0x26, 0xe9, 0xf6, 0x30, 0xe9, 0x2f, 0xfb, 0x1f, 0xfc, 0x02, 0x28, 0x01,
  0x0a, 0x06, 0xdb, 0x22, 0x17, 0xfa, 0x11, 0x10, 0x0d, 0x3a, 0xf8, 0xbd,
  0x00, 0x59, 0x63, 0xb8, 0x01, 0xe5, 0xf9, 0x1e, 0x0e, 0xde, 0xd6, 0x1d,
  0x03, 0x00, 0xde, 0xfa, 0x08, 0xdb, 0xf9, 0xe8, 0x07, 0x10, 0x06, 0xdd,
  0x01, 0x03, 0x0a, 0xff, 0x02, 0xfa, 0xe0, 0x05, 0xfa, 0xe0, 0xec, 0x18,
  0xee, 0xfb, 0x22, 0xfc, 0xfc, 0x1c, 0xf1, 0x0a, 0x11, 0x5b, 0x25, 0xdb,
  0xc5, 0x2b, 0x77, 0xd3, 0xf1, 0xf8, 0x1f, 0xe6, 0x08, 0xfc, 0x09, 0xee,
  0xfb, 0x15, 0xe6, 0x13, 0x16, 0x02, 0xfe, 0xf1, 0xc5, 0xed, 0xdf, 0xe4,
  0xe8, 0x20, 0x08, 0xe2, 0xf4, 0x03, 0xe3, 0x00, 0x0b, 0xfe, 0xdd, 0xff,
  0x1e, 0xe2, 0xc8, 0x12, 0x0a, 0xdf, 0xee, 0xef, 0x05, 0x62, 0x03, 0xef,
  0x28, 0x58, 0x62, 0xcf, 0xbf, 0xbe, 0xdb, 0xdf, 0xf3, 0xf1, 0xf5, 0x0c,
  0x12, 0xee, 0xfb, 0x1d, 0x27, 0xea, 0xfe, 0x1c, 0xd6, 0x07, 0x09, 0xfc,
  0xd8, 0x24, 0x0f, 0xe4, 0x17, 0xf8, 0x1f, 0x13, 0x40, 0xf2, 0xe6, 0xfc,
  0x0e, 0xd9, 0x1c, 0xf9, 0x2a, 0x09, 0x07, 0xea, 0x0f, 0x30, 0xd9, 0xa5,
  0xec, 0xfb, 0x43, 0xc6, 0xd9, 0xf3, 0x04, 0xca, 0x1f, 0xd1, 0xfd, 0x16,
  0x18, 0xec, 0x37, 0x06, 0x0c, 0x1c, 0xde, 0x12, 0xf6, 0x13, 0xdc, 0xf3,
  0xf8, 0x18, 0x14, 0xfc, 0xe6, 0xee, 0xeb, 0xed, 0x2b, 0x0d, 0x00, 0xed,
  0xf7, 0xd8, 0x24, 0x06, 0x12, 0x1f, 0xe1, 0x11, 0x0c, 0x55, 0xfa, 0xc3,
  0xfa, 0x43, 0x5a, 0xef, 0x06, 0x00, 0xfc, 0xdf, 0x39, 0xe8, 0xef, 0xf7,
  0xf0, 0xf8, 0x02, 0x09, 0xeb, 0x0c, 0xee, 0xec, 0xf6, 0xfc, 0xd9, 0xf0,
  0x0b, 0xfc, 0x13, 0xfa, 0x0d, 0x03, 0xc7, 0xfa, 0xfe, 0xca, 0xf7, 0x13,
  0x17, 0xcb, 0xf8, 0x14, 0xf2, 0x07, 0x0f, 0x0c, 0x09, 0x51, 0x21, 0xba,
  0xdb, 0x04, 0x7f, 0xd9, 0xc2, 0xe3, 0xe5, 0xe7, 0x20, 0x0b, 0x10, 0x24,
  0x56, 0x1c, 0x0d, 0xf4, 0xf5, 0xe5, 0x05, 0x01, 0x10, 0xce, 0x06, 0xeb,
  0xf1, 0x0d, 0x0b, 0xfb, 0x1c, 0x06, 0x03, 0x25, 0xf8, 0xfb, 0xf4, 0xfc,
  0x02, 0xdb, 0x25, 0x25, 0x24, 0x0c, 0x13, 0x11, 0x36, 0xff, 0xff, 0xff,
  0x04, 0x00, 0x00, 0x00, 0x08, 0x00, 0x00, 0x00, 0x02, 0xff, 0xff, 0xff,
  0xfd, 0x00, 0x00, 0x00, 0x4a, 0xff, 0xff, 0xff, 0x04, 0x00, 0x00, 0x00,
  0x08, 0x00, 0x00, 0x00, 0xff, 0xff, 0xff, 0xff, 0x20, 0x01, 0x00, 0x00,
  0x5e, 0xff, 0xff, 0xff, 0x04, 0x00, 0x00, 0x00, 0x08, 0x00, 0x00, 0x00,
  0x20, 0x00, 0x00, 0x00, 0x20, 0x00, 0x00, 0x00, 0x90, 0xf7, 0xff, 0xff,
  0x94, 0xf7, 0xff, 0xff, 0x0f, 0x00, 0x00, 0x00, 0x4d, 0x4c, 0x49, 0x52,
  0x20, 0x43, 0x6f, 0x6e, 0x76, 0x65, 0x72, 0x74, 0x65, 0x64, 0x2e, 0x00,
  0x01, 0x00, 0x00, 0x00, 0x14, 0x00, 0x00, 0x00, 0x00, 0x00, 0x0e, 0x00,
  0x18, 0x00, 0x14, 0x00, 0x10, 0x00, 0x0c, 0x00, 0x08, 0x00, 0x04, 0x00,
  0x0e, 0x00, 0x00, 0x00, 0x14, 0x00, 0x00, 0x00, 0x1c, 0x00, 0x00, 0x00,
  0xc8, 0x01, 0x00, 0x00, 0xcc, 0x01, 0x00, 0x00, 0xd0, 0x01, 0x00, 0x00,
  0x04, 0x00, 0x00, 0x00, 0x6d, 0x61, 0x69, 0x6e, 0x00, 0x00, 0x00, 0x00,
  0x06, 0x00, 0x00, 0x00, 0x74, 0x01, 0x00, 0x00, 0x10, 0x01, 0x00, 0x00,
  0xac, 0x00, 0x00, 0x00, 0x84, 0x00, 0x00, 0x00, 0x40, 0x00, 0x00, 0x00,
  0x04, 0x00, 0x00, 0x00, 0x12, 0xff, 0xff, 0xff, 0x1c, 0x00, 0x00, 0x00,
  0x00, 0x00, 0x00, 0x09, 0x1c, 0x00, 0x00, 0x00, 0x20, 0x00, 0x00, 0x00,
  0x05, 0x00, 0x00, 0x00, 0x00, 0x00, 0x06, 0x00, 0x08, 0x00, 0x04, 0x00,
  0x06, 0x00, 0x00, 0x00, 0x00, 0x00, 0x80, 0x3f, 0x01, 0x00, 0x00, 0x00,
  0x0c, 0x00, 0x00, 0x00, 0x01, 0x00, 0x00, 0x00, 0x0b, 0x00, 0x00, 0x00,
  0x4a, 0xff, 0xff, 0xff, 0x14, 0x00, 0x00, 0x00, 0x00, 0x00, 0x00, 0x08,
  0x10, 0x00, 0x00, 0x00, 0x14, 0x00, 0x00, 0x00, 0x04, 0x00, 0x00, 0x00,
  0x54, 0xf8, 0xff, 0xff, 0x01, 0x00, 0x00, 0x00, 0x0b, 0x00, 0x00, 0x00,
  0x03, 0x00, 0x00, 0x00, 0x0a, 0x00, 0x00, 0x00, 0x04, 0x00, 0x00, 0x00,
  0x03, 0x00, 0x00, 0x00, 0x00, 0x00, 0x0a, 0x00, 0x10, 0x00, 0x0c, 0x00,
  0x08, 0x00, 0x04, 0x00, 0x0a, 0x00, 0x00, 0x00, 0x0c, 0x00, 0x00, 0x00,
  0x10, 0x00, 0x00, 0x00, 0x03, 0x00, 0x00, 0x00, 0x01, 0x00, 0x00, 0x00,
  0x0a, 0x00, 0x00, 0x00, 0x02, 0x00, 0x00, 0x00, 0x09, 0x00, 0x00, 0x00,
  0x02, 0x00, 0x00, 0x00, 0xae, 0xff, 0xff, 0xff, 0x24, 0x00, 0x00, 0x00,
  0x00, 0x00, 0x00, 0x05, 0x34, 0x00, 0x00, 0x00, 0x38, 0x00, 0x00, 0x00,
  0x02, 0x00, 0x00, 0x00, 0x00, 0x00, 0x0e, 0x00, 0x18, 0x00, 0x17, 0x00,
  0x10, 0x00, 0x0c, 0x00, 0x08, 0x00, 0x04, 0x00, 0x0e, 0x00, 0x00, 0x00,
  0x02, 0x00, 0x00, 0x00, 0x02, 0x00, 0x00, 0x00, 0x02, 0x00, 0x00, 0x00,
  0x02, 0x00, 0x00, 0x00, 0x00, 0x00, 0x00, 0x01, 0x01, 0x00, 0x00, 0x00,
  0x09, 0x00, 0x00, 0x00, 0x01, 0x00, 0x00, 0x00, 0x08, 0x00, 0x00, 0x00,
  0x00, 0x00, 0x0e, 0x00, 0x18, 0x00, 0x14, 0x00, 0x10, 0x00, 0x0c, 0x00,
  0x0b, 0x00, 0x04, 0x00, 0x0e, 0x00, 0x00, 0x00, 0x20, 0x00, 0x00, 0x00,
  0x00, 0x00, 0x00, 0x01, 0x2c, 0x00, 0x00, 0x00, 0x30, 0x00, 0x00, 0x00,
  0x01, 0x00, 0x00, 0x00, 0x0c, 0x00, 0x14, 0x00, 0x13, 0x00, 0x0c, 0x00,
  0x08, 0x00, 0x07, 0x00, 0x0c, 0x00, 0x00, 0x00, 0x00, 0x00, 0x00, 0x01,
  0x02, 0x00, 0x00, 0x00, 0x02, 0x00, 0x00, 0x00, 0x00, 0x00, 0x00, 0x01,
  0x01, 0x00, 0x00, 0x00, 0x08, 0x00, 0x00, 0x00, 0x03, 0x00, 0x00, 0x00,
  0x07, 0x00, 0x00, 0x00, 0x06, 0x00, 0x00, 0x00, 0x05, 0x00, 0x00, 0x00,
  0x00, 0x00, 0x0e, 0x00, 0x14, 0x00, 0x00, 0x00, 0x10, 0x00, 0x0c, 0x00,
  0x0b, 0x00, 0x04, 0x00, 0x0e, 0x00, 0x00, 0x00, 0x18, 0x00, 0x00, 0x00,
  0x00, 0x00, 0x00, 0x4a, 0x18, 0x00, 0x00, 0x00, 0x1c, 0x00, 0x00, 0x00,
  0x08, 0x00, 0x08, 0x00, 0x00, 0x00, 0x07, 0x00, 0x08, 0x00, 0x00, 0x00,
  0x00, 0x00, 0x00, 0x01, 0x01, 0x00, 0x00, 0x00, 0x07, 0x00, 0x00, 0x00,
  0x02, 0x00, 0x00, 0x00, 0x00, 0x00, 0x00, 0x00, 0x01, 0x00, 0x00, 0x00,
  0x01, 0x00, 0x00, 0x00, 0x0c, 0x00, 0x00, 0x00, 0x01, 0x00, 0x00, 0x00,
  0x00, 0x00, 0x00, 0x00, 0x0d, 0x00, 0x00, 0x00, 0x90, 0x06, 0x00, 0x00,
  0x34, 0x06, 0x00, 0x00, 0xdc, 0x05, 0x00, 0x00, 0x70, 0x05, 0x00, 0x00,
  0xfc, 0x04, 0x00, 0x00, 0x48, 0x04, 0x00, 0x00, 0x84, 0x03, 0x00, 0x00,
  0xe0, 0x02, 0x00, 0x00, 0x24, 0x02, 0x00, 0x00, 0x90, 0x01, 0x00, 0x00,
  0x14, 0x01, 0x00, 0x00, 0x80, 0x00, 0x00, 0x00, 0x04, 0x00, 0x00, 0x00,
  0xba, 0xf9, 0xff, 0xff, 0x00, 0x00, 0x00, 0x01, 0x18, 0x00, 0x00, 0x00,
  0x20, 0x00, 0x00, 0x00, 0x3c, 0x00, 0x00, 0x00, 0x0d, 0x00, 0x00, 0x00,
  0x00, 0x00, 0x00, 0x09, 0x50, 0x00, 0x00, 0x00, 0x02, 0x00, 0x00, 0x00,
  0xff, 0xff, 0xff, 0xff, 0x02, 0x00, 0x00, 0x00, 0x9c, 0xf9, 0xff, 0xff,
  0x08, 0x00, 0x00, 0x00, 0x10, 0x00, 0x00, 0x00, 0x01, 0x00, 0x00, 0x00,
  0x80, 0xff, 0xff, 0xff, 0xff, 0xff, 0xff, 0xff, 0x01, 0x00, 0x00, 0x00,
  0x00, 0x00, 0x80, 0x3b, 0x19, 0x00, 0x00, 0x00, 0x53, 0x74, 0x61, 0x74,
  0x65, 0x66, 0x75, 0x6c, 0x50, 0x61, 0x72, 0x74, 0x69, 0x74, 0x69, 0x6f,
  0x6e, 0x65, 0x64, 0x43, 0x61, 0x6c, 0x6c, 0x3a, 0x30, 0x00, 0x00, 0x00,
  0x02, 0x00, 0x00, 0x00, 0x01, 0x00, 0x00, 0x00, 0x02, 0x00, 0x00, 0x00,
  0x32, 0xfa, 0xff, 0xff, 0x00, 0x00, 0x00, 0x01, 0x18, 0x00, 0x00, 0x00,
  0x20, 0x00, 0x00, 0x00, 0x3c, 0x00, 0x00, 0x00, 0x0c, 0x00, 0x00, 0x00,
  0x00, 0x00, 0x00, 0x09, 0x68, 0x00, 0x00, 0x00, 0x02, 0x00, 0x00, 0x00,
  0xff, 0xff, 0xff, 0xff, 0x02, 0x00, 0x00, 0x00, 0x14, 0xfa, 0xff, 0xff,
  0x08, 0x00, 0x00, 0x00, 0x10, 0x00, 0x00, 0x00, 0x01, 0x00, 0x00, 0x00,
  0x06, 0x00, 0x00, 0x00, 0x00, 0x00, 0x00, 0x00, 0x01, 0x00, 0x00, 0x00,
  0xe8, 0x4b, 0x78, 0x3f, 0x30, 0x00, 0x00, 0x00, 0x73, 0x65, 0x71, 0x75,
  0x65, 0x6e, 0x74, 0x69, 0x61, 0x6c, 0x2f, 0x64, 0x65, 0x6e, 0x73, 0x65,
  0x2f, 0x4d, 0x61, 0x74, 0x4d, 0x75, 0x6c, 0x3b, 0x73, 0x65, 0x71, 0x75,
  0x65, 0x6e, 0x74, 0x69, 0x61, 0x6c, 0x2f, 0x64, 0x65, 0x6e, 0x73, 0x65,
  0x2f, 0x42, 0x69, 0x61, 0x73, 0x41, 0x64, 0x64, 0x00, 0x00, 0x00, 0x00,
  0x02, 0x00, 0x00, 0x00, 0x01, 0x00, 0x00, 0x00, 0x02, 0x00, 0x00, 0x00,
  0xc2, 0xfa, 0xff, 0xff, 0x00, 0x00, 0x00, 0x01, 0x18, 0x00, 0x00, 0x00,
  0x20, 0x00, 0x00, 0x00, 0x3c, 0x00, 0x00, 0x00, 0x0b, 0x00, 0x00, 0x00,
  0x00, 0x00, 0x00, 0x09, 0x50, 0x00, 0x00, 0x00, 0x02, 0x00, 0x00, 0x00,
  0xff, 0xff, 0xff, 0xff, 0x20, 0x01, 0x00, 0x00, 0xa4, 0xfa, 0xff, 0xff,
  0x08, 0x00, 0x00, 0x00, 0x10, 0x00, 0x00, 0x00, 0x01, 0x00, 0x00, 0x00,
  0x80, 0xff, 0xff, 0xff, 0xff, 0xff, 0xff, 0xff, 0x01, 0x00, 0x00, 0x00,
  0xc1, 0xe1, 0xec, 0x3e, 0x1a, 0x00, 0x00, 0x00, 0x73, 0x65, 0x71, 0x75,
  0x65, 0x6e, 0x74, 0x69, 0x61, 0x6c, 0x2f, 0x66, 0x6c, 0x61, 0x74, 0x74,
  0x65, 0x6e, 0x2f, 0x52, 0x65, 0x73, 0x68, 0x61, 0x70, 0x65, 0x00, 0x00,
  0x02, 0x00, 0x00, 0x00, 0x01, 0x00, 0x00, 0x00, 0x20, 0x01, 0x00, 0x00,
  0x3a, 0xfb, 0xff, 0xff, 0x00, 0x00, 0x00, 0x01, 0x18, 0x00, 0x00, 0x00,
  0x28, 0x00, 0x00, 0x00, 0x44, 0x00, 0x00, 0x00, 0x0a, 0x00, 0x00, 0x00,
  0x00, 0x00, 0x00, 0x09, 0x60, 0x00, 0x00, 0x00, 0x04, 0x00, 0x00, 0x00,
  0xff, 0xff, 0xff, 0xff, 0x06, 0x00, 0x00, 0x00, 0x06, 0x00, 0x00, 0x00,
  0x08, 0x00, 0x00, 0x00, 0x24, 0xfb, 0xff, 0xff, 0x08, 0x00, 0x00, 0x00,
  0x10, 0x00, 0x00, 0x00, 0x01, 0x00, 0x00, 0x00, 0x80, 0xff, 0xff, 0xff,
  0xff, 0xff, 0xff, 0xff, 0x01, 0x00, 0x00, 0x00, 0xc1, 0xe1, 0xec, 0x3e,
  0x20, 0x00, 0x00, 0x00, 0x73, 0x65, 0x71, 0x75, 0x65, 0x6e, 0x74, 0x69,
  0x61, 0x6c, 0x2f, 0x6d, 0x61, 0x78, 0x5f, 0x70, 0x6f, 0x6f, 0x6c, 0x69,
  0x6e, 0x67, 0x32, 0x64, 0x2f, 0x4d, 0x61, 0x78, 0x50, 0x6f, 0x6f, 0x6c,
  0x00, 0x00, 0x00, 0x00, 0x04, 0x00, 0x00, 0x00, 0x01, 0x00, 0x00, 0x00,
  0x06, 0x00, 0x00, 0x00, 0x06, 0x00, 0x00, 0x00, 0x08, 0x00, 0x00, 0x00,
  0xca, 0xfb, 0xff, 0xff, 0x00, 0x00, 0x00, 0x01, 0x18, 0x00, 0x00, 0x00,
  0x28, 0x00, 0x00, 0x00, 0x44, 0x00, 0x00, 0x00, 0x09, 0x00, 0x00, 0x00,
  0x00, 0x00, 0x00, 0x09, 0x88, 0x00, 0x00, 0x00, 0x04, 0x00, 0x00, 0x00,
  0xff, 0xff, 0xff, 0xff, 0x0d, 0x00, 0x00, 0x00, 0x0d, 0x00, 0x00, 0x00,
  0x08, 0x00, 0x00, 0x00, 0xb4, 0xfb, 0xff, 0xff, 0x08, 0x00, 0x00, 0x00,
  0x10, 0x00, 0x00, 0x00, 0x01, 0x00, 0x00, 0x00, 0x80, 0xff, 0xff, 0xff,
  0xff, 0xff, 0xff, 0xff, 0x01, 0x00, 0x00, 0x00, 0xc1, 0xe1, 0xec, 0x3e,
  0x4a, 0x00, 0x00, 0x00, 0x73, 0x65, 0x71, 0x75, 0x65, 0x6e, 0x74, 0x69,
  0x61, 0x6c, 0x2f, 0x63, 0x6f, 0x6e, 0x76, 0x32, 0x64, 0x2f, 0x52, 0x65,
  0x6c, 0x75, 0x3b, 0x73, 0x65, 0x71, 0x75, 0x65, 0x6e, 0x74, 0x69, 0x61,
  0x6c, 0x2f, 0x63, 0x6f, 0x6e, 0x76, 0x32, 0x64, 0x2f, 0x42, 0x69, 0x61,
  0x73, 0x41, 0x64, 0x64, 0x3b, 0x73, 0x65, 0x71, 0x75, 0x65, 0x6e, 0x74,
  0x69, 0x61, 0x6c, 0x2f, 0x63, 0x6f, 0x6e, 0x76, 0x32, 0x64, 0x2f, 0x43,
  0x6f, 0x6e, 0x76, 0x32, 0x44, 0x3b, 0x00, 0x00, 0x04, 0x00, 0x00, 0x00,
  0x01, 0x00, 0x00, 0x00, 0x0d, 0x00, 0x00, 0x00, 0x0d, 0x00, 0x00, 0x00,
  0x08, 0x00, 0x00, 0x00, 0x82, 0xfc, 0xff, 0xff, 0x00, 0x00, 0x00, 0x01,
  0x18, 0x00, 0x00, 0x00, 0x28, 0x00, 0x00, 0x00, 0x44, 0x00, 0x00, 0x00,
  0x08, 0x00, 0x00, 0x00, 0x00, 0x00, 0x00, 0x09, 0x70, 0x00, 0x00, 0x00,
  0x04, 0x00, 0x00, 0x00, 0xff, 0xff, 0xff, 0xff, 0x20, 0x00, 0x00, 0x00,
  0x20, 0x00, 0x00, 0x00, 0x01, 0x00, 0x00, 0x00, 0x6c, 0xfc, 0xff, 0xff,
  0x08, 0x00, 0x00, 0x00, 0x10, 0x00, 0x00, 0x00, 0x01, 0x00, 0x00, 0x00,
  0x80, 0xff, 0xff, 0xff, 0xff, 0xff, 0xff, 0xff, 0x01, 0x00, 0x00, 0x00,
  0xd4, 0x2e, 0x09, 0x3e, 0x30, 0x00, 0x00, 0x00, 0x73, 0x65, 0x71, 0x75,
  0x65, 0x6e, 0x74, 0x69, 0x61, 0x6c, 0x2f, 0x72, 0x65, 0x73, 0x69, 0x7a,
  0x69, 0x6e, 0x67, 0x2f, 0x72, 0x65, 0x73, 0x69, 0x7a, 0x65, 0x2f, 0x52,
  0x65, 0x73, 0x69, 0x7a, 0x65, 0x4e, 0x65, 0x61, 0x72, 0x65, 0x73, 0x74,
  0x4e, 0x65, 0x69, 0x67, 0x68, 0x62, 0x6f, 0x72, 0x00, 0x00, 0x00, 0x00,
  0x04, 0x00, 0x00, 0x00, 0x01, 0x00, 0x00, 0x00, 0x20, 0x00, 0x00, 0x00,
  0x20, 0x00, 0x00, 0x00, 0x01, 0x00, 0x00, 0x00, 0x7a, 0xfd, 0xff, 0xff,
  0x00, 0x00, 0x00, 0x01, 0x14, 0x00, 0x00, 0x00, 0x88, 0x00, 0x00, 0x00,
  0x07, 0x00, 0x00, 0x00, 0x00, 0x00, 0x00, 0x09, 0x94, 0x00, 0x00, 0x00,
  0xf4, 0xfc, 0xff, 0xff, 0x08, 0x00, 0x00, 0x00, 0x4c, 0x00, 0x00, 0x00,
  0x08, 0x00, 0x00, 0x00, 0x00, 0x00, 0x00, 0x00, 0x00, 0x00, 0x00, 0x00,
  0x00, 0x00, 0x00, 0x00, 0x00, 0x00, 0x00, 0x00, 0x00, 0x00, 0x00, 0x00,
  0x00, 0x00, 0x00, 0x00, 0x00, 0x00, 0x00, 0x00, 0x00, 0x00, 0x00, 0x00,
  0x00, 0x00, 0x00, 0x00, 0x00, 0x00, 0x00, 0x00, 0x00, 0x00, 0x00, 0x00,
  0x00, 0x00, 0x00, 0x00, 0x00, 0x00, 0x00, 0x00, 0x00, 0x00, 0x00, 0x00,
  0x00, 0x00, 0x00, 0x00, 0x00, 0x00, 0x00, 0x00, 0x00, 0x00, 0x00, 0x00,
  0x08, 0x00, 0x00, 0x00, 0xa2, 0xa1, 0x69, 0x3c, 0x8c, 0x64, 0xdd, 0x3c,
  0xe3, 0xeb, 0xa6, 0x3c, 0xe0, 0x73, 0xbe, 0x3c, 0x2b, 0x3b, 0x96, 0x3c,
  0x66, 0x93, 0x9a, 0x3c, 0xfc, 0xdd, 0xe8, 0x3c, 0xd6, 0xc6, 0xbc, 0x3c,
  0x12, 0x00, 0x00, 0x00, 0x74, 0x66, 0x6c, 0x2e, 0x70, 0x73, 0x65, 0x75,
  0x64, 0x6f, 0x5f, 0x71, 0x63, 0x6f, 0x6e, 0x73, 0x74, 0x33, 0x00, 0x00,
  0x04, 0x00, 0x00, 0x00, 0x08, 0x00, 0x00, 0x00, 0x08, 0x00, 0x00, 0x00,
  0x08, 0x00, 0x00, 0x00, 0x01, 0x00, 0x00, 0x00, 0x3a, 0xfe, 0xff, 0xff,
  0x00, 0x00, 0x00, 0x01, 0x14, 0x00, 0x00, 0x00, 0x84, 0x00, 0x00, 0x00,
  0x06, 0x00, 0x00, 0x00, 0x00, 0x00, 0x00, 0x02, 0x90, 0x00, 0x00, 0x00,
  0xb4, 0xfd, 0xff, 0xff, 0x08, 0x00, 0x00, 0x00, 0x48, 0x00, 0x00, 0x00,
  0x08, 0x00, 0x00, 0x00, 0x00, 0x00, 0x00, 0x00, 0x00, 0x00, 0x00, 0x00,
  0x00, 0x00, 0x00, 0x00, 0x00, 0x00, 0x00, 0x00, 0x00, 0x00, 0x00, 0x00,
  0x00, 0x00, 0x00, 0x00, 0x00, 0x00, 0x00, 0x00, 0x00, 0x00, 0x00, 0x00,
  0x00, 0x00, 0x00, 0x00, 0x00, 0x00, 0x00, 0x00, 0x00, 0x00, 0x00, 0x00,
  0x00, 0x00, 0x00, 0x00, 0x00, 0x00, 0x00, 0x00, 0x00, 0x00, 0x00, 0x00,
  0x00, 0x00, 0x00, 0x00, 0x00, 0x00, 0x00, 0x00, 0x08, 0x00, 0x00, 0x00,
  0x78, 0x64, 0xfa, 0x3a, 0x9d, 0x46, 0x6d, 0x3b, 0x8a, 0xe5, 0x32, 0x3b,
  0xb3, 0x1d, 0x4c, 0x3b, 0x4a, 0x02, 0x21, 0x3b, 0x50, 0xaa, 0x25, 0x3b,
  0xc9, 0x92, 0x79, 0x3b, 0xe1, 0x51, 0x4a, 0x3b, 0x12, 0x00, 0x00, 0x00,
  0x74, 0x66, 0x6c, 0x2e, 0x70, 0x73, 0x65, 0x75, 0x64, 0x6f, 0x5f, 0x71,
  0x63, 0x6f, 0x6e, 0x73, 0x74, 0x32, 0x00, 0x00, 0x01, 0x00, 0x00, 0x00,
  0x08, 0x00, 0x00, 0x00, 0xea, 0xfe, 0xff, 0xff, 0x00, 0x00, 0x00, 0x01,
  0x14, 0x00, 0x00, 0x00, 0x40, 0x00, 0x00, 0x00, 0x05, 0x00, 0x00, 0x00,
  0x00, 0x00, 0x00, 0x09, 0x4c, 0x00, 0x00, 0x00, 0x64, 0xfe, 0xff, 0xff,
  0x08, 0x00, 0x00, 0x00, 0x1c, 0x00, 0x00, 0x00, 0x02, 0x00, 0x00, 0x00,
  0x00, 0x00, 0x00, 0x00, 0x00, 0x00, 0x00, 0x00, 0x00, 0x00, 0x00, 0x00,
  0x00, 0x00, 0x00, 0x00, 0x00, 0x00, 0x00, 0x00, 0x02, 0x00, 0x00, 0x00,
  0x1f, 0x9a, 0x67, 0x3b, 0xe6, 0x73, 0x68, 0x3b, 0x12, 0x00, 0x00, 0x00,
  0x74, 0x66, 0x6c, 0x2e, 0x70, 0x73, 0x65, 0x75, 0x64, 0x6f, 0x5f, 0x71,
  0x63, 0x6f, 0x6e, 0x73, 0x74, 0x31, 0x00, 0x00, 0x02, 0x00, 0x00, 0x00,
  0x02, 0x00, 0x00, 0x00, 0x20, 0x01, 0x00, 0x00, 0x5a, 0xff, 0xff, 0xff,
  0x00, 0x00, 0x00, 0x01, 0x14, 0x00, 0x00, 0x00, 0x3c, 0x00, 0x00, 0x00,
  0x04, 0x00, 0x00, 0x00, 0x00, 0x00, 0x00, 0x02, 0x48, 0x00, 0x00, 0x00,
  0xd4, 0xfe, 0xff, 0xff, 0x08, 0x00, 0x00, 0x00, 0x18, 0x00, 0x00, 0x00,
  0x02, 0x00, 0x00, 0x00, 0x00, 0x00, 0x00, 0x00, 0x00, 0x00, 0x00, 0x00,
  0x00, 0x00, 0x00, 0x00, 0x00, 0x00, 0x00, 0x00, 0x02, 0x00, 0x00, 0x00,
  0x52, 0x4e, 0xd6, 0x3a, 0xd5, 0x17, 0xd7, 0x3a, 0x11, 0x00, 0x00, 0x00,
  0x74, 0x66, 0x6c, 0x2e, 0x70, 0x73, 0x65, 0x75, 0x64, 0x6f, 0x5f, 0x71,
  0x63, 0x6f, 0x6e, 0x73, 0x74, 0x00, 0x00, 0x00, 0x01, 0x00, 0x00, 0x00,
  0x02, 0x00, 0x00, 0x00, 0xc2, 0xff, 0xff, 0xff, 0x00, 0x00, 0x00, 0x01,
  0x14, 0x00, 0x00, 0x00, 0x14, 0x00, 0x00, 0x00, 0x03, 0x00, 0x00, 0x00,
  0x00, 0x00, 0x00, 0x02, 0x1c, 0x00, 0x00, 0x00, 0xac, 0xff, 0xff, 0xff,
  0x0f, 0x00, 0x00, 0x00, 0x61, 0x72, 0x69, 0x74, 0x68, 0x2e, 0x63, 0x6f,
  0x6e, 0x73, 0x74, 0x61, 0x6e, 0x74, 0x31, 0x00, 0x01, 0x00, 0x00, 0x00,
  0x02, 0x00, 0x00, 0x00, 0x00, 0x00, 0x16, 0x00, 0x1c, 0x00, 0x18, 0x00,
  0x17, 0x00, 0x10, 0x00, 0x0c, 0x00, 0x08, 0x00, 0x00, 0x00, 0x00, 0x00,
  0x00, 0x00, 0x07, 0x00, 0x16, 0x00, 0x00, 0x00, 0x00, 0x00, 0x00, 0x01,
  0x18, 0x00, 0x00, 0x00, 0x18, 0x00, 0x00, 0x00, 0x02, 0x00, 0x00, 0x00,
  0x00, 0x00, 0x00, 0x02, 0x20, 0x00, 0x00, 0x00, 0x04, 0x00, 0x04, 0x00,
  0x04, 0x00, 0x00, 0x00, 0x0e, 0x00, 0x00, 0x00, 0x61, 0x72, 0x69, 0x74,
  0x68, 0x2e, 0x63, 0x6f, 0x6e, 0x73, 0x74, 0x61, 0x6e, 0x74, 0x00, 0x00,
  0x01, 0x00, 0x00, 0x00, 0x02, 0x00, 0x00, 0x00, 0x00, 0x00, 0x16, 0x00,
  0x20, 0x00, 0x1c, 0x00, 0x1b, 0x00, 0x14, 0x00, 0x10, 0x00, 0x0c, 0x00,
  0x00, 0x00, 0x00, 0x00, 0x08, 0x00, 0x07, 0x00, 0x16, 0x00, 0x00, 0x00,
  0x00, 0x00, 0x00, 0x01, 0x18, 0x00, 0x00, 0x00, 0x34, 0x00, 0x00, 0x00,
  0x54, 0x00, 0x00, 0x00, 0x01, 0x00, 0x00, 0x00, 0x00, 0x00, 0x00, 0x09,
  0x68, 0x00, 0x00, 0x00, 0x04, 0x00, 0x00, 0x00, 0xff, 0xff, 0xff, 0xff,
  0x18, 0x01, 0x00, 0x00, 0x81, 0x00, 0x00, 0x00, 0x01, 0x00, 0x00, 0x00,
  0x0c, 0x00, 0x0c, 0x00, 0x00, 0x00, 0x00, 0x00, 0x08, 0x00, 0x04, 0x00,
  0x0c, 0x00, 0x00, 0x00, 0x08, 0x00, 0x00, 0x00, 0x14, 0x00, 0x00, 0x00,
  0x01, 0x00, 0x00, 0x00, 0x80, 0xff, 0xff, 0xff, 0xff, 0xff, 0xff, 0xff,
  0x00, 0x00, 0x00, 0x00, 0x01, 0x00, 0x00, 0x00, 0xd4, 0x2e, 0x09, 0x3e,
  0x19, 0x00, 0x00, 0x00, 0x73, 0x65, 0x72, 0x76, 0x69, 0x6e, 0x67, 0x5f,
  0x64, 0x65, 0x66, 0x61, 0x75, 0x6c, 0x74, 0x5f, 0x69, 0x6e, 0x70, 0x75,
  0x74, 0x5f, 0x31, 0x3a, 0x30, 0x00, 0x00, 0x00, 0x04, 0x00, 0x00, 0x00,
  0x01, 0x00, 0x00, 0x00, 0x18, 0x01, 0x00, 0x00, 0x81, 0x00, 0x00, 0x00,
  0x01, 0x00, 0x00, 0x00, 0x06, 0x00, 0x00, 0x00, 0x7c, 0x00, 0x00, 0x00,
  0x5c, 0x00, 0x00, 0x00, 0x48, 0x00, 0x00, 0x00, 0x38, 0x00, 0x00, 0x00,
  0x18, 0x00, 0x00, 0x00, 0x04, 0x00, 0x00, 0x00, 0xa8, 0xff, 0xff, 0xff,
  0x19, 0x00, 0x00, 0x00, 0x02, 0x00, 0x00, 0x00, 0x00, 0x00, 0x00, 0x19,
  0xb8, 0xff, 0xff, 0xff, 0x09, 0x00, 0x00, 0x00, 0x04, 0x00, 0x00, 0x00,
  0x00, 0x00, 0x00, 0x09, 0x0c, 0x00, 0x0c, 0x00, 0x0b, 0x00, 0x00, 0x00,
  0x00, 0x00, 0x04, 0x00, 0x0c, 0x00, 0x00, 0x00, 0x16, 0x00, 0x00, 0x00,
  0x00, 0x00, 0x00, 0x16, 0xe0, 0xff, 0xff, 0xff, 0x11, 0x00, 0x00, 0x00,
  0x02, 0x00, 0x00, 0x00, 0x00, 0x00, 0x00, 0x11, 0xf0, 0xff, 0xff, 0xff,
  0x03, 0x00, 0x00, 0x00, 0x03, 0x00, 0x00, 0x00, 0x00, 0x00, 0x00, 0x03,
  0x0c, 0x00, 0x10, 0x00, 0x0f, 0x00, 0x00, 0x00, 0x08, 0x00, 0x04, 0x00,
  0x0c, 0x00, 0x00, 0x00, 0x61, 0x00, 0x00, 0x00, 0x03, 0x00, 0x00, 0x00,
  0x00, 0x00, 0x00, 0x61
  0x1c, 0x00, 0x00, 0x00, 0x54, 0x46, 0x4c, 0x33, 0x14, 0x00, 0x20, 0x00,
  0x1c, 0x00, 0x18, 0x00, 0x14, 0x00, 0x10, 0x00, 0x0c, 0x00, 0x00, 0x00,
  0x08, 0x00, 0x04, 0x00, 0x14, 0x00, 0x00, 0x00, 0x1c, 0x00, 0x00, 0x00,
  0x80, 0x00, 0x00, 0x00, 0x00, 0x01, 0x00, 0x00, 0xc8, 0x06, 0x00, 0x00,
  0xd8, 0x06, 0x00, 0x00, 0xfc, 0x0f, 0x00, 0x00, 0x03, 0x00, 0x00, 0x00,
  0x01, 0x00, 0x00, 0x00, 0x04, 0x00, 0x00, 0x00, 0x76, 0xf8, 0xff, 0xff,
  0x0c, 0x00, 0x00, 0x00, 0x1c, 0x00, 0x00, 0x00, 0x38, 0x00, 0x00, 0x00,
  0x0f, 0x00, 0x00, 0x00, 0x73, 0x65, 0x72, 0x76, 0x69, 0x6e, 0x67, 0x5f,
  0x64, 0x65, 0x66, 0x61, 0x75, 0x6c, 0x74, 0x00, 0x01, 0x00, 0x00, 0x00,
  0x04, 0x00, 0x00, 0x00, 0x74, 0xff, 0xff, 0xff, 0x0c, 0x00, 0x00, 0x00,
  0x04, 0x00, 0x00, 0x00, 0x05, 0x00, 0x00, 0x00, 0x64, 0x65, 0x6e, 0x73,
  0x65, 0x00, 0x00, 0x00, 0x01, 0x00, 0x00, 0x00, 0x04, 0x00, 0x00, 0x00,
  0x16, 0xf9, 0xff, 0xff, 0x04, 0x00, 0x00, 0x00, 0x07, 0x00, 0x00, 0x00,
  0x69, 0x6e, 0x70, 0x75, 0x74, 0x5f, 0x31, 0x00, 0x03, 0x00, 0x00, 0x00,
  0x5c, 0x00, 0x00, 0x00, 0x2c, 0x00, 0x00, 0x00, 0x04, 0x00, 0x00, 0x00,
  0xb8, 0xff, 0xff, 0xff, 0x10, 0x00, 0x00, 0x00, 0x04, 0x00, 0x00, 0x00,
  0x13, 0x00, 0x00, 0x00, 0x43, 0x4f, 0x4e, 0x56, 0x45, 0x52, 0x53, 0x49,
  0x4f, 0x4e, 0x5f, 0x4d, 0x45, 0x54, 0x41, 0x44, 0x41, 0x54, 0x41, 0x00,
  0xdc, 0xff, 0xff, 0xff, 0x0f, 0x00, 0x00, 0x00, 0x04, 0x00, 0x00, 0x00,
  0x13, 0x00, 0x00, 0x00, 0x6d, 0x69, 0x6e, 0x5f, 0x72, 0x75, 0x6e, 0x74,
  0x69, 0x6d, 0x65, 0x5f, 0x76, 0x65, 0x72, 0x73, 0x69, 0x6f, 0x6e, 0x00,
  0x08, 0x00, 0x0c, 0x00, 0x08, 0x00, 0x04, 0x00, 0x08, 0x00, 0x00, 0x00,
  0x0e, 0x00, 0x00, 0x00, 0x04, 0x00, 0x00, 0x00, 0x13, 0x00, 0x00, 0x00,
  0x6d, 0x69, 0x6e, 0x5f, 0x72, 0x75, 0x6e, 0x74, 0x69, 0x6d, 0x65, 0x5f,
  0x76, 0x65, 0x72, 0x73, 0x69, 0x6f, 0x6e, 0x00, 0x11, 0x00, 0x00, 0x00,
  0xc4, 0x05, 0x00, 0x00, 0xbc, 0x05, 0x00, 0x00, 0xa4, 0x05, 0x00, 0x00,
  0x8c, 0x05, 0x00, 0x00, 0x74, 0x05, 0x00, 0x00, 0x24, 0x03, 0x00, 0x00,
  0xf4, 0x02, 0x00, 0x00, 0xe4, 0x00, 0x00, 0x00, 0xdc, 0x00, 0x00, 0x00,
  0xd4, 0x00, 0x00, 0x00, 0xcc, 0x00, 0x00, 0x00, 0xc4, 0x00, 0x00, 0x00,
  0xbc, 0x00, 0x00, 0x00, 0xb4, 0x00, 0x00, 0x00, 0x94, 0x00, 0x00, 0x00,
  0x74, 0x00, 0x00, 0x00, 0x04, 0x00, 0x00, 0x00, 0xf6, 0xf9, 0xff, 0xff,
  0x04, 0x00, 0x00, 0x00, 0x60, 0x00, 0x00, 0x00, 0x0c, 0x00, 0x00, 0x00,
  0x08, 0x00, 0x0e, 0x00, 0x08, 0x00, 0x04, 0x00, 0x08, 0x00, 0x00, 0x00,
  0x10, 0x00, 0x00, 0x00, 0x28, 0x00, 0x00, 0x00, 0x00, 0x00, 0x06, 0x00,
  0x08, 0x00, 0x04, 0x00, 0x06, 0x00, 0x00, 0x00, 0x04, 0x00, 0x00, 0x00,
  0x01, 0x00, 0x00, 0x00, 0xeb, 0x03, 0x00, 0x00, 0x0c, 0x00, 0x18, 0x00,
  0x14, 0x00, 0x10, 0x00, 0x0c, 0x00, 0x04, 0x00, 0x0c, 0x00, 0x00, 0x00,
  0x81, 0x43, 0x0f, 0x37, 0x13, 0x47, 0x3d, 0x0a, 0x02, 0x00, 0x00, 0x00,
  0x02, 0x00, 0x00, 0x00, 0x04, 0x00, 0x00, 0x00, 0x06, 0x00, 0x00, 0x00,
  0x32, 0x2e, 0x31, 0x37, 0x2e, 0x31, 0x00, 0x00, 0x62, 0xfa, 0xff, 0xff,
  0x04, 0x00, 0x00, 0x00, 0x10, 0x00, 0x00, 0x00, 0x00, 0x00, 0x00, 0x00,
  0x00, 0x00, 0x00, 0x00, 0x00, 0x00, 0x00, 0x00, 0x00, 0x00, 0x00, 0x00,
  0x7e, 0xfa, 0xff, 0xff, 0x04, 0x00, 0x00, 0x00, 0x10, 0x00, 0x00, 0x00,
  0x32, 0x2e, 0x33, 0x2e, 0x30, 0x00, 0x00, 0x00, 0x00, 0x00, 0x00, 0x00,
  0x00, 0x00, 0x00, 0x00, 0xb8, 0xf2, 0xff, 0xff, 0xbc, 0xf2, 0xff, 0xff,
  0xc0, 0xf2, 0xff, 0xff, 0xc4, 0xf2, 0xff, 0xff, 0xc8, 0xf2, 0xff, 0xff,
  0xcc, 0xf2, 0xff, 0xff, 0xb2, 0xfa, 0xff, 0xff, 0x04, 0x00, 0x00, 0x00,
  0x00, 0x02, 0x00, 0x00, 0x03, 0xc4, 0x55, 0xca, 0x0e, 0x81, 0x1c, 0x0f,
  0xe6, 0x2b, 0xf1, 0x1c, 0xb8, 0x22, 0xe1, 0x35, 0xf5, 0xe1, 0xe6, 0xf2,
  0xdd, 0xa9, 0xdd, 0xe7, 0x44, 0xfc, 0x0d, 0xf7, 0xed, 0xec, 0xd7, 0xe7,
  0xdf, 0x0b, 0x08, 0x18, 0xa6, 0xd6, 0xce, 0x1f, 0x37, 0x05, 0xe6, 0x1b,
  0xa9, 0x25, 0x1c, 0xe9, 0x24, 0x24, 0x33, 0xee, 0xb5, 0x8c, 0x08, 0x32,
  0xfb, 0xed, 0x42, 0x30, 0xb6, 0x61, 0x2b, 0x0e, 0x14, 0xd9, 0xca, 0xc3,
  0xda, 0xe0, 0xf3, 0x15, 0x0b, 0xcb, 0xe0, 0xc1, 0xe3, 0x06, 0xcd, 0x06,
  0x0f, 0xf5, 0xf7, 0xe2, 0x7e, 0x24, 0x43, 0x0c, 0x1c, 0xfa, 0xd2, 0x08,
  0xe3, 0xe6, 0xcb, 0x12, 0xfe, 0xc2, 0x8a, 0xb3, 0x30, 0xf2, 0x0d, 0x18,
  0x29, 0xf2, 0xff, 0xc6, 0x54, 0x06, 0x09, 0xe2, 0xed, 0xa7, 0x81, 0xb6,
  0xa2, 0xe7, 0xf0, 0x14, 0x28, 0xde, 0x41, 0xee, 0xfd, 0x04, 0xff, 0xe6,
  0x1c, 0xf9, 0x1f, 0xdb, 0xbc, 0x40, 0xf0, 0xc5, 0xd7, 0xf7, 0xe7, 0xdc,
  0xc5, 0x06, 0x20, 0xb7, 0xed, 0xec, 0x47, 0xed, 0xd4, 0xe0, 0x22, 0x0b,
  0x3e, 0x23, 0xe0, 0x06, 0xe6, 0x26, 0xda, 0x81, 0x2a, 0xeb, 0x21, 0xe3,
  0xb7, 0xf6, 0xb2, 0x6a, 0xe6, 0xaf, 0xe2, 0x2c, 0xe4, 0x0c, 0x0c, 0xe9,
  0x29, 0x2d, 0x30, 0xfa, 0x58, 0xaf, 0x11, 0xee, 0xfd, 0xec, 0x05, 0x1d,
  0x17, 0x2a, 0x0a, 0xc4, 0x2b, 0xb5, 0x2c, 0x34, 0x1d, 0xe3, 0x0b, 0xf7,
  0xfc, 0xb9, 0xfd, 0x2b, 0x33, 0xf4, 0x98, 0xc5, 0xbf, 0xc6, 0x0d, 0x2e,
  0x5f, 0xd2, 0xbb, 0xad, 0x17, 0x96, 0x15, 0x17, 0x4a, 0x23, 0xd8, 0xa2,
  0x12, 0xb2, 0x1c, 0x3e, 0xfe, 0xe0, 0xed, 0xb6, 0x21, 0xe0, 0x0f, 0x20,
  0xe9, 0x02, 0xa6, 0xd9, 0x3e, 0x9c, 0xfb, 0x29, 0xfd, 0xe5, 0x8d, 0xb1,
  0x1c, 0xd0, 0xf9, 0x22, 0x2e, 0x3f, 0x81, 0x95, 0x0f, 0x43, 0x38, 0xde,
  0x30, 0x33, 0x55, 0x25, 0xd7, 0x01, 0xb6, 0x15, 0xf1, 0x2e, 0x1f, 0xf4,
  0x00, 0x0d, 0x17, 0x1f, 0x3e, 0xec, 0x0e, 0x23, 0xb2, 0xe4, 0xed, 0x15,
  0xd1, 0x19, 0xf8, 0xed, 0xbe, 0xaa, 0x29, 0x05, 0x81, 0x68, 0xcb, 0xc4,
  0x0e, 0x0d, 0x04, 0x08, 0x10, 0xde, 0xd4, 0xa0, 0xff, 0x06, 0x10, 0x16,
  0x37, 0xcc, 0xe1, 0xf2, 0x2c, 0x14, 0x00, 0x17, 0xd2, 0xbf, 0xec, 0x9d,
  0xe4, 0x40, 0xab, 0xbf, 0xf9, 0x4d, 0x10, 0xbf, 0xff, 0x15, 0x1d, 0xad,
  0xe7, 0x23, 0x21, 0xd4, 0x20, 0x0e, 0x9e, 0xd5, 0xd9, 0x0e, 0xe9, 0x13,
  0x16, 0x11, 0xda, 0xea, 0x5c, 0x63, 0x0a, 0xcc, 0x29, 0xf1, 0xf7, 0x6e,
  0x57, 0xde, 0xe2, 0xf4, 0x21, 0xfb, 0x1b, 0xdb, 0xe3, 0x4d, 0xf0, 0x42,
  0x0e, 0xae, 0xff, 0x81, 0xb6, 0x21, 0x06, 0xf3, 0xef, 0x24, 0xad, 0x99,
  0xe4, 0xdb, 0xfb, 0xd7, 0x27, 0xc6, 0xf5, 0xee, 0xfd, 0x29, 0xf2, 0xf0,
  0x0f, 0xe1, 0xde, 0xc4, 0x20, 0x20, 0x41, 0xf1, 0x0e, 0x9e, 0x99, 0xd8,
  0xd0, 0x15, 0xfd, 0x12, 0x15, 0x0d, 0x34, 0xe3, 0xda, 0x19, 0x1c, 0x27,
  0x0a, 0x81, 0xb6, 0xa7, 0xd2, 0x0b, 0xe8, 0x20, 0x17, 0xc0, 0xfb, 0xd4,
  0xea, 0xc3, 0x03, 0x21, 0x0d, 0xd1, 0xa2, 0xdd, 0xc4, 0x0d, 0x1a, 0xee,
  0x1a, 0x86, 0xe4, 0xcd, 0x26, 0xef, 0x20, 0x32, 0xbc, 0xed, 0x16, 0x10,
  0x0e, 0xe0, 0xc7, 0xab, 0xbb, 0xd2, 0x17, 0x03, 0x2a, 0x1a, 0xcc, 0xaa,
  0xe4, 0x00, 0x1c, 0x11, 0x40, 0xde, 0xa3, 0x81, 0xef, 0xd8, 0x21, 0xf7,
  0x28, 0x0f, 0xdd, 0x86, 0x47, 0x03, 0x07, 0x1b, 0xf3, 0xde, 0x0d, 0x99,
  0x0e, 0x09, 0x2d, 0x23, 0xe4, 0x28, 0xc4, 0x99, 0x24, 0xcf, 0x07, 0x15,
  0x10, 0x17, 0xdf, 0xe2, 0xb9, 0xa7, 0x1f, 0x27, 0x1c, 0x20, 0xe1, 0xd3,
  0xbe, 0xfc, 0xff, 0xff, 0x04, 0x00, 0x00, 0x00, 0x20, 0x00, 0x00, 0x00,
  0x29, 0x00, 0x00, 0x00, 0xbf, 0x00, 0x00, 0x00, 0x46, 0x00, 0x00, 0x00,
  0x76, 0x00, 0x00, 0x00, 0x3f, 0x00, 0x00, 0x00, 0x6c, 0x00, 0x00, 0x00,
  0xa7, 0x00, 0x00, 0x00, 0x94, 0x00, 0x00, 0x00, 0xea, 0xfc, 0xff, 0xff,
  0x04, 0x00, 0x00, 0x00, 0x40, 0x02, 0x00, 0x00, 0x00, 0xbf, 0xd2, 0x45,
  0xdf, 0xcd, 0x9c, 0x4a, 0xe2, 0x1b, 0xcc, 0x19, 0xf3, 0x00, 0xd9, 0x00,
  0xec, 0xf2, 0xd7, 0xd8, 0x11, 0xd3, 0xe5, 0xef, 0x14, 0x17, 0xfc, 0xe9,
  0x19, 0xd6, 0x02, 0x03, 0x14, 0x1d, 0xfa, 0xfe, 0xe7, 0x0e, 0x1b, 0x04,
  0xe0, 0x33, 0xf5, 0xf6, 0x0f, 0xef, 0x18, 0x00, 0x02, 0x9a, 0xe3, 0x51,
  0xff, 0xce, 0xb4, 0x16, 0xeb, 0x10, 0x08, 0x1b, 0xf4, 0xff, 0x01, 0x22,
  0xfe, 0x16, 0xef, 0x02, 0x05, 0xef, 0x05, 0x16, 0x3e, 0xee, 0x15, 0xe1,
  0x13, 0xf2, 0x03, 0xdb, 0x41, 0xfa, 0x0d, 0xf9, 0xd4, 0xe1, 0x16, 0x00,
  0xef, 0x0f, 0xf1, 0x00, 0x12, 0xed, 0x21, 0xe5, 0x2e, 0xa6, 0x19, 0x38,
  0x14, 0xe9, 0x8d, 0x2e, 0x33, 0x15, 0xe4, 0x3d, 0xe1, 0x29, 0xe3, 0x22,
  0xda, 0xdc, 0xee, 0xe7, 0xeb, 0xea, 0xeb, 0xe3, 0xf2, 0x1e, 0x1c, 0x04,
  0xff, 0xfa, 0xf6, 0xe0, 0xff, 0x01, 0x05, 0xf6, 0xed, 0xf8, 0x06, 0xff,
  0xcb, 0x22, 0xfe, 0xf3, 0x20, 0xf2, 0x06, 0xf8, 0x1d, 0xd2, 0xf0, 0x36,
  0xfa, 0xe2, 0xb5, 0x39, 0x37, 0x0a, 0x12, 0x03, 0xad, 0x30, 0x06, 0x0d,
  0x20, 0x18, 0xf0, 0xe2, 0xce, 0xe4, 0xdc, 0xf0, 0x21, 0x1c, 0x08, 0xf8,
  0x0a, 0xde, 0xf5, 0xf4, 0xfd, 0xd7, 0x01, 0xcd, 0xfb, 0x02, 0x1b, 0xe7,
  0xf9, 0xf2, 0xe2, 0xff, 0x1f, 0xf8, 0x05, 0x09, 0x0d, 0xbd, 0xec, 0x41,
  0x0e, 0xc6, 0x91, 0x42, 0x14, 0x1e, 0xd5, 0x0b, 0xf1, 0x1b, 0x09, 0x16,
  0xe6, 0xee, 0xec, 0x00, 0xf7, 0x0e, 0xff, 0xd3, 0xf7, 0x17, 0x13, 0xf8,
  0x1d, 0xe3, 0x11, 0xd4, 0x09, 0x0a, 0x00, 0xfe, 0x2a, 0xf6, 0xfa, 0x07,
  0x11, 0x05, 0x25, 0xed, 0x13, 0xf9, 0x07, 0xe9, 0xf0, 0xb2, 0xe1, 0x48,
  0x17, 0xda, 0x81, 0x58, 0x2f, 0x1c, 0x19, 0x09, 0xd5, 0x09, 0x2b, 0x10,
  0xc4, 0x0f, 0xcf, 0x0a, 0xd6, 0xdb, 0xfa, 0xff, 0xe3, 0x02, 0x24, 0xd6,
  0x24, 0xf1, 0xfe, 0x23, 0xd5, 0x32, 0xe7, 0x1f, 0xef, 0x17, 0x2b, 0x09,
  0xfc, 0x04, 0xe9, 0x0e, 0x0d, 0xf3, 0x0e, 0x0f, 0x18, 0x3f, 0xfe, 0xbd,
  0x19, 0x56, 0x7b, 0xc0, 0x10, 0xde, 0x08, 0x11, 0x0f, 0xe5, 0xed, 0x1b,
  0x04, 0x08, 0xe9, 0x19, 0x09, 0xf2, 0xf3, 0xf1, 0xf4, 0xff, 0x11, 0xe3,
  0x01, 0x0f, 0x09, 0xfa, 0x01, 0xfb, 0xe5, 0xfa, 0xf3, 0xe3, 0xed, 0x04,
  0xfb, 0xea, 0x29, 0x06, 0xf8, 0x20, 0xf1, 0x09, 0x15, 0x4e, 0x23, 0xbd,
  0xc8, 0x3e, 0x70, 0xc9, 0x01, 0x05, 0x17, 0xdd, 0x03, 0xfe, 0x10, 0xea,
  0xfa, 0x06, 0xf0, 0x1b, 0x14, 0x15, 0xff, 0xf5, 0xc6, 0xf3, 0xfa, 0xee,
  0xec, 0x1a, 0x09, 0xf3, 0xd4, 0x0d, 0xda, 0x02, 0x21, 0x15, 0xdf, 0xf2,
  0x15, 0xea, 0xce, 0x1a, 0x19, 0xe0, 0xee, 0xf9, 0xef, 0x5a, 0xff, 0xe7,
  0x21, 0x49, 0x5c, 0xbe, 0xbe, 0xbb, 0xe9, 0xc5, 0xf8, 0xe2, 0x01, 0x04,
  0x1a, 0xf8, 0xfd, 0x28, 0x2a, 0xf6, 0x02, 0x26, 0xe4, 0x03, 0x00, 0x03,
  0xdf, 0x39, 0x0c, 0xf4, 0x0b, 0x02, 0x15, 0x1c, 0x40, 0xef, 0xde, 0xf6,
  0x1b, 0xd0, 0x19, 0xfc, 0x19, 0xfb, 0xff, 0xe9, 0x0c, 0x2c, 0xd9, 0xac,
  0xf9, 0xf1, 0x3b, 0xba, 0xd8, 0xf9, 0x07, 0xc2, 0x2c, 0xd3, 0xfa, 0x07,
  0x12, 0xe9, 0x2c, 0x1b, 0x0f, 0x17, 0xe9, 0x27, 0xfe, 0x10, 0xd2, 0xf9,
  0xf0, 0x1d, 0x0f, 0xfb, 0xf1, 0xfd, 0xf8, 0xf3, 0x23, 0x07, 0x00, 0xe9,
  0xee, 0xe1, 0x31, 0x00, 0x04, 0x1a, 0xe0, 0x08, 0xfd, 0x4b, 0xf0, 0xab,
  0xf5, 0x3d, 0x50, 0xd4, 0xfe, 0x08, 0xfc, 0xdd, 0x30, 0xf5, 0xee, 0xe7,
  0x0d, 0x01, 0x06, 0x0b, 0xe7, 0x10, 0xf5, 0xf1, 0xf5, 0xf5, 0xd2, 0x00,
  0x07, 0x08, 0x09, 0x03, 0x10, 0x06, 0xd5, 0xf9, 0xef, 0xd1, 0xf7, 0x18,
  0x18, 0xd8, 0xf0, 0x0d, 0xec, 0x01, 0x0d, 0x13, 0x0c, 0x5a, 0x1c, 0xad,
  0xd7, 0x00, 0x7f, 0xcd, 0xc7, 0xee, 0xd6, 0xd3, 0x1a, 0xf7, 0x10, 0x17,
  0x58, 0x20, 0x12, 0xea, 0xff, 0xe7, 0x04, 0x01, 0x0f, 0xd0, 0xf5, 0xf1,
  0xf0, 0x07, 0x03, 0x02, 0x2f, 0xfc, 0x18, 0x1b, 0x07, 0xe6, 0xed, 0xf4,
  0x0d, 0xe1, 0x17, 0x2e, 0x25, 0x12, 0x11, 0x0d, 0x36, 0xff, 0xff, 0xff,
  0x04, 0x00, 0x00, 0x00, 0x08, 0x00, 0x00, 0x00, 0x24, 0xff, 0xff, 0xff,
  0xda, 0x00, 0x00, 0x00, 0x4a, 0xff, 0xff, 0xff, 0x04, 0x00, 0x00, 0x00,
  0x08, 0x00, 0x00, 0x00, 0xff, 0xff, 0xff, 0xff, 0x20, 0x01, 0x00, 0x00,
  0x5e, 0xff, 0xff, 0xff, 0x04, 0x00, 0x00, 0x00, 0x08, 0x00, 0x00, 0x00,
  0x20, 0x00, 0x00, 0x00, 0x20, 0x00, 0x00, 0x00, 0x90, 0xf7, 0xff, 0xff,
  0x94, 0xf7, 0xff, 0xff, 0x0f, 0x00, 0x00, 0x00, 0x4d, 0x4c, 0x49, 0x52,
  0x20, 0x43, 0x6f, 0x6e, 0x76, 0x65, 0x72, 0x74, 0x65, 0x64, 0x2e, 0x00,
  0x01, 0x00, 0x00, 0x00, 0x14, 0x00, 0x00, 0x00, 0x00, 0x00, 0x0e, 0x00,
  0x18, 0x00, 0x14, 0x00, 0x10, 0x00, 0x0c, 0x00, 0x08, 0x00, 0x04, 0x00,
  0x0e, 0x00, 0x00, 0x00, 0x14, 0x00, 0x00, 0x00, 0x1c, 0x00, 0x00, 0x00,
  0xc8, 0x01, 0x00, 0x00, 0xcc, 0x01, 0x00, 0x00, 0xd0, 0x01, 0x00, 0x00,
  0x04, 0x00, 0x00, 0x00, 0x6d, 0x61, 0x69, 0x6e, 0x00, 0x00, 0x00, 0x00,
  0x06, 0x00, 0x00, 0x00, 0x74, 0x01, 0x00, 0x00, 0x10, 0x01, 0x00, 0x00,
  0xac, 0x00, 0x00, 0x00, 0x84, 0x00, 0x00, 0x00, 0x40, 0x00, 0x00, 0x00,
  0x04, 0x00, 0x00, 0x00, 0x12, 0xff, 0xff, 0xff, 0x1c, 0x00, 0x00, 0x00,
  0x00, 0x00, 0x00, 0x09, 0x1c, 0x00, 0x00, 0x00, 0x20, 0x00, 0x00, 0x00,
  0x05, 0x00, 0x00, 0x00, 0x00, 0x00, 0x06, 0x00, 0x08, 0x00, 0x04, 0x00,
  0x06, 0x00, 0x00, 0x00, 0x00, 0x00, 0x80, 0x3f, 0x01, 0x00, 0x00, 0x00,
  0x0c, 0x00, 0x00, 0x00, 0x01, 0x00, 0x00, 0x00, 0x0b, 0x00, 0x00, 0x00,
  0x4a, 0xff, 0xff, 0xff, 0x14, 0x00, 0x00, 0x00, 0x00, 0x00, 0x00, 0x08,
  0x10, 0x00, 0x00, 0x00, 0x14, 0x00, 0x00, 0x00, 0x04, 0x00, 0x00, 0x00,
  0x54, 0xf8, 0xff, 0xff, 0x01, 0x00, 0x00, 0x00, 0x0b, 0x00, 0x00, 0x00,
  0x03, 0x00, 0x00, 0x00, 0x0a, 0x00, 0x00, 0x00, 0x04, 0x00, 0x00, 0x00,
  0x03, 0x00, 0x00, 0x00, 0x00, 0x00, 0x0a, 0x00, 0x10, 0x00, 0x0c, 0x00,
  0x08, 0x00, 0x04, 0x00, 0x0a, 0x00, 0x00, 0x00, 0x0c, 0x00, 0x00, 0x00,
  0x10, 0x00, 0x00, 0x00, 0x03, 0x00, 0x00, 0x00, 0x01, 0x00, 0x00, 0x00,
  0x0a, 0x00, 0x00, 0x00, 0x02, 0x00, 0x00, 0x00, 0x09, 0x00, 0x00, 0x00,
  0x02, 0x00, 0x00, 0x00, 0xae, 0xff, 0xff, 0xff, 0x24, 0x00, 0x00, 0x00,
  0x00, 0x00, 0x00, 0x05, 0x34, 0x00, 0x00, 0x00, 0x38, 0x00, 0x00, 0x00,
  0x02, 0x00, 0x00, 0x00, 0x00, 0x00, 0x0e, 0x00, 0x18, 0x00, 0x17, 0x00,
  0x10, 0x00, 0x0c, 0x00, 0x08, 0x00, 0x04, 0x00, 0x0e, 0x00, 0x00, 0x00,
  0x02, 0x00, 0x00, 0x00, 0x02, 0x00, 0x00, 0x00, 0x02, 0x00, 0x00, 0x00,
  0x02, 0x00, 0x00, 0x00, 0x00, 0x00, 0x00, 0x01, 0x01, 0x00, 0x00, 0x00,
  0x09, 0x00, 0x00, 0x00, 0x01, 0x00, 0x00, 0x00, 0x08, 0x00, 0x00, 0x00,
  0x00, 0x00, 0x0e, 0x00, 0x18, 0x00, 0x14, 0x00, 0x10, 0x00, 0x0c, 0x00,
  0x0b, 0x00, 0x04, 0x00, 0x0e, 0x00, 0x00, 0x00, 0x20, 0x00, 0x00, 0x00,
  0x00, 0x00, 0x00, 0x01, 0x2c, 0x00, 0x00, 0x00, 0x30, 0x00, 0x00, 0x00,
  0x01, 0x00, 0x00, 0x00, 0x0c, 0x00, 0x14, 0x00, 0x13, 0x00, 0x0c, 0x00,
  0x08, 0x00, 0x07, 0x00, 0x0c, 0x00, 0x00, 0x00, 0x00, 0x00, 0x00, 0x01,
  0x02, 0x00, 0x00, 0x00, 0x02, 0x00, 0x00, 0x00, 0x00, 0x00, 0x00, 0x01,
  0x01, 0x00, 0x00, 0x00, 0x08, 0x00, 0x00, 0x00, 0x03, 0x00, 0x00, 0x00,
  0x07, 0x00, 0x00, 0x00, 0x06, 0x00, 0x00, 0x00, 0x05, 0x00, 0x00, 0x00,
  0x00, 0x00, 0x0e, 0x00, 0x14, 0x00, 0x00, 0x00, 0x10, 0x00, 0x0c, 0x00,
  0x0b, 0x00, 0x04, 0x00, 0x0e, 0x00, 0x00, 0x00, 0x18, 0x00, 0x00, 0x00,
  0x00, 0x00, 0x00, 0x4a, 0x18, 0x00, 0x00, 0x00, 0x1c, 0x00, 0x00, 0x00,
  0x08, 0x00, 0x08, 0x00, 0x00, 0x00, 0x07, 0x00, 0x08, 0x00, 0x00, 0x00,
  0x00, 0x00, 0x00, 0x01, 0x01, 0x00, 0x00, 0x00, 0x07, 0x00, 0x00, 0x00,
  0x02, 0x00, 0x00, 0x00, 0x00, 0x00, 0x00, 0x00, 0x01, 0x00, 0x00, 0x00,
  0x01, 0x00, 0x00, 0x00, 0x0c, 0x00, 0x00, 0x00, 0x01, 0x00, 0x00, 0x00,
  0x00, 0x00, 0x00, 0x00, 0x0d, 0x00, 0x00, 0x00, 0x90, 0x06, 0x00, 0x00,
  0x34, 0x06, 0x00, 0x00, 0xdc, 0x05, 0x00, 0x00, 0x70, 0x05, 0x00, 0x00,
  0xfc, 0x04, 0x00, 0x00, 0x48, 0x04, 0x00, 0x00, 0x84, 0x03, 0x00, 0x00,
  0xe0, 0x02, 0x00, 0x00, 0x24, 0x02, 0x00, 0x00, 0x90, 0x01, 0x00, 0x00,
  0x14, 0x01, 0x00, 0x00, 0x80, 0x00, 0x00, 0x00, 0x04, 0x00, 0x00, 0x00,
  0xba, 0xf9, 0xff, 0xff, 0x00, 0x00, 0x00, 0x01, 0x18, 0x00, 0x00, 0x00,
  0x20, 0x00, 0x00, 0x00, 0x3c, 0x00, 0x00, 0x00, 0x0d, 0x00, 0x00, 0x00,
  0x00, 0x00, 0x00, 0x09, 0x50, 0x00, 0x00, 0x00, 0x02, 0x00, 0x00, 0x00,
  0xff, 0xff, 0xff, 0xff, 0x02, 0x00, 0x00, 0x00, 0x9c, 0xf9, 0xff, 0xff,
  0x08, 0x00, 0x00, 0x00, 0x10, 0x00, 0x00, 0x00, 0x01, 0x00, 0x00, 0x00,
  0x80, 0xff, 0xff, 0xff, 0xff, 0xff, 0xff, 0xff, 0x01, 0x00, 0x00, 0x00,
  0x00, 0x00, 0x80, 0x3b, 0x19, 0x00, 0x00, 0x00, 0x53, 0x74, 0x61, 0x74,
  0x65, 0x66, 0x75, 0x6c, 0x50, 0x61, 0x72, 0x74, 0x69, 0x74, 0x69, 0x6f,
  0x6e, 0x65, 0x64, 0x43, 0x61, 0x6c, 0x6c, 0x3a, 0x30, 0x00, 0x00, 0x00,
  0x02, 0x00, 0x00, 0x00, 0x01, 0x00, 0x00, 0x00, 0x02, 0x00, 0x00, 0x00,
  0x32, 0xfa, 0xff, 0xff, 0x00, 0x00, 0x00, 0x01, 0x18, 0x00, 0x00, 0x00,
  0x20, 0x00, 0x00, 0x00, 0x3c, 0x00, 0x00, 0x00, 0x0c, 0x00, 0x00, 0x00,
  0x00, 0x00, 0x00, 0x09, 0x68, 0x00, 0x00, 0x00, 0x02, 0x00, 0x00, 0x00,
  0xff, 0xff, 0xff, 0xff, 0x02, 0x00, 0x00, 0x00, 0x14, 0xfa, 0xff, 0xff,
  0x08, 0x00, 0x00, 0x00, 0x10, 0x00, 0x00, 0x00, 0x01, 0x00, 0x00, 0x00,
  0x0a, 0x00, 0x00, 0x00, 0x00, 0x00, 0x00, 0x00, 0x01, 0x00, 0x00, 0x00,
  0x9e, 0xbb, 0xe3, 0x3f, 0x30, 0x00, 0x00, 0x00, 0x73, 0x65, 0x71, 0x75,
  0x65, 0x6e, 0x74, 0x69, 0x61, 0x6c, 0x2f, 0x64, 0x65, 0x6e, 0x73, 0x65,
  0x2f, 0x4d, 0x61, 0x74, 0x4d, 0x75, 0x6c, 0x3b, 0x73, 0x65, 0x71, 0x75,
  0x65, 0x6e, 0x74, 0x69, 0x61, 0x6c, 0x2f, 0x64, 0x65, 0x6e, 0x73, 0x65,
  0x2f, 0x42, 0x69, 0x61, 0x73, 0x41, 0x64, 0x64, 0x00, 0x00, 0x00, 0x00,
  0x02, 0x00, 0x00, 0x00, 0x01, 0x00, 0x00, 0x00, 0x02, 0x00, 0x00, 0x00,
  0xc2, 0xfa, 0xff, 0xff, 0x00, 0x00, 0x00, 0x01, 0x18, 0x00, 0x00, 0x00,
  0x20, 0x00, 0x00, 0x00, 0x3c, 0x00, 0x00, 0x00, 0x0b, 0x00, 0x00, 0x00,
  0x00, 0x00, 0x00, 0x09, 0x50, 0x00, 0x00, 0x00, 0x02, 0x00, 0x00, 0x00,
  0xff, 0xff, 0xff, 0xff, 0x20, 0x01, 0x00, 0x00, 0xa4, 0xfa, 0xff, 0xff,
  0x08, 0x00, 0x00, 0x00, 0x10, 0x00, 0x00, 0x00, 0x01, 0x00, 0x00, 0x00,
  0x80, 0xff, 0xff, 0xff, 0xff, 0xff, 0xff, 0xff, 0x01, 0x00, 0x00, 0x00,
  0x9c, 0x97, 0xde, 0x3e, 0x1a, 0x00, 0x00, 0x00, 0x73, 0x65, 0x71, 0x75,
  0x65, 0x6e, 0x74, 0x69, 0x61, 0x6c, 0x2f, 0x66, 0x6c, 0x61, 0x74, 0x74,
  0x65, 0x6e, 0x2f, 0x52, 0x65, 0x73, 0x68, 0x61, 0x70, 0x65, 0x00, 0x00,
  0x02, 0x00, 0x00, 0x00, 0x01, 0x00, 0x00, 0x00, 0x20, 0x01, 0x00, 0x00,
  0x3a, 0xfb, 0xff, 0xff, 0x00, 0x00, 0x00, 0x01, 0x18, 0x00, 0x00, 0x00,
  0x28, 0x00, 0x00, 0x00, 0x44, 0x00, 0x00, 0x00, 0x0a, 0x00, 0x00, 0x00,
  0x00, 0x00, 0x00, 0x09, 0x60, 0x00, 0x00, 0x00, 0x04, 0x00, 0x00, 0x00,
  0xff, 0xff, 0xff, 0xff, 0x06, 0x00, 0x00, 0x00, 0x06, 0x00, 0x00, 0x00,
  0x08, 0x00, 0x00, 0x00, 0x24, 0xfb, 0xff, 0xff, 0x08, 0x00, 0x00, 0x00,
  0x10, 0x00, 0x00, 0x00, 0x01, 0x00, 0x00, 0x00, 0x80, 0xff, 0xff, 0xff,
  0xff, 0xff, 0xff, 0xff, 0x01, 0x00, 0x00, 0x00, 0x9c, 0x97, 0xde, 0x3e,
  0x20, 0x00, 0x00, 0x00, 0x73, 0x65, 0x71, 0x75, 0x65, 0x6e, 0x74, 0x69,
  0x61, 0x6c, 0x2f, 0x6d, 0x61, 0x78, 0x5f, 0x70, 0x6f, 0x6f, 0x6c, 0x69,
  0x6e, 0x67, 0x32, 0x64, 0x2f, 0x4d, 0x61, 0x78, 0x50, 0x6f, 0x6f, 0x6c,
  0x00, 0x00, 0x00, 0x00, 0x04, 0x00, 0x00, 0x00, 0x01, 0x00, 0x00, 0x00,
  0x06, 0x00, 0x00, 0x00, 0x06, 0x00, 0x00, 0x00, 0x08, 0x00, 0x00, 0x00,
  0xca, 0xfb, 0xff, 0xff, 0x00, 0x00, 0x00, 0x01, 0x18, 0x00, 0x00, 0x00,
  0x28, 0x00, 0x00, 0x00, 0x44, 0x00, 0x00, 0x00, 0x09, 0x00, 0x00, 0x00,
  0x00, 0x00, 0x00, 0x09, 0x88, 0x00, 0x00, 0x00, 0x04, 0x00, 0x00, 0x00,
  0xff, 0xff, 0xff, 0xff, 0x0d, 0x00, 0x00, 0x00, 0x0d, 0x00, 0x00, 0x00,
  0x08, 0x00, 0x00, 0x00, 0xb4, 0xfb, 0xff, 0xff, 0x08, 0x00, 0x00, 0x00,
  0x10, 0x00, 0x00, 0x00, 0x01, 0x00, 0x00, 0x00, 0x80, 0xff, 0xff, 0xff,
  0xff, 0xff, 0xff, 0xff, 0x01, 0x00, 0x00, 0x00, 0x9c, 0x97, 0xde, 0x3e,
  0x4a, 0x00, 0x00, 0x00, 0x73, 0x65, 0x71, 0x75, 0x65, 0x6e, 0x74, 0x69,
  0x61, 0x6c, 0x2f, 0x63, 0x6f, 0x6e, 0x76, 0x32, 0x64, 0x2f, 0x52, 0x65,
  0x6c, 0x75, 0x3b, 0x73, 0x65, 0x71, 0x75, 0x65, 0x6e, 0x74, 0x69, 0x61,
  0x6c, 0x2f, 0x63, 0x6f, 0x6e, 0x76, 0x32, 0x64, 0x2f, 0x42, 0x69, 0x61,
  0x73, 0x41, 0x64, 0x64, 0x3b, 0x73, 0x65, 0x71, 0x75, 0x65, 0x6e, 0x74,
  0x69, 0x61, 0x6c, 0x2f, 0x63, 0x6f, 0x6e, 0x76, 0x32, 0x64, 0x2f, 0x43,
  0x6f, 0x6e, 0x76, 0x32, 0x44, 0x3b, 0x00, 0x00, 0x04, 0x00, 0x00, 0x00,
  0x01, 0x00, 0x00, 0x00, 0x0d, 0x00, 0x00, 0x00, 0x0d, 0x00, 0x00, 0x00,
  0x08, 0x00, 0x00, 0x00, 0x82, 0xfc, 0xff, 0xff, 0x00, 0x00, 0x00, 0x01,
  0x18, 0x00, 0x00, 0x00, 0x28, 0x00, 0x00, 0x00, 0x44, 0x00, 0x00, 0x00,
  0x08, 0x00, 0x00, 0x00, 0x00, 0x00, 0x00, 0x09, 0x70, 0x00, 0x00, 0x00,
  0x04, 0x00, 0x00, 0x00, 0xff, 0xff, 0xff, 0xff, 0x20, 0x00, 0x00, 0x00,
  0x20, 0x00, 0x00, 0x00, 0x01, 0x00, 0x00, 0x00, 0x6c, 0xfc, 0xff, 0xff,
  0x08, 0x00, 0x00, 0x00, 0x10, 0x00, 0x00, 0x00, 0x01, 0x00, 0x00, 0x00,
  0x80, 0xff, 0xff, 0xff, 0xff, 0xff, 0xff, 0xff, 0x01, 0x00, 0x00, 0x00,
  0xd4, 0x2e, 0x09, 0x3e, 0x30, 0x00, 0x00, 0x00, 0x73, 0x65, 0x71, 0x75,
  0x65, 0x6e, 0x74, 0x69, 0x61, 0x6c, 0x2f, 0x72, 0x65, 0x73, 0x69, 0x7a,
  0x69, 0x6e, 0x67, 0x2f, 0x72, 0x65, 0x73, 0x69, 0x7a, 0x65, 0x2f, 0x52,
  0x65, 0x73, 0x69, 0x7a, 0x65, 0x4e, 0x65, 0x61, 0x72, 0x65, 0x73, 0x74,
  0x4e, 0x65, 0x69, 0x67, 0x68, 0x62, 0x6f, 0x72, 0x00, 0x00, 0x00, 0x00,
  0x04, 0x00, 0x00, 0x00, 0x01, 0x00, 0x00, 0x00, 0x20, 0x00, 0x00, 0x00,
  0x20, 0x00, 0x00, 0x00, 0x01, 0x00, 0x00, 0x00, 0x7a, 0xfd, 0xff, 0xff,
  0x00, 0x00, 0x00, 0x01, 0x14, 0x00, 0x00, 0x00, 0x88, 0x00, 0x00, 0x00,
  0x07, 0x00, 0x00, 0x00, 0x00, 0x00, 0x00, 0x09, 0x94, 0x00, 0x00, 0x00,
  0xf4, 0xfc, 0xff, 0xff, 0x08, 0x00, 0x00, 0x00, 0x4c, 0x00, 0x00, 0x00,
  0x08, 0x00, 0x00, 0x00, 0x00, 0x00, 0x00, 0x00, 0x00, 0x00, 0x00, 0x00,
  0x00, 0x00, 0x00, 0x00, 0x00, 0x00, 0x00, 0x00, 0x00, 0x00, 0x00, 0x00,
  0x00, 0x00, 0x00, 0x00, 0x00, 0x00, 0x00, 0x00, 0x00, 0x00, 0x00, 0x00,
  0x00, 0x00, 0x00, 0x00, 0x00, 0x00, 0x00, 0x00, 0x00, 0x00, 0x00, 0x00,
  0x00, 0x00, 0x00, 0x00, 0x00, 0x00, 0x00, 0x00, 0x00, 0x00, 0x00, 0x00,
  0x00, 0x00, 0x00, 0x00, 0x00, 0x00, 0x00, 0x00, 0x00, 0x00, 0x00, 0x00,
  0x08, 0x00, 0x00, 0x00, 0x65, 0x58, 0xae, 0x3c, 0xc7, 0x9e, 0xf1, 0x3c,
  0x30, 0x15, 0xd0, 0x3c, 0x65, 0xef, 0xae, 0x3c, 0x8e, 0x3f, 0xc3, 0x3c,
  0xb6, 0xd2, 0xb8, 0x3c, 0x30, 0x17, 0xf2, 0x3c, 0x6e, 0xd1, 0xcc, 0x3c,
  0x12, 0x00, 0x00, 0x00, 0x74, 0x66, 0x6c, 0x2e, 0x70, 0x73, 0x65, 0x75,
  0x64, 0x6f, 0x5f, 0x71, 0x63, 0x6f, 0x6e, 0x73, 0x74, 0x33, 0x00, 0x00,
  0x04, 0x00, 0x00, 0x00, 0x08, 0x00, 0x00, 0x00, 0x08, 0x00, 0x00, 0x00,
  0x08, 0x00, 0x00, 0x00, 0x01, 0x00, 0x00, 0x00, 0x3a, 0xfe, 0xff, 0xff,
  0x00, 0x00, 0x00, 0x01, 0x14, 0x00, 0x00, 0x00, 0x84, 0x00, 0x00, 0x00,
  0x06, 0x00, 0x00, 0x00, 0x00, 0x00, 0x00, 0x02, 0x90, 0x00, 0x00, 0x00,
  0xb4, 0xfd, 0xff, 0xff, 0x08, 0x00, 0x00, 0x00, 0x48, 0x00, 0x00, 0x00,
  0x08, 0x00, 0x00, 0x00, 0x00, 0x00, 0x00, 0x00, 0x00, 0x00, 0x00, 0x00,
  0x00, 0x00, 0x00, 0x00, 0x00, 0x00, 0x00, 0x00, 0x00, 0x00, 0x00, 0x00,
  0x00, 0x00, 0x00, 0x00, 0x00, 0x00, 0x00, 0x00, 0x00, 0x00, 0x00, 0x00,
  0x00, 0x00, 0x00, 0x00, 0x00, 0x00, 0x00, 0x00, 0x00, 0x00, 0x00, 0x00,
  0x00, 0x00, 0x00, 0x00, 0x00, 0x00, 0x00, 0x00, 0x00, 0x00, 0x00, 0x00,
  0x00, 0x00, 0x00, 0x00, 0x00, 0x00, 0x00, 0x00, 0x08, 0x00, 0x00, 0x00,
  0x65, 0xda, 0x3a, 0x3b, 0x2b, 0x7a, 0x81, 0x3b, 0xce, 0x02, 0x5f, 0x3b,
  0x3a, 0x7c, 0x3b, 0x3b, 0x74, 0x41, 0x51, 0x3b, 0x25, 0x15, 0x46, 0x3b,
  0xb1, 0xba, 0x81, 0x3b, 0x16, 0x83, 0x5b, 0x3b, 0x12, 0x00, 0x00, 0x00,
  0x74, 0x66, 0x6c, 0x2e, 0x70, 0x73, 0x65, 0x75, 0x64, 0x6f, 0x5f, 0x71,
  0x63, 0x6f, 0x6e, 0x73, 0x74, 0x32, 0x00, 0x00, 0x01, 0x00, 0x00, 0x00,
  0x08, 0x00, 0x00, 0x00, 0xea, 0xfe, 0xff, 0xff, 0x00, 0x00, 0x00, 0x01,
  0x14, 0x00, 0x00, 0x00, 0x40, 0x00, 0x00, 0x00, 0x05, 0x00, 0x00, 0x00,
  0x00, 0x00, 0x00, 0x09, 0x4c, 0x00, 0x00, 0x00, 0x64, 0xfe, 0xff, 0xff,
  0x08, 0x00, 0x00, 0x00, 0x1c, 0x00, 0x00, 0x00, 0x02, 0x00, 0x00, 0x00,
  0x00, 0x00, 0x00, 0x00, 0x00, 0x00, 0x00, 0x00, 0x00, 0x00, 0x00, 0x00,
  0x00, 0x00, 0x00, 0x00, 0x00, 0x00, 0x00, 0x00, 0x02, 0x00, 0x00, 0x00,
  0x66, 0xf9, 0x87, 0x3b, 0xf4, 0xd4, 0x88, 0x3b, 0x12, 0x00, 0x00, 0x00,
  0x74, 0x66, 0x6c, 0x2e, 0x70, 0x73, 0x65, 0x75, 0x64, 0x6f, 0x5f, 0x71,
  0x63, 0x6f, 0x6e, 0x73, 0x74, 0x31, 0x00, 0x00, 0x02, 0x00, 0x00, 0x00,
  0x02, 0x00, 0x00, 0x00, 0x20, 0x01, 0x00, 0x00, 0x5a, 0xff, 0xff, 0xff,
  0x00, 0x00, 0x00, 0x01, 0x14, 0x00, 0x00, 0x00, 0x3c, 0x00, 0x00, 0x00,
  0x04, 0x00, 0x00, 0x00, 0x00, 0x00, 0x00, 0x02, 0x48, 0x00, 0x00, 0x00,
  0xd4, 0xfe, 0xff, 0xff, 0x08, 0x00, 0x00, 0x00, 0x18, 0x00, 0x00, 0x00,
  0x02, 0x00, 0x00, 0x00, 0x00, 0x00, 0x00, 0x00, 0x00, 0x00, 0x00, 0x00,
  0x00, 0x00, 0x00, 0x00, 0x00, 0x00, 0x00, 0x00, 0x02, 0x00, 0x00, 0x00,
  0x9b, 0x75, 0xec, 0x3a, 0x69, 0xf3, 0xed, 0x3a, 0x11, 0x00, 0x00, 0x00,
  0x74, 0x66, 0x6c, 0x2e, 0x70, 0x73, 0x65, 0x75, 0x64, 0x6f, 0x5f, 0x71,
  0x63, 0x6f, 0x6e, 0x73, 0x74, 0x00, 0x00, 0x00, 0x01, 0x00, 0x00, 0x00,
  0x02, 0x00, 0x00, 0x00, 0xc2, 0xff, 0xff, 0xff, 0x00, 0x00, 0x00, 0x01,
  0x14, 0x00, 0x00, 0x00, 0x14, 0x00, 0x00, 0x00, 0x03, 0x00, 0x00, 0x00,
  0x00, 0x00, 0x00, 0x02, 0x1c, 0x00, 0x00, 0x00, 0xac, 0xff, 0xff, 0xff,
  0x0f, 0x00, 0x00, 0x00, 0x61, 0x72, 0x69, 0x74, 0x68, 0x2e, 0x63, 0x6f,
  0x6e, 0x73, 0x74, 0x61, 0x6e, 0x74, 0x31, 0x00, 0x01, 0x00, 0x00, 0x00,
  0x02, 0x00, 0x00, 0x00, 0x00, 0x00, 0x16, 0x00, 0x1c, 0x00, 0x18, 0x00,
  0x17, 0x00, 0x10, 0x00, 0x0c, 0x00, 0x08, 0x00, 0x00, 0x00, 0x00, 0x00,
  0x00, 0x00, 0x07, 0x00, 0x16, 0x00, 0x00, 0x00, 0x00, 0x00, 0x00, 0x01,
  0x18, 0x00, 0x00, 0x00, 0x18, 0x00, 0x00, 0x00, 0x02, 0x00, 0x00, 0x00,
  0x00, 0x00, 0x00, 0x02, 0x20, 0x00, 0x00, 0x00, 0x04, 0x00, 0x04, 0x00,
  0x04, 0x00, 0x00, 0x00, 0x0e, 0x00, 0x00, 0x00, 0x61, 0x72, 0x69, 0x74,
  0x68, 0x2e, 0x63, 0x6f, 0x6e, 0x73, 0x74, 0x61, 0x6e, 0x74, 0x00, 0x00,
  0x01, 0x00, 0x00, 0x00, 0x02, 0x00, 0x00, 0x00, 0x00, 0x00, 0x16, 0x00,
  0x20, 0x00, 0x1c, 0x00, 0x1b, 0x00, 0x14, 0x00, 0x10, 0x00, 0x0c, 0x00,
  0x00, 0x00, 0x00, 0x00, 0x08, 0x00, 0x07, 0x00, 0x16, 0x00, 0x00, 0x00,
  0x00, 0x00, 0x00, 0x01, 0x18, 0x00, 0x00, 0x00, 0x34, 0x00, 0x00, 0x00,
  0x54, 0x00, 0x00, 0x00, 0x01, 0x00, 0x00, 0x00, 0x00, 0x00, 0x00, 0x09,
  0x68, 0x00, 0x00, 0x00, 0x04, 0x00, 0x00, 0x00, 0xff, 0xff, 0xff, 0xff,
  0x18, 0x01, 0x00, 0x00, 0x81, 0x00, 0x00, 0x00, 0x01, 0x00, 0x00, 0x00,
  0x0c, 0x00, 0x0c, 0x00, 0x00, 0x00, 0x00, 0x00, 0x08, 0x00, 0x04, 0x00,
  0x0c, 0x00, 0x00, 0x00, 0x08, 0x00, 0x00, 0x00, 0x14, 0x00, 0x00, 0x00,
  0x01, 0x00, 0x00, 0x00, 0x80, 0xff, 0xff, 0xff, 0xff, 0xff, 0xff, 0xff,
  0x00, 0x00, 0x00, 0x00, 0x01, 0x00, 0x00, 0x00, 0xd4, 0x2e, 0x09, 0x3e,
  0x19, 0x00, 0x00, 0x00, 0x73, 0x65, 0x72, 0x76, 0x69, 0x6e, 0x67, 0x5f,
  0x64, 0x65, 0x66, 0x61, 0x75, 0x6c, 0x74, 0x5f, 0x69, 0x6e, 0x70, 0x75,
  0x74, 0x5f, 0x31, 0x3a, 0x30, 0x00, 0x00, 0x00, 0x04, 0x00, 0x00, 0x00,
  0x01, 0x00, 0x00, 0x00, 0x18, 0x01, 0x00, 0x00, 0x81, 0x00, 0x00, 0x00,
  0x01, 0x00, 0x00, 0x00, 0x06, 0x00, 0x00, 0x00, 0x7c, 0x00, 0x00, 0x00,
  0x5c, 0x00, 0x00, 0x00, 0x48, 0x00, 0x00, 0x00, 0x38, 0x00, 0x00, 0x00,
  0x18, 0x00, 0x00, 0x00, 0x04, 0x00, 0x00, 0x00, 0xa8, 0xff, 0xff, 0xff,
  0x19, 0x00, 0x00, 0x00, 0x02, 0x00, 0x00, 0x00, 0x00, 0x00, 0x00, 0x19,
  0xb8, 0xff, 0xff, 0xff, 0x09, 0x00, 0x00, 0x00, 0x04, 0x00, 0x00, 0x00,
  0x00, 0x00, 0x00, 0x09, 0x0c, 0x00, 0x0c, 0x00, 0x0b, 0x00, 0x00, 0x00,
  0x00, 0x00, 0x04, 0x00, 0x0c, 0x00, 0x00, 0x00, 0x16, 0x00, 0x00, 0x00,
  0x00, 0x00, 0x00, 0x16, 0xe0, 0xff, 0xff, 0xff, 0x11, 0x00, 0x00, 0x00,
  0x02, 0x00, 0x00, 0x00, 0x00, 0x00, 0x00, 0x11, 0xf0, 0xff, 0xff, 0xff,
  0x03, 0x00, 0x00, 0x00, 0x03, 0x00, 0x00, 0x00, 0x00, 0x00, 0x00, 0x03,
  0x0c, 0x00, 0x10, 0x00, 0x0f, 0x00, 0x00, 0x00, 0x08, 0x00, 0x04, 0x00,
  0x0c, 0x00, 0x00, 0x00, 0x61, 0x00, 0x00, 0x00, 0x03, 0x00, 0x00, 0x00,
  0x00, 0x00, 0x00, 0x61
  0x1c, 0x00, 0x00, 0x00, 0x54, 0x46, 0x4c, 0x33, 0x14, 0x00, 0x20, 0x00,
  0x1c, 0x00, 0x18, 0x00, 0x14, 0x00, 0x10, 0x00, 0x0c, 0x00, 0x00, 0x00,
  0x08, 0x00, 0x04, 0x00, 0x14, 0x00, 0x00, 0x00, 0x1c, 0x00, 0x00, 0x00,
  0x80, 0x00, 0x00, 0x00, 0x00, 0x01, 0x00, 0x00, 0xc8, 0x06, 0x00, 0x00,
  0xd8, 0x06, 0x00, 0x00, 0xfc, 0x0f, 0x00, 0x00, 0x03, 0x00, 0x00, 0x00,
  0x01, 0x00, 0x00, 0x00, 0x04, 0x00, 0x00, 0x00, 0x76, 0xf8, 0xff, 0xff,
  0x0c, 0x00, 0x00, 0x00, 0x1c, 0x00, 0x00, 0x00, 0x38, 0x00, 0x00, 0x00,
  0x0f, 0x00, 0x00, 0x00, 0x73, 0x65, 0x72, 0x76, 0x69, 0x6e, 0x67, 0x5f,
  0x64, 0x65, 0x66, 0x61, 0x75, 0x6c, 0x74, 0x00, 0x01, 0x00, 0x00, 0x00,
  0x04, 0x00, 0x00, 0x00, 0x74, 0xff, 0xff, 0xff, 0x0c, 0x00, 0x00, 0x00,
  0x04, 0x00, 0x00, 0x00, 0x05, 0x00, 0x00, 0x00, 0x64, 0x65, 0x6e, 0x73,
  0x65, 0x00, 0x00, 0x00, 0x01, 0x00, 0x00, 0x00, 0x04, 0x00, 0x00, 0x00,
  0x16, 0xf9, 0xff, 0xff, 0x04, 0x00, 0x00, 0x00, 0x07, 0x00, 0x00, 0x00,
  0x69, 0x6e, 0x70, 0x75, 0x74, 0x5f, 0x31, 0x00, 0x03, 0x00, 0x00, 0x00,
  0x5c, 0x00, 0x00, 0x00, 0x2c, 0x00, 0x00, 0x00, 0x04, 0x00, 0x00, 0x00,
  0xb8, 0xff, 0xff, 0xff, 0x10, 0x00, 0x00, 0x00, 0x04, 0x00, 0x00, 0x00,
  0x13, 0x00, 0x00, 0x00, 0x43, 0x4f, 0x4e, 0x56, 0x45, 0x52, 0x53, 0x49,
  0x4f, 0x4e, 0x5f, 0x4d, 0x45, 0x54, 0x41, 0x44, 0x41, 0x54, 0x41, 0x00,
  0xdc, 0xff, 0xff, 0xff, 0x0f, 0x00, 0x00, 0x00, 0x04, 0x00, 0x00, 0x00,
  0x13, 0x00, 0x00, 0x00, 0x6d, 0x69, 0x6e, 0x5f, 0x72, 0x75, 0x6e, 0x74,
  0x69, 0x6d, 0x65, 0x5f, 0x76, 0x65, 0x72, 0x73, 0x69, 0x6f, 0x6e, 0x00,
  0x08, 0x00, 0x0c, 0x00, 0x08, 0x00, 0x04, 0x00, 0x08, 0x00, 0x00, 0x00,
  0x0e, 0x00, 0x00, 0x00, 0x04, 0x00, 0x00, 0x00, 0x13, 0x00, 0x00, 0x00,
  0x6d, 0x69, 0x6e, 0x5f, 0x72, 0x75, 0x6e, 0x74, 0x69, 0x6d, 0x65, 0x5f,
  0x76, 0x65, 0x72, 0x73, 0x69, 0x6f, 0x6e, 0x00, 0x11, 0x00, 0x00, 0x00,
  0xc4, 0x05, 0x00, 0x00, 0xbc, 0x05, 0x00, 0x00, 0xa4, 0x05, 0x00, 0x00,
  0x8c, 0x05, 0x00, 0x00, 0x74, 0x05, 0x00, 0x00, 0x24, 0x03, 0x00, 0x00,
  0xf4, 0x02, 0x00, 0x00, 0xe4, 0x00, 0x00, 0x00, 0xdc, 0x00, 0x00, 0x00,
  0xd4, 0x00, 0x00, 0x00, 0xcc, 0x00, 0x00, 0x00, 0xc4, 0x00, 0x00, 0x00,
  0xbc, 0x00, 0x00, 0x00, 0xb4, 0x00, 0x00, 0x00, 0x94, 0x00, 0x00, 0x00,
  0x74, 0x00, 0x00, 0x00, 0x04, 0x00, 0x00, 0x00, 0xf6, 0xf9, 0xff, 0xff,
  0x04, 0x00, 0x00, 0x00, 0x60, 0x00, 0x00, 0x00, 0x0c, 0x00, 0x00, 0x00,
  0x08, 0x00, 0x0e, 0x00, 0x08, 0x00, 0x04, 0x00, 0x08, 0x00, 0x00, 0x00,
  0x10, 0x00, 0x00, 0x00, 0x28, 0x00, 0x00, 0x00, 0x00, 0x00, 0x06, 0x00,
  0x08, 0x00, 0x04, 0x00, 0x06, 0x00, 0x00, 0x00, 0x04, 0x00, 0x00, 0x00,
  0x01, 0x00, 0x00, 0x00, 0xeb, 0x03, 0x00, 0x00, 0x0c, 0x00, 0x18, 0x00,
  0x14, 0x00, 0x10, 0x00, 0x0c, 0x00, 0x04, 0x00, 0x0c, 0x00, 0x00, 0x00,
  0x81, 0x43, 0x0f, 0x37, 0x13, 0x47, 0x3d, 0x0a, 0x02, 0x00, 0x00, 0x00,
  0x02, 0x00, 0x00, 0x00, 0x04, 0x00, 0x00, 0x00, 0x06, 0x00, 0x00, 0x00,
  0x32, 0x2e, 0x31, 0x37, 0x2e, 0x31, 0x00, 0x00, 0x62, 0xfa, 0xff, 0xff,
  0x04, 0x00, 0x00, 0x00, 0x10, 0x00, 0x00, 0x00, 0x00, 0x00, 0x00, 0x00,
  0x00, 0x00, 0x00, 0x00, 0x00, 0x00, 0x00, 0x00, 0x00, 0x00, 0x00, 0x00,
  0x7e, 0xfa, 0xff, 0xff, 0x04, 0x00, 0x00, 0x00, 0x10, 0x00, 0x00, 0x00,
  0x32, 0x2e, 0x33, 0x2e, 0x30, 0x00, 0x00, 0x00, 0x00, 0x00, 0x00, 0x00,
  0x00, 0x00, 0x00, 0x00, 0xb8, 0xf2, 0xff, 0xff, 0xbc, 0xf2, 0xff, 0xff,
  0xc0, 0xf2, 0xff, 0xff, 0xc4, 0xf2, 0xff, 0xff, 0xc8, 0xf2, 0xff, 0xff,
  0xcc, 0xf2, 0xff, 0xff, 0xb2, 0xfa, 0xff, 0xff, 0x04, 0x00, 0x00, 0x00,
  0x00, 0x02, 0x00, 0x00, 0x17, 0xd5, 0x2f, 0xdb, 0xfd, 0x81, 0x1a, 0x15,
  0xe4, 0x1d, 0xf2, 0x17, 0xca, 0x21, 0xec, 0x23, 0xcf, 0xe0, 0xda, 0x04,
  0xd3, 0xb2, 0xd5, 0xef, 0x3a, 0xef, 0xf9, 0x00, 0xf4, 0xe6, 0xde, 0xcc,
  0x01, 0xed, 0xfe, 0x12, 0xc7, 0xdc, 0xc6, 0x0c, 0x2d, 0x13, 0xe2, 0x05,
  0x9f, 0x0c, 0xf8, 0xf5, 0xfe, 0x0c, 0x0e, 0xf5, 0xb3, 0xa5, 0xf0, 0x08,
  0xf2, 0xed, 0x19, 0x17, 0xdd, 0x29, 0x18, 0xfc, 0x10, 0xd0, 0xcc, 0xbc,
  0xe3, 0xe3, 0xec, 0x01, 0xf8, 0xd4, 0xe1, 0xad, 0xce, 0x0c, 0xc5, 0x10,
  0x0f, 0xf6, 0xf9, 0xeb, 0x65, 0x1a, 0x3c, 0xfa, 0x04, 0xf7, 0xb3, 0xf7,
  0xe0, 0xdc, 0xb1, 0x0c, 0xee, 0xc1, 0x96, 0x9d, 0x25, 0xe4, 0x24, 0xfe,
  0x0b, 0xe3, 0xff, 0xe4, 0x41, 0xfa, 0x0d, 0xdb, 0xde, 0xb7, 0x81, 0x91,
  0xb6, 0xc5, 0xdd, 0x16, 0x14, 0xdd, 0x32, 0xfc, 0x06, 0xfd, 0xf7, 0xe1,
  0x27, 0x04, 0xfd, 0xe9, 0xb8, 0x34, 0xbf, 0xc5, 0xbf, 0xc4, 0xd7, 0xca,
  0xad, 0x05, 0x19, 0xd7, 0xd7, 0xca, 0x2c, 0xf5, 0xe2, 0xd6, 0x16, 0xf5,
  0x22, 0x17, 0xcb, 0xf3, 0xdb, 0x10, 0xed, 0x81, 0x2a, 0xdb, 0x0e, 0xff,
  0xc1, 0xff, 0x9e, 0x5a, 0xd6, 0xae, 0xe0, 0x44, 0xf9, 0x0a, 0xff, 0xdc,
  0x16, 0x12, 0x16, 0xeb, 0x44, 0x9a, 0x1b, 0xf4, 0xef, 0xdd, 0xfb, 0x28,
  0x24, 0x1f, 0x1c, 0xa1, 0x14, 0xa6, 0x07, 0x32, 0x1c, 0xdf, 0x07, 0xf2,
  0xec, 0xc3, 0xfc, 0x16, 0xfb, 0xe0, 0x89, 0xb4, 0xb4, 0xd8, 0x09, 0x11,
  0x53, 0xbe, 0xa5, 0xb7, 0xf9, 0xae, 0x02, 0x05, 0x20, 0x0a, 0xdc, 0xad,
  0x05, 0xae, 0x02, 0x35, 0xf3, 0xe3, 0xfd, 0xb2, 0x0d, 0xdf, 0xf2, 0x11,
  0xc2, 0xf6, 0xa7, 0xc8, 0x0f, 0x9c, 0xdc, 0x0c, 0xef, 0xdc, 0x8a, 0xa4,
  0x0e, 0xe0, 0xf1, 0x05, 0x10, 0x29, 0x81, 0x93, 0x19, 0x2d, 0x35, 0xe2,
  0x2a, 0x17, 0x3f, 0x0d, 0xd1, 0x03, 0xc5, 0xf3, 0xf2, 0x20, 0x18, 0xf5,
  0x09, 0x0e, 0x07, 0x0b, 0x39, 0xe0, 0x04, 0x14, 0xc3, 0xd9, 0xd5, 0x17,
  0xd0, 0x0b, 0x0f, 0xd4, 0xbf, 0xbc, 0x19, 0x01, 0x81, 0x54, 0xeb, 0xab,
  0x07, 0x04, 0x05, 0x07, 0x14, 0xe5, 0xdb, 0xa1, 0xff, 0x13, 0x03, 0x0a,
  0x24, 0xc4, 0xcb, 0xe9, 0x0b, 0xf8, 0xea, 0x13, 0xce, 0xd0, 0xd3, 0xb4,
  0xdc, 0x21, 0xca, 0xa7, 0xdd, 0x38, 0xea, 0x89, 0x01, 0x1d, 0xfd, 0x99,
  0xd6, 0x32, 0xf2, 0xd7, 0x04, 0x0a, 0x81, 0xb2, 0xbe, 0xfc, 0xf5, 0x00,
  0x07, 0x0c, 0xed, 0x02, 0x49, 0x6e, 0x02, 0xbf, 0x0e, 0xea, 0x1d, 0x6c,
  0x63, 0xde, 0xe1, 0xfc, 0x16, 0xf2, 0x04, 0xda, 0xc4, 0x48, 0xec, 0x4b,
  0xf2, 0xae, 0xf0, 0x85, 0xa0, 0x16, 0x03, 0xf5, 0xdb, 0x0f, 0xb2, 0x92,
  0xcc, 0xab, 0xdd, 0xd8, 0x11, 0xbb, 0xf7, 0xf5, 0xfb, 0x18, 0xf1, 0xe1,
  0xfc, 0xd9, 0xe2, 0xc4, 0x11, 0x10, 0x27, 0xd6, 0x05, 0xac, 0xac, 0xf8,
  0xc1, 0xfb, 0x03, 0x08, 0xfc, 0xf8, 0x0b, 0x02, 0xef, 0x16, 0x05, 0x17,
  0xf1, 0x8b, 0xc4, 0xb2, 0xed, 0xfd, 0xf5, 0x0d, 0x02, 0xbb, 0xed, 0xd0,
  0xdc, 0xc0, 0xf2, 0x1b, 0x05, 0xdb, 0xd2, 0xdd, 0xbe, 0x04, 0x0a, 0xdf,
  0x00, 0x81, 0x00, 0xfd, 0x07, 0xf4, 0xfd, 0x26, 0xb7, 0xf1, 0x08, 0x07,
  0x03, 0xdc, 0xce, 0xaf, 0xaa, 0xd9, 0x12, 0xec, 0x18, 0xec, 0xc2, 0x9a,
  0xeb, 0xf9, 0x09, 0xf5, 0x28, 0xf1, 0xb5, 0x81, 0xea, 0xf6, 0x12, 0xde,
  0x04, 0xe9, 0xde, 0x8f, 0x33, 0x03, 0xf0, 0x0d, 0xe5, 0xf3, 0xfb, 0x9d,
  0xef, 0x0b, 0x21, 0x13, 0xe6, 0x1e, 0xdb, 0xa8, 0x11, 0xcf, 0xf9, 0xfa,
  0xfb, 0xf4, 0xd6, 0xdb, 0xc3, 0xb5, 0x1a, 0x14, 0xff, 0x0c, 0xdf, 0xc6,
  0xbe, 0xfc, 0xff, 0xff, 0x04, 0x00, 0x00, 0x00, 0x20, 0x00, 0x00, 0x00,
  0x3f, 0x00, 0x00, 0x00, 0x81, 0x00, 0x00, 0x00, 0x64, 0x00, 0x00, 0x00,
  0x98, 0x00, 0x00, 0x00, 0x4b, 0x00, 0x00, 0x00, 0x8a, 0x00, 0x00, 0x00,
  0x6f, 0x00, 0x00, 0x00, 0x8e, 0x00, 0x00, 0x00, 0xea, 0xfc, 0xff, 0xff,
  0x04, 0x00, 0x00, 0x00, 0x40, 0x02, 0x00, 0x00, 0x06, 0xcc, 0xd0, 0x36,
  0xdf, 0xda, 0x94, 0x47, 0xee, 0x2a, 0xce, 0x24, 0xf1, 0xfe, 0xe6, 0x0b,
  0xeb, 0xe7, 0xd7, 0xd4, 0x1a, 0xce, 0xeb, 0xf0, 0x13, 0x1a, 0xf1, 0xe7,
  0x11, 0xcf, 0xfe, 0x03, 0x11, 0x20, 0xfb, 0xf9, 0xe1, 0x0d, 0x17, 0x09,
  0xdc, 0x2f, 0xf9, 0xee, 0x09, 0xee, 0x1f, 0x08, 0x06, 0xa6, 0xeb, 0x4b,
  0x01, 0xd1, 0xc3, 0x10, 0xd6, 0x14, 0x0c, 0x1a, 0xeb, 0xff, 0x06, 0x19,
  0xff, 0x0f, 0xe8, 0xfd, 0x0f, 0xf1, 0x01, 0x14, 0x3e, 0xf8, 0x08, 0xdd,
  0x0c, 0xf6, 0xfa, 0xd1, 0x49, 0x00, 0x10, 0xf0, 0xcb, 0xcf, 0x17, 0xfe,
  0xf3, 0x11, 0xe2, 0xfe, 0x18, 0xea, 0x2b, 0xd9, 0x2e, 0xbf, 0x1b, 0x2d,
  0x1f, 0xf2, 0x92, 0x27, 0x34, 0x10, 0xe0, 0x44, 0xe2, 0x2e, 0xd7, 0x20,
  0xdd, 0xe0, 0xfa, 0xe6, 0xe8, 0xf1, 0xf9, 0xe2, 0xf0, 0x21, 0x1a, 0x05,
  0xfa, 0xfa, 0xf2, 0xd6, 0x03, 0x0d, 0x19, 0xf5, 0xe8, 0xf5, 0x02, 0xf3,
  0xc7, 0x26, 0x0b, 0xf3, 0x1f, 0xfa, 0x19, 0xfd, 0x1f, 0xd4, 0xe6, 0x12,
  0xf0, 0xdb, 0xbb, 0x36, 0x31, 0x04, 0x05, 0xfd, 0xa2, 0x2e, 0x04, 0x11,
  0x2f, 0x1d, 0xfb, 0xe3, 0xd6, 0xe3, 0xda, 0xf2, 0x22, 0x20, 0x01, 0xf3,
  0x09, 0xda, 0xe7, 0xf2, 0xfb, 0xdb, 0xf2, 0xbe, 0xfb, 0x09, 0x1c, 0xd9,
  0xf9, 0xf1, 0xdb, 0xf8, 0x1d, 0x01, 0x0b, 0x13, 0x00, 0xc1, 0xe4, 0x2b,
  0x0b, 0xc2, 0x94, 0x43, 0x1a, 0x1c, 0xc5, 0x06, 0xe3, 0x10, 0xfd, 0x21,
  0xe4, 0xe6, 0xf4, 0xfa, 0xfa, 0x16, 0x0b, 0xca, 0xfa, 0x12, 0x12, 0xec,
  0x22, 0xe6, 0x11, 0xd6, 0x05, 0x05, 0xf1, 0xfc, 0x2d, 0xe1, 0xf0, 0xfa,
  0x1a, 0xf7, 0x30, 0xea, 0x10, 0xf6, 0x10, 0xe9, 0xf4, 0xb9, 0xd7, 0x3f,
  0x10, 0xd7, 0x81, 0x51, 0x26, 0x06, 0x11, 0x0c, 0xe0, 0x03, 0x2d, 0x0e,
  0xc9, 0x20, 0xca, 0x0d, 0xc6, 0xd1, 0xf1, 0xfc, 0xea, 0xfe, 0x2e, 0xca,
  0x2c, 0xed, 0xe8, 0x28, 0xe0, 0x39, 0xe9, 0x29, 0xf7, 0x12, 0x29, 0x07,
  0xfd, 0x09, 0xe4, 0x04, 0x1a, 0xe7, 0x09, 0x12, 0x16, 0x2e, 0xf7, 0xd0,
  0x16, 0x4c, 0x7f, 0xca, 0x01, 0xd1, 0xfd, 0x0d, 0x10, 0xe3, 0xd7, 0x14,
  0x02, 0x11, 0xde, 0x18, 0x05, 0xeb, 0xe6, 0xea, 0xf8, 0x00, 0x1c, 0xdd,
  0x0d, 0x10, 0x0f, 0xfa, 0x07, 0xfd, 0xe0, 0xfd, 0xf3, 0xe2, 0xf3, 0x01,
  0xf8, 0xf4, 0x28, 0x0c, 0xff, 0x22, 0xed, 0x02, 0x15, 0x38, 0x1b, 0xca,
  0xbe, 0x3a, 0x62, 0xcc, 0x11, 0x06, 0x18, 0xdf, 0x0a, 0xfd, 0x0d, 0xf6,
  0xf8, 0x12, 0xf2, 0x22, 0x0f, 0x12, 0x03, 0xfa, 0xca, 0xe4, 0x0a, 0xe8,
  0xf4, 0x17, 0x12, 0xf3, 0xd4, 0x08, 0xd5, 0x0a, 0x24, 0x22, 0xdf, 0xf2,
  0x11, 0xe9, 0xd2, 0x1f, 0x1b, 0xdb, 0xea, 0xfe, 0xf5, 0x3d, 0x02, 0xf9,
  0x1f, 0x47, 0x4c, 0xc5, 0xbe, 0xbc, 0xe5, 0xc3, 0xf1, 0xe1, 0x06, 0x0c,
  0x13, 0xeb, 0xee, 0x29, 0x2e, 0xe9, 0xf1, 0x27, 0xdf, 0x06, 0x07, 0x03,
  0xdf, 0x40, 0x10, 0xf4, 0x08, 0xf7, 0x07, 0x1e, 0x49, 0xed, 0xdf, 0x00,
  0x18, 0xcc, 0x11, 0xfa, 0x23, 0xf1, 0xef, 0xdf, 0x12, 0x27, 0xda, 0xcc,
  0x00, 0xf0, 0x2e, 0xbf, 0xe3, 0x00, 0x18, 0xc0, 0x2b, 0xd7, 0xfd, 0x06,
  0x0c, 0xe7, 0x24, 0x17, 0x00, 0x16, 0xe2, 0x27, 0x04, 0x14, 0xd5, 0xfc,
  0xf1, 0x1e, 0x1b, 0xfa, 0xf1, 0xf1, 0x06, 0xf5, 0x26, 0x02, 0x04, 0xee,
  0xea, 0xdc, 0x37, 0x07, 0x0c, 0x13, 0xd7, 0x01, 0x0b, 0x44, 0xf1, 0xc0,
  0xf9, 0x3c, 0x41, 0xda, 0xfb, 0x11, 0x02, 0xdf, 0x41, 0x03, 0xf9, 0xde,
  0x0b, 0x05, 0xfb, 0x11, 0xdf, 0x0d, 0xe9, 0xef, 0xef, 0xfd, 0xd1, 0x0a,
  0x09, 0x00, 0x0e, 0xf9, 0x17, 0x0e, 0xdd, 0xf9, 0xf3, 0xdc, 0xfe, 0x28,
  0x15, 0xe1, 0xeb, 0x0e, 0xf1, 0x02, 0x07, 0x11, 0x06, 0x4f, 0x23, 0xb9,
  0xdd, 0xfb, 0x76, 0xdf, 0xd1, 0x06, 0xdd, 0xcd, 0x0b, 0xfd, 0x19, 0x1f,
  0x53, 0x17, 0x0e, 0xe7, 0x05, 0xe5, 0x0b, 0x02, 0x06, 0xce, 0xf1, 0xf2,
  0xee, 0x08, 0x17, 0x04, 0x22, 0xfe, 0x14, 0x1b, 0xfd, 0xec, 0xf4, 0xf5,
  0x0e, 0xda, 0x1a, 0x40, 0x20, 0x1d, 0x1a, 0x0f, 0x36, 0xff, 0xff, 0xff,
  0x04, 0x00, 0x00, 0x00, 0x08, 0x00, 0x00, 0x00, 0x7c, 0xfe, 0xff, 0xff,
  0x67, 0x01, 0x00, 0x00, 0x4a, 0xff, 0xff, 0xff, 0x04, 0x00, 0x00, 0x00,
  0x08, 0x00, 0x00, 0x00, 0xff, 0xff, 0xff, 0xff, 0x20, 0x01, 0x00, 0x00,
  0x5e, 0xff, 0xff, 0xff, 0x04, 0x00, 0x00, 0x00, 0x08, 0x00, 0x00, 0x00,
  0x20, 0x00, 0x00, 0x00, 0x20, 0x00, 0x00, 0x00, 0x90, 0xf7, 0xff, 0xff,
  0x94, 0xf7, 0xff, 0xff, 0x0f, 0x00, 0x00, 0x00, 0x4d, 0x4c, 0x49, 0x52,
  0x20, 0x43, 0x6f, 0x6e, 0x76, 0x65, 0x72, 0x74, 0x65, 0x64, 0x2e, 0x00,
  0x01, 0x00, 0x00, 0x00, 0x14, 0x00, 0x00, 0x00, 0x00, 0x00, 0x0e, 0x00,
  0x18, 0x00, 0x14, 0x00, 0x10, 0x00, 0x0c, 0x00, 0x08, 0x00, 0x04, 0x00,
  0x0e, 0x00, 0x00, 0x00, 0x14, 0x00, 0x00, 0x00, 0x1c, 0x00, 0x00, 0x00,
  0xc8, 0x01, 0x00, 0x00, 0xcc, 0x01, 0x00, 0x00, 0xd0, 0x01, 0x00, 0x00,
  0x04, 0x00, 0x00, 0x00, 0x6d, 0x61, 0x69, 0x6e, 0x00, 0x00, 0x00, 0x00,
  0x06, 0x00, 0x00, 0x00, 0x74, 0x01, 0x00, 0x00, 0x10, 0x01, 0x00, 0x00,
  0xac, 0x00, 0x00, 0x00, 0x84, 0x00, 0x00, 0x00, 0x40, 0x00, 0x00, 0x00,
  0x04, 0x00, 0x00, 0x00, 0x12, 0xff, 0xff, 0xff, 0x1c, 0x00, 0x00, 0x00,
  0x00, 0x00, 0x00, 0x09, 0x1c, 0x00, 0x00, 0x00, 0x20, 0x00, 0x00, 0x00,
  0x05, 0x00, 0x00, 0x00, 0x00, 0x00, 0x06, 0x00, 0x08, 0x00, 0x04, 0x00,
  0x06, 0x00, 0x00, 0x00, 0x00, 0x00, 0x80, 0x3f, 0x01, 0x00, 0x00, 0x00,
  0x0c, 0x00, 0x00, 0x00, 0x01, 0x00, 0x00, 0x00, 0x0b, 0x00, 0x00, 0x00,
  0x4a, 0xff, 0xff, 0xff, 0x14, 0x00, 0x00, 0x00, 0x00, 0x00, 0x00, 0x08,
  0x10, 0x00, 0x00, 0x00, 0x14, 0x00, 0x00, 0x00, 0x04, 0x00, 0x00, 0x00,
  0x54, 0xf8, 0xff, 0xff, 0x01, 0x00, 0x00, 0x00, 0x0b, 0x00, 0x00, 0x00,
  0x03, 0x00, 0x00, 0x00, 0x0a, 0x00, 0x00, 0x00, 0x04, 0x00, 0x00, 0x00,
  0x03, 0x00, 0x00, 0x00, 0x00, 0x00, 0x0a, 0x00, 0x10, 0x00, 0x0c, 0x00,
  0x08, 0x00, 0x04, 0x00, 0x0a, 0x00, 0x00, 0x00, 0x0c, 0x00, 0x00, 0x00,
  0x10, 0x00, 0x00, 0x00, 0x03, 0x00, 0x00, 0x00, 0x01, 0x00, 0x00, 0x00,
  0x0a, 0x00, 0x00, 0x00, 0x02, 0x00, 0x00, 0x00, 0x09, 0x00, 0x00, 0x00,
  0x02, 0x00, 0x00, 0x00, 0xae, 0xff, 0xff, 0xff, 0x24, 0x00, 0x00, 0x00,
  0x00, 0x00, 0x00, 0x05, 0x34, 0x00, 0x00, 0x00, 0x38, 0x00, 0x00, 0x00,
  0x02, 0x00, 0x00, 0x00, 0x00, 0x00, 0x0e, 0x00, 0x18, 0x00, 0x17, 0x00,
  0x10, 0x00, 0x0c, 0x00, 0x08, 0x00, 0x04, 0x00, 0x0e, 0x00, 0x00, 0x00,
  0x02, 0x00, 0x00, 0x00, 0x02, 0x00, 0x00, 0x00, 0x02, 0x00, 0x00, 0x00,
  0x02, 0x00, 0x00, 0x00, 0x00, 0x00, 0x00, 0x01, 0x01, 0x00, 0x00, 0x00,
  0x09, 0x00, 0x00, 0x00, 0x01, 0x00, 0x00, 0x00, 0x08, 0x00, 0x00, 0x00,
  0x00, 0x00, 0x0e, 0x00, 0x18, 0x00, 0x14, 0x00, 0x10, 0x00, 0x0c, 0x00,
  0x0b, 0x00, 0x04, 0x00, 0x0e, 0x00, 0x00, 0x00, 0x20, 0x00, 0x00, 0x00,
  0x00, 0x00, 0x00, 0x01, 0x2c, 0x00, 0x00, 0x00, 0x30, 0x00, 0x00, 0x00,
  0x01, 0x00, 0x00, 0x00, 0x0c, 0x00, 0x14, 0x00, 0x13, 0x00, 0x0c, 0x00,
  0x08, 0x00, 0x07, 0x00, 0x0c, 0x00, 0x00, 0x00, 0x00, 0x00, 0x00, 0x01,
  0x02, 0x00, 0x00, 0x00, 0x02, 0x00, 0x00, 0x00, 0x00, 0x00, 0x00, 0x01,
  0x01, 0x00, 0x00, 0x00, 0x08, 0x00, 0x00, 0x00, 0x03, 0x00, 0x00, 0x00,
  0x07, 0x00, 0x00, 0x00, 0x06, 0x00, 0x00, 0x00, 0x05, 0x00, 0x00, 0x00,
  0x00, 0x00, 0x0e, 0x00, 0x14, 0x00, 0x00, 0x00, 0x10, 0x00, 0x0c, 0x00,
  0x0b, 0x00, 0x04, 0x00, 0x0e, 0x00, 0x00, 0x00, 0x18, 0x00, 0x00, 0x00,
  0x00, 0x00, 0x00, 0x4a, 0x18, 0x00, 0x00, 0x00, 0x1c, 0x00, 0x00, 0x00,
  0x08, 0x00, 0x08, 0x00, 0x00, 0x00, 0x07, 0x00, 0x08, 0x00, 0x00, 0x00,
  0x00, 0x00, 0x00, 0x01, 0x01, 0x00, 0x00, 0x00, 0x07, 0x00, 0x00, 0x00,
  0x02, 0x00, 0x00, 0x00, 0x00, 0x00, 0x00, 0x00, 0x01, 0x00, 0x00, 0x00,
  0x01, 0x00, 0x00, 0x00, 0x0c, 0x00, 0x00, 0x00, 0x01, 0x00, 0x00, 0x00,
  0x00, 0x00, 0x00, 0x00, 0x0d, 0x00, 0x00, 0x00, 0x90, 0x06, 0x00, 0x00,
  0x34, 0x06, 0x00, 0x00, 0xdc, 0x05, 0x00, 0x00, 0x70, 0x05, 0x00, 0x00,
  0xfc, 0x04, 0x00, 0x00, 0x48, 0x04, 0x00, 0x00, 0x84, 0x03, 0x00, 0x00,
  0xe0, 0x02, 0x00, 0x00, 0x24, 0x02, 0x00, 0x00, 0x90, 0x01, 0x00, 0x00,
  0x14, 0x01, 0x00, 0x00, 0x80, 0x00, 0x00, 0x00, 0x04, 0x00, 0x00, 0x00,
  0xba, 0xf9, 0xff, 0xff, 0x00, 0x00, 0x00, 0x01, 0x18, 0x00, 0x00, 0x00,
  0x20, 0x00, 0x00, 0x00, 0x3c, 0x00, 0x00, 0x00, 0x0d, 0x00, 0x00, 0x00,
  0x00, 0x00, 0x00, 0x09, 0x50, 0x00, 0x00, 0x00, 0x02, 0x00, 0x00, 0x00,
  0xff, 0xff, 0xff, 0xff, 0x02, 0x00, 0x00, 0x00, 0x9c, 0xf9, 0xff, 0xff,
  0x08, 0x00, 0x00, 0x00, 0x10, 0x00, 0x00, 0x00, 0x01, 0x00, 0x00, 0x00,
  0x80, 0xff, 0xff, 0xff, 0xff, 0xff, 0xff, 0xff, 0x01, 0x00, 0x00, 0x00,
  0x00, 0x00, 0x80, 0x3b, 0x19, 0x00, 0x00, 0x00, 0x53, 0x74, 0x61, 0x74,
  0x65, 0x66, 0x75, 0x6c, 0x50, 0x61, 0x72, 0x74, 0x69, 0x74, 0x69, 0x6f,
  0x6e, 0x65, 0x64, 0x43, 0x61, 0x6c, 0x6c, 0x3a, 0x30, 0x00, 0x00, 0x00,
  0x02, 0x00, 0x00, 0x00, 0x01, 0x00, 0x00, 0x00, 0x02, 0x00, 0x00, 0x00,
  0x32, 0xfa, 0xff, 0xff, 0x00, 0x00, 0x00, 0x01, 0x18, 0x00, 0x00, 0x00,
  0x20, 0x00, 0x00, 0x00, 0x3c, 0x00, 0x00, 0x00, 0x0c, 0x00, 0x00, 0x00,
  0x00, 0x00, 0x00, 0x09, 0x68, 0x00, 0x00, 0x00, 0x02, 0x00, 0x00, 0x00,
  0xff, 0xff, 0xff, 0xff, 0x02, 0x00, 0x00, 0x00, 0x14, 0xfa, 0xff, 0xff,
  0x08, 0x00, 0x00, 0x00, 0x10, 0x00, 0x00, 0x00, 0x01, 0x00, 0x00, 0x00,
  0x11, 0x00, 0x00, 0x00, 0x00, 0x00, 0x00, 0x00, 0x01, 0x00, 0x00, 0x00,
  0x11, 0xb2, 0xbb, 0x3e, 0x30, 0x00, 0x00, 0x00, 0x73, 0x65, 0x71, 0x75,
  0x65, 0x6e, 0x74, 0x69, 0x61, 0x6c, 0x2f, 0x64, 0x65, 0x6e, 0x73, 0x65,
  0x2f, 0x4d, 0x61, 0x74, 0x4d, 0x75, 0x6c, 0x3b, 0x73, 0x65, 0x71, 0x75,
  0x65, 0x6e, 0x74, 0x69, 0x61, 0x6c, 0x2f, 0x64, 0x65, 0x6e, 0x73, 0x65,
  0x2f, 0x42, 0x69, 0x61, 0x73, 0x41, 0x64, 0x64, 0x00, 0x00, 0x00, 0x00,
  0x02, 0x00, 0x00, 0x00, 0x01, 0x00, 0x00, 0x00, 0x02, 0x00, 0x00, 0x00,
  0xc2, 0xfa, 0xff, 0xff, 0x00, 0x00, 0x00, 0x01, 0x18, 0x00, 0x00, 0x00,
  0x20, 0x00, 0x00, 0x00, 0x3c, 0x00, 0x00, 0x00, 0x0b, 0x00, 0x00, 0x00,
  0x00, 0x00, 0x00, 0x09, 0x50, 0x00, 0x00, 0x00, 0x02, 0x00, 0x00, 0x00,
  0xff, 0xff, 0xff, 0xff, 0x20, 0x01, 0x00, 0x00, 0xa4, 0xfa, 0xff, 0xff,
  0x08, 0x00, 0x00, 0x00, 0x10, 0x00, 0x00, 0x00, 0x01, 0x00, 0x00, 0x00,
  0x80, 0xff, 0xff, 0xff, 0xff, 0xff, 0xff, 0xff, 0x01, 0x00, 0x00, 0x00,
  0xe7, 0x32, 0x9c, 0x3e, 0x1a, 0x00, 0x00, 0x00, 0x73, 0x65, 0x71, 0x75,
  0x65, 0x6e, 0x74, 0x69, 0x61, 0x6c, 0x2f, 0x66, 0x6c, 0x61, 0x74, 0x74,
  0x65, 0x6e, 0x2f, 0x52, 0x65, 0x73, 0x68, 0x61, 0x70, 0x65, 0x00, 0x00,
  0x02, 0x00, 0x00, 0x00, 0x01, 0x00, 0x00, 0x00, 0x20, 0x01, 0x00, 0x00,
  0x3a, 0xfb, 0xff, 0xff, 0x00, 0x00, 0x00, 0x01, 0x18, 0x00, 0x00, 0x00,
  0x28, 0x00, 0x00, 0x00, 0x44, 0x00, 0x00, 0x00, 0x0a, 0x00, 0x00, 0x00,
  0x00, 0x00, 0x00, 0x09, 0x60, 0x00, 0x00, 0x00, 0x04, 0x00, 0x00, 0x00,
  0xff, 0xff, 0xff, 0xff, 0x06, 0x00, 0x00, 0x00, 0x06, 0x00, 0x00, 0x00,
  0x08, 0x00, 0x00, 0x00, 0x24, 0xfb, 0xff, 0xff, 0x08, 0x00, 0x00, 0x00,
  0x10, 0x00, 0x00, 0x00, 0x01, 0x00, 0x00, 0x00, 0x80, 0xff, 0xff, 0xff,
  0xff, 0xff, 0xff, 0xff, 0x01, 0x00, 0x00, 0x00, 0xe7, 0x32, 0x9c, 0x3e,
  0x20, 0x00, 0x00, 0x00, 0x73, 0x65, 0x71, 0x75, 0x65, 0x6e, 0x74, 0x69,
  0x61, 0x6c, 0x2f, 0x6d, 0x61, 0x78, 0x5f, 0x70, 0x6f, 0x6f, 0x6c, 0x69,
  0x6e, 0x67, 0x32, 0x64, 0x2f, 0x4d, 0x61, 0x78, 0x50, 0x6f, 0x6f, 0x6c,
  0x00, 0x00, 0x00, 0x00, 0x04, 0x00, 0x00, 0x00, 0x01, 0x00, 0x00, 0x00,
  0x06, 0x00, 0x00, 0x00, 0x06, 0x00, 0x00, 0x00, 0x08, 0x00, 0x00, 0x00,
  0xca, 0xfb, 0xff, 0xff, 0x00, 0x00, 0x00, 0x01, 0x18, 0x00, 0x00, 0x00,
  0x28, 0x00, 0x00, 0x00, 0x44, 0x00, 0x00, 0x00, 0x09, 0x00, 0x00, 0x00,
  0x00, 0x00, 0x00, 0x09, 0x88, 0x00, 0x00, 0x00, 0x04, 0x00, 0x00, 0x00,
  0xff, 0xff, 0xff, 0xff, 0x0d, 0x00, 0x00, 0x00, 0x0d, 0x00, 0x00, 0x00,
  0x08, 0x00, 0x00, 0x00, 0xb4, 0xfb, 0xff, 0xff, 0x08, 0x00, 0x00, 0x00,
  0x10, 0x00, 0x00, 0x00, 0x01, 0x00, 0x00, 0x00, 0x80, 0xff, 0xff, 0xff,
  0xff, 0xff, 0xff, 0xff, 0x01, 0x00, 0x00, 0x00, 0xe7, 0x32, 0x9c, 0x3e,
  0x4a, 0x00, 0x00, 0x00, 0x73, 0x65, 0x71, 0x75, 0x65, 0x6e, 0x74, 0x69,
  0x61, 0x6c, 0x2f, 0x63, 0x6f, 0x6e, 0x76, 0x32, 0x64, 0x2f, 0x52, 0x65,
  0x6c, 0x75, 0x3b, 0x73, 0x65, 0x71, 0x75, 0x65, 0x6e, 0x74, 0x69, 0x61,
  0x6c, 0x2f, 0x63, 0x6f, 0x6e, 0x76, 0x32, 0x64, 0x2f, 0x42, 0x69, 0x61,
  0x73, 0x41, 0x64, 0x64, 0x3b, 0x73, 0x65, 0x71, 0x75, 0x65, 0x6e, 0x74,
  0x69, 0x61, 0x6c, 0x2f, 0x63, 0x6f, 0x6e, 0x76, 0x32, 0x64, 0x2f, 0x43,
  0x6f, 0x6e, 0x76, 0x32, 0x44, 0x3b, 0x00, 0x00, 0x04, 0x00, 0x00, 0x00,
  0x01, 0x00, 0x00, 0x00, 0x0d, 0x00, 0x00, 0x00, 0x0d, 0x00, 0x00, 0x00,
  0x08, 0x00, 0x00, 0x00, 0x82, 0xfc, 0xff, 0xff, 0x00, 0x00, 0x00, 0x01,
  0x18, 0x00, 0x00, 0x00, 0x28, 0x00, 0x00, 0x00, 0x44, 0x00, 0x00, 0x00,
  0x08, 0x00, 0x00, 0x00, 0x00, 0x00, 0x00, 0x09, 0x70, 0x00, 0x00, 0x00,
  0x04, 0x00, 0x00, 0x00, 0xff, 0xff, 0xff, 0xff, 0x20, 0x00, 0x00, 0x00,
  0x20, 0x00, 0x00, 0x00, 0x01, 0x00, 0x00, 0x00, 0x6c, 0xfc, 0xff, 0xff,
  0x08, 0x00, 0x00, 0x00, 0x10, 0x00, 0x00, 0x00, 0x01, 0x00, 0x00, 0x00,
  0x80, 0xff, 0xff, 0xff, 0xff, 0xff, 0xff, 0xff, 0x01, 0x00, 0x00, 0x00,
  0xd8, 0xd7, 0x97, 0x3e, 0x30, 0x00, 0x00, 0x00, 0x73, 0x65, 0x71, 0x75,
  0x65, 0x6e, 0x74, 0x69, 0x61, 0x6c, 0x2f, 0x72, 0x65, 0x73, 0x69, 0x7a,
  0x69, 0x6e, 0x67, 0x2f, 0x72, 0x65, 0x73, 0x69, 0x7a, 0x65, 0x2f, 0x52,
  0x65, 0x73, 0x69, 0x7a, 0x65, 0x4e, 0x65, 0x61, 0x72, 0x65, 0x73, 0x74,
  0x4e, 0x65, 0x69, 0x67, 0x68, 0x62, 0x6f, 0x72, 0x00, 0x00, 0x00, 0x00,
  0x04, 0x00, 0x00, 0x00, 0x01, 0x00, 0x00, 0x00, 0x20, 0x00, 0x00, 0x00,
  0x20, 0x00, 0x00, 0x00, 0x01, 0x00, 0x00, 0x00, 0x7a, 0xfd, 0xff, 0xff,
