  0x1c, 0x00, 0x00, 0x00, 0x54, 0x46, 0x4c, 0x33, 0x14, 0x00, 0x20, 0x00,
  0x1c, 0x00, 0x18, 0x00, 0x14, 0x00, 0x10, 0x00, 0x0c, 0x00, 0x00, 0x00,
  0x08, 0x00, 0x04, 0x00, 0x14, 0x00, 0x00, 0x00, 0x1c, 0x00, 0x00, 0x00,
  0x88, 0x00, 0x00, 0x00, 0x08, 0x01, 0x00, 0x00, 0xd8, 0x06, 0x00, 0x00,
  0xe8, 0x06, 0x00, 0x00, 0x94, 0x10, 0x00, 0x00, 0x03, 0x00, 0x00, 0x00,
  0x01, 0x00, 0x00, 0x00, 0x04, 0x00, 0x00, 0x00, 0x66, 0xf8, 0xff, 0xff,
  0x0c, 0x00, 0x00, 0x00, 0x1c, 0x00, 0x00, 0x00, 0x40, 0x00, 0x00, 0x00,
  0x0f, 0x00, 0x00, 0x00, 0x73, 0x65, 0x72, 0x76, 0x69, 0x6e, 0x67, 0x5f,
  0x64, 0x65, 0x66, 0x61, 0x75, 0x6c, 0x74, 0x00, 0x01, 0x00, 0x00, 0x00,
  0x04, 0x00, 0x00, 0x00, 0x6c, 0xff, 0xff, 0xff, 0x0c, 0x00, 0x00, 0x00,
  0x04, 0x00, 0x00, 0x00, 0x0d, 0x00, 0x00, 0x00, 0x71, 0x75, 0x61, 0x6e,
  0x74, 0x5f, 0x64, 0x65, 0x6e, 0x73, 0x65, 0x5f, 0x31, 0x00, 0x00, 0x00,
  0x01, 0x00, 0x00, 0x00, 0x04, 0x00, 0x00, 0x00, 0x0e, 0xf9, 0xff, 0xff,
  0x04, 0x00, 0x00, 0x00, 0x07, 0x00, 0x00, 0x00, 0x69, 0x6e, 0x70, 0x75,
  0x74, 0x5f, 0x32, 0x00, 0x03, 0x00, 0x00, 0x00, 0x5c, 0x00, 0x00, 0x00,
  0x2c, 0x00, 0x00, 0x00, 0x04, 0x00, 0x00, 0x00, 0xb8, 0xff, 0xff, 0xff,
  0x10, 0x00, 0x00, 0x00, 0x04, 0x00, 0x00, 0x00, 0x13, 0x00, 0x00, 0x00,
  0x43, 0x4f, 0x4e, 0x56, 0x45, 0x52, 0x53, 0x49, 0x4f, 0x4e, 0x5f, 0x4d,
  0x45, 0x54, 0x41, 0x44, 0x41, 0x54, 0x41, 0x00, 0xdc, 0xff, 0xff, 0xff,
  0x0f, 0x00, 0x00, 0x00, 0x04, 0x00, 0x00, 0x00, 0x13, 0x00, 0x00, 0x00,
  0x6d, 0x69, 0x6e, 0x5f, 0x72, 0x75, 0x6e, 0x74, 0x69, 0x6d, 0x65, 0x5f,
  0x76, 0x65, 0x72, 0x73, 0x69, 0x6f, 0x6e, 0x00, 0x08, 0x00, 0x0c, 0x00,
  0x08, 0x00, 0x04, 0x00, 0x08, 0x00, 0x00, 0x00, 0x0e, 0x00, 0x00, 0x00,
  0x04, 0x00, 0x00, 0x00, 0x13, 0x00, 0x00, 0x00, 0x6d, 0x69, 0x6e, 0x5f,
  0x72, 0x75, 0x6e, 0x74, 0x69, 0x6d, 0x65, 0x5f, 0x76, 0x65, 0x72, 0x73,
  0x69, 0x6f, 0x6e, 0x00, 0x11, 0x00, 0x00, 0x00, 0xcc, 0x05, 0x00, 0x00,
  0xc4, 0x05, 0x00, 0x00, 0xac, 0x05, 0x00, 0x00, 0x94, 0x05, 0x00, 0x00,
  0x64, 0x05, 0x00, 0x00, 0x54, 0x03, 0x00, 0x00, 0x4c, 0x03, 0x00, 0x00,
  0x44, 0x03, 0x00, 0x00, 0x3c, 0x03, 0x00, 0x00, 0x34, 0x03, 0x00, 0x00,
  0xe4, 0x00, 0x00, 0x00, 0xcc, 0x00, 0x00, 0x00, 0xc4, 0x00, 0x00, 0x00,
  0xbc, 0x00, 0x00, 0x00, 0x9c, 0x00, 0x00, 0x00, 0x7c, 0x00, 0x00, 0x00,
  0x04, 0x00, 0x00, 0x00, 0xee, 0xf9, 0xff, 0xff, 0x04, 0x00, 0x00, 0x00,
  0x68, 0x00, 0x00, 0x00, 0x10, 0x00, 0x00, 0x00, 0x00, 0x00, 0x00, 0x00,
  0x08, 0x00, 0x0e, 0x00, 0x08, 0x00, 0x04, 0x00, 0x08, 0x00, 0x00, 0x00,
  0x10, 0x00, 0x00, 0x00, 0x2c, 0x00, 0x00, 0x00, 0x00, 0x00, 0x06, 0x00,
  0x08, 0x00, 0x04, 0x00, 0x06, 0x00, 0x00, 0x00, 0x04, 0x00, 0x00, 0x00,
  0x02, 0x00, 0x00, 0x00, 0xeb, 0x03, 0x00, 0x00, 0xd0, 0x07, 0x00, 0x00,
  0x0c, 0x00, 0x18, 0x00, 0x14, 0x00, 0x10, 0x00, 0x0c, 0x00, 0x04, 0x00,
  0x0c, 0x00, 0x00, 0x00, 0x81, 0x7b, 0xee, 0x79, 0xf6, 0x7d, 0x9e, 0x24,
  0x02, 0x00, 0x00, 0x00, 0x02, 0x00, 0x00, 0x00, 0x04, 0x00, 0x00, 0x00,
  0x06, 0x00, 0x00, 0x00, 0x32, 0x2e, 0x31, 0x37, 0x2e, 0x31, 0x00, 0x00,
  0x62, 0xfa, 0xff, 0xff, 0x04, 0x00, 0x00, 0x00, 0x10, 0x00, 0x00, 0x00,
  0x00, 0x00, 0x00, 0x00, 0x00, 0x00, 0x00, 0x00, 0x00, 0x00, 0x00, 0x00,
  0x00, 0x00, 0x00, 0x00, 0x7e, 0xfa, 0xff, 0xff, 0x04, 0x00, 0x00, 0x00,
  0x10, 0x00, 0x00, 0x00, 0x32, 0x2e, 0x33, 0x2e, 0x30, 0x00, 0x00, 0x00,
  0x00, 0x00, 0x00, 0x00, 0x00, 0x00, 0x00, 0x00, 0x30, 0xf2, 0xff, 0xff,
  0x34, 0xf2, 0xff, 0xff, 0xa2, 0xfa, 0xff, 0xff, 0x04, 0x00, 0x00, 0x00,
  0x08, 0x00, 0x00, 0x00, 0x6c, 0xfb, 0xff, 0xff, 0x95, 0x04, 0x00, 0x00,
  0xb6, 0xfa, 0xff, 0xff, 0x04, 0x00, 0x00, 0x00, 0x40, 0x02, 0x00, 0x00,
  0xc6, 0xf0, 0x1d, 0xdd, 0xe7, 0xa2, 0xd2, 0x48, 0x1a, 0x26, 0xec, 0x10,
  0x14, 0x09, 0x0e, 0x20, 0xf0, 0x07, 0xfa, 0x08, 0x06, 0x05, 0xed, 0x0b,
  0xf9, 0xfb, 0x0c, 0x0e, 0x0f, 0xf3, 0xf4, 0x0a, 0xfb, 0x0b, 0xec, 0xff,
  0x02, 0x27, 0x27, 0x01, 0xec, 0x08, 0x05, 0x07, 0x11, 0x11, 0x06, 0xf1,
  0xc3, 0xeb, 0x13, 0xe2, 0xe6, 0x8b, 0xd6, 0x3d, 0x10, 0x07, 0xf3, 0x12,
  0x15, 0x01, 0xee, 0x26, 0xfb, 0x10, 0xf1, 0x0f, 0xe1, 0x09, 0x06, 0x06,
  0xf4, 0x00, 0x0b, 0x0c, 0x03, 0x00, 0xe5, 0x0a, 0x04, 0xff, 0xff, 0xf8,
  0x0e, 0x07, 0x07, 0xf7, 0xf4, 0xe9, 0xf5, 0x0b, 0xfb, 0x24, 0x26, 0x04,
  0xcc, 0x00, 0x25, 0xda, 0xdb, 0x81, 0xb7, 0x47, 0x1a, 0x28, 0xed, 0x14,
  0xfb, 0xfb, 0xeb, 0x27, 0xf3, 0x15, 0xfb, 0x08, 0xe3, 0xf3, 0x14, 0xfd,
  0xf8, 0x06, 0x07, 0x05, 0x13, 0xff, 0xd6, 0x04, 0x0c, 0xf3, 0xe2, 0xfc,
  0x00, 0x21, 0xfb, 0xef, 0xd2, 0xf5, 0x0b, 0x01, 0x0d, 0x14, 0x1c, 0xf6,
  0xf5, 0x02, 0x12, 0xca, 0x08, 0x8b, 0xca, 0x5d, 0x30, 0x29, 0xf6, 0x0e,
  0xff, 0x07, 0x04, 0x14, 0xef, 0x0b, 0xee, 0x06, 0x09, 0x0a, 0x01, 0xff,
  0xea, 0xf3, 0xfd, 0x10, 0xfb, 0xfe, 0xe4, 0x00, 0x02, 0xfe, 0xf6, 0xfc,
  0x0a, 0x0b, 0xf6, 0xed, 0xec, 0xea, 0xe9, 0x01, 0x06, 0x11, 0x2a, 0xfe,
  0xd3, 0x04, 0x1b, 0xce, 0xf2, 0x85, 0xe1, 0x57, 0x1f, 0x2b, 0xf4, 0x09,
  0xf5, 0x1e, 0x0b, 0x25, 0xfb, 0x03, 0xeb, 0x10, 0x0a, 0x06, 0xff, 0xf8,
  0xe9, 0xf5, 0x15, 0x0e, 0xf4, 0xf1, 0xf3, 0x02, 0x05, 0x09, 0xf5, 0xff,
  0x1b, 0x0b, 0xfe, 0x10, 0xe0, 0x02, 0x07, 0xfd, 0x05, 0x0a, 0x14, 0xeb,
  0xd1, 0xef, 0x25, 0xd1, 0x04, 0x86, 0xe0, 0x42, 0x13, 0x25, 0xe0, 0x19,
  0xe5, 0x12, 0x05, 0x17, 0xe9, 0xfc, 0xe9, 0xff, 0xe6, 0xfe, 0xf9, 0x03,
  0xe4, 0xed, 0x0b, 0x07, 0x18, 0xf4, 0xeb, 0x07, 0xf3, 0x0d, 0xe8, 0x03,
  0x09, 0x1d, 0xf9, 0x17, 0xde, 0xf7, 0xf8, 0x17, 0xf9, 0x00, 0x11, 0xf0,
  0x3a, 0x14, 0xd0, 0x0c, 0x16, 0x69, 0x3f, 0x9e, 0xf0, 0xcd, 0x16, 0xff,
  0xdd, 0xf9, 0xf0, 0xe7, 0x0c, 0xdf, 0x0e, 0xf8, 0xee, 0x0b, 0x0d, 0xfe,
  0x10, 0xf6, 0xf9, 0x01, 0xf3, 0xfc, 0x1d, 0xf8, 0x0d, 0x00, 0x04, 0xeb,
  0xf8, 0xe2, 0xea, 0xfd, 0xf8, 0xf7, 0x05, 0xed, 0xf4, 0xe9, 0x01, 0x08,
  0x42, 0x16, 0xd7, 0x21, 0x13, 0x66, 0x28, 0xbf, 0xe2, 0xea, 0xfc, 0xf8,
  0xd9, 0xe8, 0x03, 0xd1, 0x1b, 0xea, 0x09, 0xf5, 0x03, 0x02, 0x17, 0xf5,
  0x19, 0x15, 0xf1, 0x03, 0x0a, 0x08, 0x15, 0x07, 0xf4, 0x10, 0x09, 0xf0,
  0xfe, 0xe3, 0xed, 0x04, 0xef, 0x0f, 0x01, 0xf7, 0xe9, 0xef, 0xe3, 0x0f,
  0x3b, 0xfd, 0xd2, 0x2d, 0x2b, 0x7c, 0x35, 0xb4, 0xde, 0xca, 0x12, 0xf6,
  0x0a, 0xee, 0x0d, 0xd4, 0xfe, 0xdd, 0x0a, 0xf2, 0x27, 0xfd, 0xd7, 0x0a,
  0x1c, 0x04, 0xf7, 0xf9, 0xf6, 0x09, 0x28, 0xf8, 0x00, 0x06, 0x0f, 0xf9,
  0xf4, 0xf6, 0xf7, 0xfb, 0x10, 0x1d, 0x09, 0xf4, 0xff, 0xec, 0x03, 0x06,
  0x03, 0x01, 0xde, 0x35, 0x0c, 0x6f, 0x2d, 0xb0, 0xe5, 0xc3, 0xfc, 0xf9,
  0x14, 0xee, 0x0f, 0xea, 0x07, 0xed, 0x0f, 0xf5, 0x07, 0xf9, 0xf2, 0x00,
  0x13, 0x00, 0xf3, 0x04, 0xfd, 0x08, 0x2e, 0x07, 0xff, 0x0b, 0x15, 0xf5,
  0xf7, 0xf0, 0x18, 0xf8, 0x14, 0x0a, 0xfd, 0xe8, 0x13, 0xf9, 0xd8, 0x15,
  0x2d, 0x04, 0xe7, 0x32, 0x1b, 0x6f, 0x2a, 0xba, 0xe8, 0xe5, 0x04, 0xef,
  0x0e, 0xfb, 0xfa, 0xf6, 0xff, 0xf9, 0x17, 0xfa, 0xf6, 0xfe, 0x07, 0x05,
  0x0e, 0x15, 0x00, 0xfb, 0x06, 0xfe, 0x1b, 0xf7, 0xff, 0x08, 0xf7, 0xf9,
  0xfc, 0xeb, 0xff, 0xf8, 0x0e, 0xf6, 0x0f, 0xe8, 0xf1, 0xf2, 0xea, 0x19,
  0x34, 0x1d, 0xe4, 0x2f, 0x01, 0x78, 0x36, 0xb3, 0xea, 0xd1, 0x27, 0x00,
  0x0f, 0xed, 0xf5, 0xf8, 0x10, 0xf5, 0x01, 0xed, 0x24, 0x08, 0xec, 0xf0,
  0x05, 0xfa, 0xf9, 0xfc, 0xe5, 0xf7, 0x09, 0xf8, 0xf8, 0xf3, 0x12, 0xf5,
  0xf6, 0xd9, 0x03, 0x04, 0x1d, 0xf6, 0x04, 0x01, 0xf3, 0xee, 0x08, 0x10,
  0x98, 0xf4, 0xff, 0xff, 0x9c, 0xf4, 0xff, 0xff, 0xa0, 0xf4, 0xff, 0xff,
  0xa4, 0xf4, 0xff, 0xff, 0x12, 0xfd, 0xff, 0xff, 0x04, 0x00, 0x00, 0x00,
  0x00, 0x02, 0x00, 0x00, 0x0b, 0xff, 0x04, 0xdc, 0x38, 0x01, 0xf8, 0xe1,
  0x0e, 0x0c, 0xdb, 0xcf, 0xe5, 0x30, 0xf8, 0xe8, 0x16, 0xf0, 0xde, 0xdc,
  0x0f, 0x30, 0xda, 0x08, 0x17, 0xf4, 0xfa, 0xd6, 0xfa, 0x49, 0xff, 0x19,
  0x2d, 0xd5, 0xdd, 0xab, 0x2a, 0x28, 0x08, 0xe2, 0x02, 0xe5, 0xe0, 0xc3,
  0xf8, 0x0c, 0x10, 0xef, 0x1b, 0xe4, 0xbe, 0xb7, 0x05, 0x02, 0x1e, 0xd9,
  0x03, 0xe3, 0xde, 0x81, 0x0a, 0x35, 0x0f, 0xe0, 0x31, 0xff, 0xe0, 0xdb,
  0x1c, 0x2a, 0x0d, 0xfb, 0x4e, 0x05, 0x1a, 0xdb, 0xeb, 0x16, 0x2f, 0xad,
  0x20, 0x02, 0xe3, 0x0e, 0xb8, 0x25, 0x1a, 0xe8, 0x71, 0xf3, 0x07, 0xe1,
  0x81, 0x15, 0x10, 0x20, 0x34, 0x16, 0xd7, 0xd6, 0xf7, 0x1d, 0x0a, 0x04,
  0x42, 0xe6, 0xcd, 0xa4, 0xd8, 0x02, 0x14, 0xec, 0x27, 0xd9, 0x8f, 0xa1,
  0xd3, 0x00, 0xfb, 0xe1, 0x25, 0xca, 0xb1, 0xa4, 0xd4, 0x06, 0xfe, 0xff,
  0xfe, 0xba, 0x1a, 0x36, 0x26, 0xf1, 0xd9, 0xed, 0xfb, 0xa9, 0x03, 0x1c,
  0x04, 0x18, 0xea, 0xce, 0x2b, 0x1d, 0x18, 0x20, 0x2d, 0x0d, 0xe6, 0xdc,
  0xda, 0xef, 0x0d, 0x27, 0xfc, 0x29, 0xcc, 0x81, 0x02, 0xe4, 0x27, 0x1b,
  0x1e, 0x2d, 0xe9, 0xa9, 0xef, 0xef, 0x16, 0x1a, 0x14, 0x35, 0xf0, 0xdd,
  0xdd, 0xe8, 0xfa, 0x21, 0x30, 0x01, 0xc4, 0xef, 0xdf, 0xec, 0x0c, 0x19,
  0x06, 0x23, 0xb3, 0xd1, 0x0f, 0x9b, 0x84, 0xae, 0xfa, 0xfa, 0x14, 0xf0,
  0x09, 0x81, 0xff, 0xbf, 0xdc, 0xe4, 0xfc, 0xf9, 0xe5, 0x86, 0xa1, 0x97,
  0xd7, 0x01, 0x10, 0xeb, 0xe8, 0x88, 0xf8, 0xb4, 0x2e, 0xf7, 0xf4, 0xf7,
  0xee, 0xc3, 0xa1, 0xc2, 0xc9, 0xf4, 0x0a, 0xf0, 0xec, 0xb4, 0x92, 0xa9,
  0xee, 0xe9, 0xfd, 0xfd, 0xe3, 0x93, 0xda, 0xc0, 0xf1, 0x01, 0xfb, 0xf1,
  0x09, 0xba, 0x9e, 0xca, 0x06, 0xfb, 0xfd, 0xf8, 0xf0, 0x5e, 0x4f, 0x75,
  0xf5, 0xf7, 0xf3, 0xf2, 0xc7, 0x32, 0x42, 0xda, 0xe2, 0xf9, 0x0f, 0xfd,
  0xdf, 0xa3, 0x41, 0xef, 0xf5, 0x01, 0xe4, 0x41, 0xe9, 0xe2, 0x54, 0x2e,
  0x1c, 0xbc, 0xdd, 0xf5, 0x0f, 0xdc, 0x11, 0xb2, 0x24, 0x17, 0xc8, 0xd1,
  0xc3, 0xdf, 0xe1, 0x31, 0x55, 0x0e, 0xcb, 0x08, 0xd5, 0xc0, 0x41, 0x09,
  0xec, 0x7f, 0x08, 0x08, 0xe9, 0x08, 0x2f, 0x01, 0xfb, 0xd7, 0xd3, 0xd6,
  0x16, 0x9d, 0xaf, 0xcf, 0xc3, 0x15, 0x0c, 0x0b, 0x0f, 0xa0, 0x9f, 0x8d,
  0xec, 0x18, 0x34, 0x14, 0x11, 0xd5, 0xa0, 0xb8, 0xda, 0x25, 0xff, 0x0e,
  0x04, 0xb7, 0xbc, 0xb3, 0xda, 0x33, 0x28, 0x09, 0x0a, 0xa5, 0x94, 0xc0,
  0xb6, 0xef, 0x07, 0xf4, 0x0f, 0xbf, 0xb9, 0xd1, 0x0e, 0x08, 0x28, 0x0b,
  0x05, 0x91, 0x81, 0x82, 0x9d, 0x11, 0xfe, 0x2c, 0x15, 0xb4, 0xc6, 0xbf,
  0xe4, 0xf7, 0x22, 0x28, 0x06, 0x3c, 0xb0, 0xb1, 0x20, 0x28, 0xe0, 0x0c,
  0x22, 0xf4, 0x08, 0x1f, 0x1c, 0x20, 0x14, 0x05, 0x0d, 0xfa, 0x97, 0x81,
  0x53, 0xc6, 0xff, 0x19, 0x09, 0xe5, 0xbc, 0x0c, 0xdf, 0x0b, 0xec, 0x23,
  0xf0, 0x47, 0x0c, 0xcc, 0xd9, 0xec, 0x10, 0x37, 0xea, 0x01, 0xc4, 0x29,
  0x19, 0x22, 0xfd, 0x47, 0xd2, 0xc2, 0xae, 0xba, 0xfc, 0xf8, 0x10, 0x38,
  0x0d, 0x1c, 0xf1, 0xec, 0x56, 0xcd, 0xf5, 0xa7, 0xf1, 0xc1, 0x34, 0x17,
  0x2b, 0xea, 0xda, 0x8c, 0xf2, 0xce, 0x28, 0x1a, 0x35, 0x13, 0xbf, 0x92,
  0xf5, 0xcb, 0x24, 0x27, 0x50, 0xe8, 0xbf, 0xa8, 0xf7, 0xcd, 0x23, 0x18,
  0x39, 0xfa, 0xc1, 0xa9, 0x10, 0xc4, 0x17, 0x23, 0x1d, 0xe0, 0xdd, 0xbb,
  0xfc, 0xdc, 0x33, 0x11, 0x16, 0xe7, 0xb8, 0x97, 0xff, 0xd2, 0x0e, 0x25,
  0x11, 0xe7, 0x85, 0x96, 0xef, 0xce, 0x10, 0x1c, 0x27, 0x12, 0xa0, 0x81,
  0x1e, 0xff, 0xff, 0xff, 0x04, 0x00, 0x00, 0x00, 0x20, 0x00, 0x00, 0x00,
  0xc9, 0x00, 0x00, 0x00, 0x87, 0x00, 0x00, 0x00, 0x92, 0x00, 0x00, 0x00,
  0x77, 0xf3, 0xff, 0xff, 0xd2, 0xfe, 0xff, 0xff, 0x69, 0x01, 0x00, 0x00,
  0xaa, 0x00, 0x00, 0x00, 0xf6, 0x00, 0x00, 0x00, 0x4a, 0xff, 0xff, 0xff,
  0x04, 0x00, 0x00, 0x00, 0x08, 0x00, 0x00, 0x00, 0xff, 0xff, 0xff, 0xff,
  0x20, 0x01, 0x00, 0x00, 0x5e, 0xff, 0xff, 0xff, 0x04, 0x00, 0x00, 0x00,
  0x08, 0x00, 0x00, 0x00, 0x20, 0x00, 0x00, 0x00, 0x20, 0x00, 0x00, 0x00,
  0x08, 0xf7, 0xff, 0xff, 0x0c, 0xf7, 0xff, 0xff, 0x0f, 0x00, 0x00, 0x00,
  0x4d, 0x4c, 0x49, 0x52, 0x20, 0x43, 0x6f, 0x6e, 0x76, 0x65, 0x72, 0x74,
  0x65, 0x64, 0x2e, 0x00, 0x01, 0x00, 0x00, 0x00, 0x14, 0x00, 0x00, 0x00,
  0x00, 0x00, 0x0e, 0x00, 0x18, 0x00, 0x14, 0x00, 0x10, 0x00, 0x0c, 0x00,
  0x08, 0x00, 0x04, 0x00, 0x0e, 0x00, 0x00, 0x00, 0x14, 0x00, 0x00, 0x00,
  0x1c, 0x00, 0x00, 0x00, 0xc8, 0x01, 0x00, 0x00, 0xcc, 0x01, 0x00, 0x00,
  0xd0, 0x01, 0x00, 0x00, 0x04, 0x00, 0x00, 0x00, 0x6d, 0x61, 0x69, 0x6e,
  0x00, 0x00, 0x00, 0x00, 0x06, 0x00, 0x00, 0x00, 0x74, 0x01, 0x00, 0x00,
  0x10, 0x01, 0x00, 0x00, 0xac, 0x00, 0x00, 0x00, 0x84, 0x00, 0x00, 0x00,
  0x40, 0x00, 0x00, 0x00, 0x04, 0x00, 0x00, 0x00, 0x12, 0xff, 0xff, 0xff,
  0x1c, 0x00, 0x00, 0x00, 0x00, 0x00, 0x00, 0x09, 0x1c, 0x00, 0x00, 0x00,
  0x20, 0x00, 0x00, 0x00, 0x05, 0x00, 0x00, 0x00, 0x00, 0x00, 0x06, 0x00,
  0x08, 0x00, 0x04, 0x00, 0x06, 0x00, 0x00, 0x00, 0x00, 0x00, 0x80, 0x3f,
  0x01, 0x00, 0x00, 0x00, 0x0c, 0x00, 0x00, 0x00, 0x01, 0x00, 0x00, 0x00,
  0x0b, 0x00, 0x00, 0x00, 0x4a, 0xff, 0xff, 0xff, 0x14, 0x00, 0x00, 0x00,
  0x00, 0x00, 0x00, 0x08, 0x10, 0x00, 0x00, 0x00, 0x14, 0x00, 0x00, 0x00,
  0x04, 0x00, 0x00, 0x00, 0xcc, 0xf7, 0xff, 0xff, 0x01, 0x00, 0x00, 0x00,
  0x0b, 0x00, 0x00, 0x00, 0x03, 0x00, 0x00, 0x00, 0x08, 0x00, 0x00, 0x00,
  0x09, 0x00, 0x00, 0x00, 0x0a, 0x00, 0x00, 0x00, 0x00, 0x00, 0x0a, 0x00,
  0x10, 0x00, 0x0c, 0x00, 0x08, 0x00, 0x04, 0x00, 0x0a, 0x00, 0x00, 0x00,
  0x0c, 0x00, 0x00, 0x00, 0x10, 0x00, 0x00, 0x00, 0x03, 0x00, 0x00, 0x00,
  0x01, 0x00, 0x00, 0x00, 0x08, 0x00, 0x00, 0x00, 0x02, 0x00, 0x00, 0x00,
  0x07, 0x00, 0x00, 0x00, 0x02, 0x00, 0x00, 0x00, 0xae, 0xff, 0xff, 0xff,
  0x24, 0x00, 0x00, 0x00, 0x00, 0x00, 0x00, 0x05, 0x34, 0x00, 0x00, 0x00,
  0x38, 0x00, 0x00, 0x00, 0x02, 0x00, 0x00, 0x00, 0x00, 0x00, 0x0e, 0x00,
  0x18, 0x00, 0x17, 0x00, 0x10, 0x00, 0x0c, 0x00, 0x08, 0x00, 0x04, 0x00,
  0x0e, 0x00, 0x00, 0x00, 0x02, 0x00, 0x00, 0x00, 0x02, 0x00, 0x00, 0x00,
  0x02, 0x00, 0x00, 0x00, 0x02, 0x00, 0x00, 0x00, 0x00, 0x00, 0x00, 0x01,
  0x01, 0x00, 0x00, 0x00, 0x07, 0x00, 0x00, 0x00, 0x01, 0x00, 0x00, 0x00,
  0x06, 0x00, 0x00, 0x00, 0x00, 0x00, 0x0e, 0x00, 0x18, 0x00, 0x14, 0x00,
  0x10, 0x00, 0x0c, 0x00, 0x0b, 0x00, 0x04, 0x00, 0x0e, 0x00, 0x00, 0x00,
  0x20, 0x00, 0x00, 0x00, 0x00, 0x00, 0x00, 0x01, 0x2c, 0x00, 0x00, 0x00,
  0x30, 0x00, 0x00, 0x00, 0x01, 0x00, 0x00, 0x00, 0x0c, 0x00, 0x14, 0x00,
  0x13, 0x00, 0x0c, 0x00, 0x08, 0x00, 0x07, 0x00, 0x0c, 0x00, 0x00, 0x00,
  0x00, 0x00, 0x00, 0x01, 0x02, 0x00, 0x00, 0x00, 0x02, 0x00, 0x00, 0x00,
  0x00, 0x00, 0x00, 0x01, 0x01, 0x00, 0x00, 0x00, 0x06, 0x00, 0x00, 0x00,
  0x03, 0x00, 0x00, 0x00, 0x05, 0x00, 0x00, 0x00, 0x04, 0x00, 0x00, 0x00,
  0x03, 0x00, 0x00, 0x00, 0x00, 0x00, 0x0e, 0x00, 0x14, 0x00, 0x00, 0x00,
  0x10, 0x00, 0x0c, 0x00, 0x0b, 0x00, 0x04, 0x00, 0x0e, 0x00, 0x00, 0x00,
  0x18, 0x00, 0x00, 0x00, 0x00, 0x00, 0x00, 0x4a, 0x18, 0x00, 0x00, 0x00,
  0x1c, 0x00, 0x00, 0x00, 0x08, 0x00, 0x08, 0x00, 0x00, 0x00, 0x07, 0x00,
  0x08, 0x00, 0x00, 0x00, 0x00, 0x00, 0x00, 0x01, 0x01, 0x00, 0x00, 0x00,
  0x05, 0x00, 0x00, 0x00, 0x02, 0x00, 0x00, 0x00, 0x00, 0x00, 0x00, 0x00,
  0x01, 0x00, 0x00, 0x00, 0x01, 0x00, 0x00, 0x00, 0x0c, 0x00, 0x00, 0x00,
  0x01, 0x00, 0x00, 0x00, 0x00, 0x00, 0x00, 0x00, 0x0d, 0x00, 0x00, 0x00,
  0x18, 0x07, 0x00, 0x00, 0xbc, 0x06, 0x00, 0x00, 0x64, 0x06, 0x00, 0x00,
  0xb0, 0x05, 0x00, 0x00, 0xec, 0x04, 0x00, 0x00, 0x40, 0x04, 0x00, 0x00,
  0x64, 0x03, 0x00, 0x00, 0xc8, 0x02, 0x00, 0x00, 0x44, 0x02, 0x00, 0x00,
  0x90, 0x01, 0x00, 0x00, 0x2c, 0x01, 0x00, 0x00, 0x80, 0x00, 0x00, 0x00,
  0x04, 0x00, 0x00, 0x00, 0x32, 0xf9, 0xff, 0xff, 0x00, 0x00, 0x00, 0x01,
  0x18, 0x00, 0x00, 0x00, 0x20, 0x00, 0x00, 0x00, 0x3c, 0x00, 0x00, 0x00,
  0x0d, 0x00, 0x00, 0x00, 0x00, 0x00, 0x00, 0x09, 0x50, 0x00, 0x00, 0x00,
  0x02, 0x00, 0x00, 0x00, 0xff, 0xff, 0xff, 0xff, 0x02, 0x00, 0x00, 0x00,
  0x14, 0xf9, 0xff, 0xff, 0x08, 0x00, 0x00, 0x00, 0x10, 0x00, 0x00, 0x00,
  0x01, 0x00, 0x00, 0x00, 0x80, 0xff, 0xff, 0xff, 0xff, 0xff, 0xff, 0xff,
  0x01, 0x00, 0x00, 0x00, 0x00, 0x00, 0x80, 0x3b, 0x19, 0x00, 0x00, 0x00,
  0x53, 0x74, 0x61, 0x74, 0x65, 0x66, 0x75, 0x6c, 0x50, 0x61, 0x72, 0x74,
  0x69, 0x74, 0x69, 0x6f, 0x6e, 0x65, 0x64, 0x43, 0x61, 0x6c, 0x6c, 0x3a,
  0x30, 0x00, 0x00, 0x00, 0x02, 0x00, 0x00, 0x00, 0x01, 0x00, 0x00, 0x00,
  0x02, 0x00, 0x00, 0x00, 0xaa, 0xf9, 0xff, 0xff, 0x00, 0x00, 0x00, 0x01,
  0x18, 0x00, 0x00, 0x00, 0x20, 0x00, 0x00, 0x00, 0x40, 0x00, 0x00, 0x00,
  0x0c, 0x00, 0x00, 0x00, 0x00, 0x00, 0x00, 0x09, 0x80, 0x00, 0x00, 0x00,
  0x02, 0x00, 0x00, 0x00, 0xff, 0xff, 0xff, 0xff, 0x02, 0x00, 0x00, 0x00,
  0x8c, 0xf9, 0xff, 0xff, 0x08, 0x00, 0x00, 0x00, 0x14, 0x00, 0x00, 0x00,
  0x01, 0x00, 0x00, 0x00, 0x09, 0x00, 0x00, 0x00, 0x00, 0x00, 0x00, 0x00,
  0x00, 0x00, 0x00, 0x00, 0x01, 0x00, 0x00, 0x00, 0xb7, 0x17, 0x2c, 0x3e,
  0x44, 0x00, 0x00, 0x00, 0x73, 0x65, 0x71, 0x75, 0x65, 0x6e, 0x74, 0x69,
  0x61, 0x6c, 0x5f, 0x31, 0x2f, 0x71, 0x75, 0x61, 0x6e, 0x74, 0x5f, 0x64,
  0x65, 0x6e, 0x73, 0x65, 0x5f, 0x31, 0x2f, 0x4d, 0x61, 0x74, 0x4d, 0x75,
  0x6c, 0x3b, 0x73, 0x65, 0x71, 0x75, 0x65, 0x6e, 0x74, 0x69, 0x61, 0x6c,
  0x5f, 0x31, 0x2f, 0x71, 0x75, 0x61, 0x6e, 0x74, 0x5f, 0x64, 0x65, 0x6e,
  0x73, 0x65, 0x5f, 0x31, 0x2f, 0x42, 0x69, 0x61, 0x73, 0x41, 0x64, 0x64,
  0x00, 0x00, 0x00, 0x00, 0x02, 0x00, 0x00, 0x00, 0x01, 0x00, 0x00, 0x00,
  0x02, 0x00, 0x00, 0x00, 0xaa, 0xfa, 0xff, 0xff, 0x00, 0x00, 0x00, 0x01,
  0x14, 0x00, 0x00, 0x00, 0x34, 0x00, 0x00, 0x00, 0x0b, 0x00, 0x00, 0x00,
  0x00, 0x00, 0x00, 0x02, 0x40, 0x00, 0x00, 0x00, 0x24, 0xfa, 0xff, 0xff,
  0x08, 0x00, 0x00, 0x00, 0x14, 0x00, 0x00, 0x00, 0x01, 0x00, 0x00, 0x00,
  0x00, 0x00, 0x00, 0x00, 0x00, 0x00, 0x00, 0x00, 0x00, 0x00, 0x00, 0x00,
  0x01, 0x00, 0x00, 0x00, 0x76, 0x57, 0xdc, 0x39, 0x12, 0x00, 0x00, 0x00,
  0x74, 0x66, 0x6c, 0x2e, 0x70, 0x73, 0x65, 0x75, 0x64, 0x6f, 0x5f, 0x71,
  0x63, 0x6f, 0x6e, 0x73, 0x74, 0x32, 0x00, 0x00, 0x01, 0x00, 0x00, 0x00,
  0x02, 0x00, 0x00, 0x00, 0x0a, 0xfb, 0xff, 0xff, 0x00, 0x00, 0x00, 0x01,
  0x14, 0x00, 0x00, 0x00, 0x30, 0x00, 0x00, 0x00, 0x0a, 0x00, 0x00, 0x00,
  0x00, 0x00, 0x00, 0x09, 0x8c, 0x00, 0x00, 0x00, 0x84, 0xfa, 0xff, 0xff,
  0x08, 0x00, 0x00, 0x00, 0x10, 0x00, 0x00, 0x00, 0x01, 0x00, 0x00, 0x00,
  0x00, 0x00, 0x00, 0x00, 0x00, 0x00, 0x00, 0x00, 0x01, 0x00, 0x00, 0x00,
  0x1d, 0xf2, 0x0f, 0x3c, 0x63, 0x00, 0x00, 0x00, 0x73, 0x65, 0x71, 0x75,
  0x65, 0x6e, 0x74, 0x69, 0x61, 0x6c, 0x5f, 0x31, 0x2f, 0x71, 0x75, 0x61,
  0x6e, 0x74, 0x5f, 0x64, 0x65, 0x6e, 0x73, 0x65, 0x5f, 0x31, 0x2f, 0x4d,
  0x61, 0x74, 0x4d, 0x75, 0x6c, 0x3b, 0x73, 0x65, 0x71, 0x75, 0x65, 0x6e,
  0x74, 0x69, 0x61, 0x6c, 0x5f, 0x31, 0x2f, 0x71, 0x75, 0x61, 0x6e, 0x74,
  0x5f, 0x64, 0x65, 0x6e, 0x73, 0x65, 0x5f, 0x31, 0x2f, 0x4c, 0x61, 0x73,
  0x74, 0x56, 0x61, 0x6c, 0x75, 0x65, 0x51, 0x75, 0x61, 0x6e, 0x74, 0x2f,
  0x46, 0x61, 0x6b, 0x65, 0x51, 0x75, 0x61, 0x6e, 0x74, 0x57, 0x69, 0x74,
  0x68, 0x4d, 0x69, 0x6e, 0x4d, 0x61, 0x78, 0x56, 0x61, 0x72, 0x73, 0x00,
  0x02, 0x00, 0x00, 0x00, 0x02, 0x00, 0x00, 0x00, 0x20, 0x01, 0x00, 0x00,
  0x62, 0xfb, 0xff, 0xff, 0x00, 0x00, 0x00, 0x01, 0x18, 0x00, 0x00, 0x00,
  0x20, 0x00, 0x00, 0x00, 0x40, 0x00, 0x00, 0x00, 0x09, 0x00, 0x00, 0x00,
  0x00, 0x00, 0x00, 0x09, 0x58, 0x00, 0x00, 0x00, 0x02, 0x00, 0x00, 0x00,
  0xff, 0xff, 0xff, 0xff, 0x20, 0x01, 0x00, 0x00, 0x44, 0xfb, 0xff, 0xff,
  0x08, 0x00, 0x00, 0x00, 0x14, 0x00, 0x00, 0x00, 0x01, 0x00, 0x00, 0x00,
  0x82, 0xff, 0xff, 0xff, 0xff, 0xff, 0xff, 0xff, 0x00, 0x00, 0x00, 0x00,
  0x01, 0x00, 0x00, 0x00, 0xdb, 0xee, 0x43, 0x3d, 0x1e, 0x00, 0x00, 0x00,
  0x73, 0x65, 0x71, 0x75, 0x65, 0x6e, 0x74, 0x69, 0x61, 0x6c, 0x5f, 0x31,
  0x2f, 0x66, 0x6c, 0x61, 0x74, 0x74, 0x65, 0x6e, 0x5f, 0x31, 0x2f, 0x52,
  0x65, 0x73, 0x68, 0x61, 0x70, 0x65, 0x00, 0x00, 0x02, 0x00, 0x00, 0x00,
  0x01, 0x00, 0x00, 0x00, 0x20, 0x01, 0x00, 0x00, 0xe2, 0xfb, 0xff, 0xff,
  0x00, 0x00, 0x00, 0x01, 0x18, 0x00, 0x00, 0x00, 0x28, 0x00, 0x00, 0x00,
  0x48, 0x00, 0x00, 0x00, 0x08, 0x00, 0x00, 0x00, 0x00, 0x00, 0x00, 0x09,
  0x68, 0x00, 0x00, 0x00, 0x04, 0x00, 0x00, 0x00, 0xff, 0xff, 0xff, 0xff,
  0x06, 0x00, 0x00, 0x00, 0x06, 0x00, 0x00, 0x00, 0x08, 0x00, 0x00, 0x00,
  0xcc, 0xfb, 0xff, 0xff, 0x08, 0x00, 0x00, 0x00, 0x14, 0x00, 0x00, 0x00,
  0x01, 0x00, 0x00, 0x00, 0x82, 0xff, 0xff, 0xff, 0xff, 0xff, 0xff, 0xff,
  0x00, 0x00, 0x00, 0x00, 0x01, 0x00, 0x00, 0x00, 0xdb, 0xee, 0x43, 0x3d,
  0x24, 0x00, 0x00, 0x00, 0x73, 0x65, 0x71, 0x75, 0x65, 0x6e, 0x74, 0x69,
  0x61, 0x6c, 0x5f, 0x31, 0x2f, 0x6d, 0x61, 0x78, 0x5f, 0x70, 0x6f, 0x6f,
  0x6c, 0x69, 0x6e, 0x67, 0x32, 0x64, 0x5f, 0x31, 0x2f, 0x4d, 0x61, 0x78,
  0x50, 0x6f, 0x6f, 0x6c, 0x00, 0x00, 0x00, 0x00, 0x04, 0x00, 0x00, 0x00,
  0x01, 0x00, 0x00, 0x00, 0x06, 0x00, 0x00, 0x00, 0x06, 0x00, 0x00, 0x00,
  0x08, 0x00, 0x00, 0x00, 0x7a, 0xfc, 0xff, 0xff, 0x00, 0x00, 0x00, 0x01,
  0x18, 0x00, 0x00, 0x00, 0x28, 0x00, 0x00, 0x00, 0x44, 0x00, 0x00, 0x00,
  0x07, 0x00, 0x00, 0x00, 0x00, 0x00, 0x00, 0x09, 0xa8, 0x00, 0x00, 0x00,
  0x04, 0x00, 0x00, 0x00, 0xff, 0xff, 0xff, 0xff, 0x0d, 0x00, 0x00, 0x00,
  0x0d, 0x00, 0x00, 0x00, 0x08, 0x00, 0x00, 0x00, 0x64, 0xfc, 0xff, 0xff,
  0x08, 0x00, 0x00, 0x00, 0x10, 0x00, 0x00, 0x00, 0x01, 0x00, 0x00, 0x00,
  0x82, 0xff, 0xff, 0xff, 0xff, 0xff, 0xff, 0xff, 0x01, 0x00, 0x00, 0x00,
  0xdb, 0xee, 0x43, 0x3d, 0x68, 0x00, 0x00, 0x00, 0x73, 0x65, 0x71, 0x75,
  0x65, 0x6e, 0x74, 0x69, 0x61, 0x6c, 0x5f, 0x31, 0x2f, 0x71, 0x75, 0x61,
  0x6e, 0x74, 0x5f, 0x63, 0x6f, 0x6e, 0x76, 0x32, 0x64, 0x5f, 0x31, 0x2f,
  0x52, 0x65, 0x6c, 0x75, 0x3b, 0x73, 0x65, 0x71, 0x75, 0x65, 0x6e, 0x74,
  0x69, 0x61, 0x6c, 0x5f, 0x31, 0x2f, 0x71, 0x75, 0x61, 0x6e, 0x74, 0x5f,
  0x63, 0x6f, 0x6e, 0x76, 0x32, 0x64, 0x5f, 0x31, 0x2f, 0x42, 0x69, 0x61,
  0x73, 0x41, 0x64, 0x64, 0x3b, 0x73, 0x65, 0x71, 0x75, 0x65, 0x6e, 0x74,
  0x69, 0x61, 0x6c, 0x5f, 0x31, 0x2f, 0x71, 0x75, 0x61, 0x6e, 0x74, 0x5f,
  0x63, 0x6f, 0x6e, 0x76, 0x32, 0x64, 0x5f, 0x31, 0x2f, 0x43, 0x6f, 0x6e,
  0x76, 0x32, 0x44, 0x3b, 0x00, 0x00, 0x00, 0x00, 0x04, 0x00, 0x00, 0x00,
  0x01, 0x00, 0x00, 0x00, 0x0d, 0x00, 0x00, 0x00, 0x0d, 0x00, 0x00, 0x00,
  0x08, 0x00, 0x00, 0x00, 0x52, 0xfd, 0xff, 0xff, 0x00, 0x00, 0x00, 0x01,
  0x18, 0x00, 0x00, 0x00, 0x28, 0x00, 0x00, 0x00, 0x48, 0x00, 0x00, 0x00,
  0x06, 0x00, 0x00, 0x00, 0x00, 0x00, 0x00, 0x09, 0x78, 0x00, 0x00, 0x00,
  0x04, 0x00, 0x00, 0x00, 0xff, 0xff, 0xff, 0xff, 0x20, 0x00, 0x00, 0x00,
  0x20, 0x00, 0x00, 0x00, 0x01, 0x00, 0x00, 0x00, 0x3c, 0xfd, 0xff, 0xff,
  0x08, 0x00, 0x00, 0x00, 0x14, 0x00, 0x00, 0x00, 0x01, 0x00, 0x00, 0x00,
  0x80, 0xff, 0xff, 0xff, 0xff, 0xff, 0xff, 0xff, 0x00, 0x00, 0x00, 0x00,
  0x01, 0x00, 0x00, 0x00, 0xd4, 0x2e, 0x09, 0x3e, 0x34, 0x00, 0x00, 0x00,
  0x73, 0x65, 0x71, 0x75, 0x65, 0x6e, 0x74, 0x69, 0x61, 0x6c, 0x5f, 0x31,
  0x2f, 0x72, 0x65, 0x73, 0x69, 0x7a, 0x69, 0x6e, 0x67, 0x5f, 0x31, 0x2f,
  0x72, 0x65, 0x73, 0x69, 0x7a, 0x65, 0x2f, 0x52, 0x65, 0x73, 0x69, 0x7a,
  0x65, 0x4e, 0x65, 0x61, 0x72, 0x65, 0x73, 0x74, 0x4e, 0x65, 0x69, 0x67,
  0x68, 0x62, 0x6f, 0x72, 0x00, 0x00, 0x00, 0x00, 0x04, 0x00, 0x00, 0x00,
  0x01, 0x00, 0x00, 0x00, 0x20, 0x00, 0x00, 0x00, 0x20, 0x00, 0x00, 0x00,
  0x01, 0x00, 0x00, 0x00, 0x52, 0xfe, 0xff, 0xff, 0x00, 0x00, 0x00, 0x01,
  0x14, 0x00, 0x00, 0x00, 0x88, 0x00, 0x00, 0x00, 0x05, 0x00, 0x00, 0x00,
  0x00, 0x00, 0x00, 0x09, 0x94, 0x00, 0x00, 0x00, 0xcc, 0xfd, 0xff, 0xff,
  0x08, 0x00, 0x00, 0x00, 0x4c, 0x00, 0x00, 0x00, 0x08, 0x00, 0x00, 0x00,
  0x00, 0x00, 0x00, 0x00, 0x00, 0x00, 0x00, 0x00, 0x00, 0x00, 0x00, 0x00,
  0x00, 0x00, 0x00, 0x00, 0x00, 0x00, 0x00, 0x00, 0x00, 0x00, 0x00, 0x00,
  0x00, 0x00, 0x00, 0x00, 0x00, 0x00, 0x00, 0x00, 0x00, 0x00, 0x00, 0x00,
  0x00, 0x00, 0x00, 0x00, 0x00, 0x00, 0x00, 0x00, 0x00, 0x00, 0x00, 0x00,
  0x00, 0x00, 0x00, 0x00, 0x00, 0x00, 0x00, 0x00, 0x00, 0x00, 0x00, 0x00,
  0x00, 0x00, 0x00, 0x00, 0x00, 0x00, 0x00, 0x00, 0x08, 0x00, 0x00, 0x00,
  0xe7, 0x1e, 0xa4, 0x3b, 0xc4, 0xbe, 0x7f, 0x3b, 0x81, 0x94, 0x9a, 0x3b,
  0x51, 0x63, 0xc0, 0x3a, 0xd8, 0x10, 0x4f, 0x3b, 0x5c, 0xfb, 0xcc, 0x3b,
  0xde, 0x29, 0x78, 0x3b, 0xcc, 0x28, 0x92, 0x3b, 0x12, 0x00, 0x00, 0x00,
  0x74, 0x66, 0x6c, 0x2e, 0x70, 0x73, 0x65, 0x75, 0x64, 0x6f, 0x5f, 0x71,
  0x63, 0x6f, 0x6e, 0x73, 0x74, 0x31, 0x00, 0x00, 0x04, 0x00, 0x00, 0x00,
  0x08, 0x00, 0x00, 0x00, 0x08, 0x00, 0x00, 0x00, 0x08, 0x00, 0x00, 0x00,
  0x01, 0x00, 0x00, 0x00, 0x12, 0xff, 0xff, 0xff, 0x00, 0x00, 0x00, 0x01,
  0x14, 0x00, 0x00, 0x00, 0x84, 0x00, 0x00, 0x00, 0x04, 0x00, 0x00, 0x00,
  0x00, 0x00, 0x00, 0x02, 0x90, 0x00, 0x00, 0x00, 0x8c, 0xfe, 0xff, 0xff,
  0x08, 0x00, 0x00, 0x00, 0x48, 0x00, 0x00, 0x00, 0x08, 0x00, 0x00, 0x00,
  0x00, 0x00, 0x00, 0x00, 0x00, 0x00, 0x00, 0x00, 0x00, 0x00, 0x00, 0x00,
  0x00, 0x00, 0x00, 0x00, 0x00, 0x00, 0x00, 0x00, 0x00, 0x00, 0x00, 0x00,
  0x00, 0x00, 0x00, 0x00, 0x00, 0x00, 0x00, 0x00, 0x00, 0x00, 0x00, 0x00,
  0x00, 0x00, 0x00, 0x00, 0x00, 0x00, 0x00, 0x00, 0x00, 0x00, 0x00, 0x00,
  0x00, 0x00, 0x00, 0x00, 0x00, 0x00, 0x00, 0x00, 0x00, 0x00, 0x00, 0x00,
  0x00, 0x00, 0x00, 0x00, 0x08, 0x00, 0x00, 0x00, 0x1e, 0xe5, 0x2f, 0x3a,
  0xdf, 0x0b, 0x09, 0x3a, 0x7f, 0xab, 0x25, 0x3a, 0xaf, 0x30, 0x4e, 0x39,
  0xc8, 0xeb, 0xdd, 0x39, 0x06, 0xb0, 0x5b, 0x3a, 0xcd, 0xfb, 0x04, 0x3a,
  0x23, 0xa5, 0x1c, 0x3a, 0x11, 0x00, 0x00, 0x00, 0x74, 0x66, 0x6c, 0x2e,
  0x70, 0x73, 0x65, 0x75, 0x64, 0x6f, 0x5f, 0x71, 0x63, 0x6f, 0x6e, 0x73,
  0x74, 0x00, 0x00, 0x00, 0x01, 0x00, 0x00, 0x00, 0x08, 0x00, 0x00, 0x00,
  0xc2, 0xff, 0xff, 0xff, 0x00, 0x00, 0x00, 0x01, 0x14, 0x00, 0x00, 0x00,
  0x14, 0x00, 0x00, 0x00, 0x03, 0x00, 0x00, 0x00, 0x00, 0x00, 0x00, 0x02,
  0x1c, 0x00, 0x00, 0x00, 0xac, 0xff, 0xff, 0xff, 0x0f, 0x00, 0x00, 0x00,
  0x61, 0x72, 0x69, 0x74, 0x68, 0x2e, 0x63, 0x6f, 0x6e, 0x73, 0x74, 0x61,
  0x6e, 0x74, 0x31, 0x00, 0x01, 0x00, 0x00, 0x00, 0x02, 0x00, 0x00, 0x00,
  0x00, 0x00, 0x16, 0x00, 0x1c, 0x00, 0x18, 0x00, 0x17, 0x00, 0x10, 0x00,
  0x0c, 0x00, 0x08, 0x00, 0x00, 0x00, 0x00, 0x00, 0x00, 0x00, 0x07, 0x00,
  0x16, 0x00, 0x00, 0x00, 0x00, 0x00, 0x00, 0x01, 0x18, 0x00, 0x00, 0x00,
  0x18, 0x00, 0x00, 0x00, 0x02, 0x00, 0x00, 0x00, 0x00, 0x00, 0x00, 0x02,
  0x20, 0x00, 0x00, 0x00, 0x04, 0x00, 0x04, 0x00, 0x04, 0x00, 0x00, 0x00,
  0x0e, 0x00, 0x00, 0x00, 0x61, 0x72, 0x69, 0x74, 0x68, 0x2e, 0x63, 0x6f,
  0x6e, 0x73, 0x74, 0x61, 0x6e, 0x74, 0x00, 0x00, 0x01, 0x00, 0x00, 0x00,
  0x02, 0x00, 0x00, 0x00, 0x00, 0x00, 0x16, 0x00, 0x20, 0x00, 0x1c, 0x00,
  0x1b, 0x00, 0x14, 0x00, 0x10, 0x00, 0x0c, 0x00, 0x00, 0x00, 0x00, 0x00,
  0x08, 0x00, 0x07, 0x00, 0x16, 0x00, 0x00, 0x00, 0x00, 0x00, 0x00, 0x01,
  0x18, 0x00, 0x00, 0x00, 0x34, 0x00, 0x00, 0x00, 0x54, 0x00, 0x00, 0x00,
  0x01, 0x00, 0x00, 0x00, 0x00, 0x00, 0x00, 0x09, 0x68, 0x00, 0x00, 0x00,
  0x04, 0x00, 0x00, 0x00, 0xff, 0xff, 0xff, 0xff, 0x18, 0x01, 0x00, 0x00,
  0x81, 0x00, 0x00, 0x00, 0x01, 0x00, 0x00, 0x00, 0x0c, 0x00, 0x0c, 0x00,
  0x00, 0x00, 0x00, 0x00, 0x08, 0x00, 0x04, 0x00, 0x0c, 0x00, 0x00, 0x00,
  0x08, 0x00, 0x00, 0x00, 0x14, 0x00, 0x00, 0x00, 0x01, 0x00, 0x00, 0x00,
  0x80, 0xff, 0xff, 0xff, 0xff, 0xff, 0xff, 0xff, 0x00, 0x00, 0x00, 0x00,
  0x01, 0x00, 0x00, 0x00, 0xd4, 0x2e, 0x09, 0x3e, 0x19, 0x00, 0x00, 0x00,
  0x73, 0x65, 0x72, 0x76, 0x69, 0x6e, 0x67, 0x5f, 0x64, 0x65, 0x66, 0x61,
  0x75, 0x6c, 0x74, 0x5f, 0x69, 0x6e, 0x70, 0x75, 0x74, 0x5f, 0x32, 0x3a,
  0x30, 0x00, 0x00, 0x00, 0x04, 0x00, 0x00, 0x00, 0x01, 0x00, 0x00, 0x00,
  0x18, 0x01, 0x00, 0x00, 0x81, 0x00, 0x00, 0x00, 0x01, 0x00, 0x00, 0x00,
  0x06, 0x00, 0x00, 0x00, 0x7c, 0x00, 0x00, 0x00, 0x5c, 0x00, 0x00, 0x00,
  0x48, 0x00, 0x00, 0x00, 0x38, 0x00, 0x00, 0x00, 0x18, 0x00, 0x00, 0x00,
  0x04, 0x00, 0x00, 0x00, 0xa8, 0xff, 0xff, 0xff, 0x19, 0x00, 0x00, 0x00,
  0x02, 0x00, 0x00, 0x00, 0x00, 0x00, 0x00, 0x19, 0xb8, 0xff, 0xff, 0xff,
  0x09, 0x00, 0x00, 0x00, 0x04, 0x00, 0x00, 0x00, 0x00, 0x00, 0x00, 0x09,
  0x0c, 0x00, 0x0c, 0x00, 0x0b, 0x00, 0x00, 0x00, 0x00, 0x00, 0x04, 0x00,
  0x0c, 0x00, 0x00, 0x00, 0x16, 0x00, 0x00, 0x00, 0x00, 0x00, 0x00, 0x16,
  0xe0, 0xff, 0xff, 0xff, 0x11, 0x00, 0x00, 0x00, 0x02, 0x00, 0x00, 0x00,
  0x00, 0x00, 0x00, 0x11, 0xf0, 0xff, 0xff, 0xff, 0x03, 0x00, 0x00, 0x00,
  0x03, 0x00, 0x00, 0x00, 0x00, 0x00, 0x00, 0x03, 0x0c, 0x00, 0x10, 0x00,
  0x0f, 0x00, 0x00, 0x00, 0x08, 0x00, 0x04, 0x00, 0x0c, 0x00, 0x00, 0x00,
  0x61, 0x00, 0x00, 0x00, 0x03, 0x00, 0x00, 0x00, 0x00, 0x00, 0x00, 0x61
  0x20, 0x00, 0x00, 0x00, 0x54, 0x46, 0x4c, 0x33, 0x00, 0x00, 0x00, 0x00,
  0x14, 0x00, 0x20, 0x00, 0x1c, 0x00, 0x18, 0x00, 0x14, 0x00, 0x10, 0x00,
  0x0c, 0x00, 0x00, 0x00, 0x08, 0x00, 0x04, 0x00, 0x14, 0x00, 0x00, 0x00,
  0x1c, 0x00, 0x00, 0x00, 0x84, 0x00, 0x00, 0x00, 0x04, 0x01, 0x00, 0x00,
  0xd4, 0x06, 0x00, 0x00, 0xe4, 0x06, 0x00, 0x00, 0x60, 0x10, 0x00, 0x00,
  0x03, 0x00, 0x00, 0x00, 0x01, 0x00, 0x00, 0x00, 0x04, 0x00, 0x00, 0x00,
  0x6a, 0xf8, 0xff, 0xff, 0x0c, 0x00, 0x00, 0x00, 0x1c, 0x00, 0x00, 0x00,
  0x3c, 0x00, 0x00, 0x00, 0x0f, 0x00, 0x00, 0x00, 0x73, 0x65, 0x72, 0x76,
  0x69, 0x6e, 0x67, 0x5f, 0x64, 0x65, 0x66, 0x61, 0x75, 0x6c, 0x74, 0x00,
  0x01, 0x00, 0x00, 0x00, 0x04, 0x00, 0x00, 0x00, 0x70, 0xff, 0xff, 0xff,
  0x0c, 0x00, 0x00, 0x00, 0x04, 0x00, 0x00, 0x00, 0x0b, 0x00, 0x00, 0x00,
  0x71, 0x75, 0x61, 0x6e, 0x74, 0x5f, 0x64, 0x65, 0x6e, 0x73, 0x65, 0x00,
  0x01, 0x00, 0x00, 0x00, 0x04, 0x00, 0x00, 0x00, 0x0e, 0xf9, 0xff, 0xff,
  0x04, 0x00, 0x00, 0x00, 0x07, 0x00, 0x00, 0x00, 0x69, 0x6e, 0x70, 0x75,
  0x74, 0x5f, 0x31, 0x00, 0x03, 0x00, 0x00, 0x00, 0x5c, 0x00, 0x00, 0x00,
  0x2c, 0x00, 0x00, 0x00, 0x04, 0x00, 0x00, 0x00, 0xb8, 0xff, 0xff, 0xff,
  0x10, 0x00, 0x00, 0x00, 0x04, 0x00, 0x00, 0x00, 0x13, 0x00, 0x00, 0x00,
  0x43, 0x4f, 0x4e, 0x56, 0x45, 0x52, 0x53, 0x49, 0x4f, 0x4e, 0x5f, 0x4d,
  0x45, 0x54, 0x41, 0x44, 0x41, 0x54, 0x41, 0x00, 0xdc, 0xff, 0xff, 0xff,
  0x0f, 0x00, 0x00, 0x00, 0x04, 0x00, 0x00, 0x00, 0x13, 0x00, 0x00, 0x00,
  0x6d, 0x69, 0x6e, 0x5f, 0x72, 0x75, 0x6e, 0x74, 0x69, 0x6d, 0x65, 0x5f,
  0x76, 0x65, 0x72, 0x73, 0x69, 0x6f, 0x6e, 0x00, 0x08, 0x00, 0x0c, 0x00,
  0x08, 0x00, 0x04, 0x00, 0x08, 0x00, 0x00, 0x00, 0x0e, 0x00, 0x00, 0x00,
  0x04, 0x00, 0x00, 0x00, 0x13, 0x00, 0x00, 0x00, 0x6d, 0x69, 0x6e, 0x5f,
  0x72, 0x75, 0x6e, 0x74, 0x69, 0x6d, 0x65, 0x5f, 0x76, 0x65, 0x72, 0x73,
  0x69, 0x6f, 0x6e, 0x00, 0x11, 0x00, 0x00, 0x00, 0xcc, 0x05, 0x00, 0x00,
  0xc4, 0x05, 0x00, 0x00, 0xac, 0x05, 0x00, 0x00, 0x94, 0x05, 0x00, 0x00,
  0x64, 0x05, 0x00, 0x00, 0x54, 0x03, 0x00, 0x00, 0x4c, 0x03, 0x00, 0x00,
  0x44, 0x03, 0x00, 0x00, 0x3c, 0x03, 0x00, 0x00, 0x34, 0x03, 0x00, 0x00,
  0xe4, 0x00, 0x00, 0x00, 0xcc, 0x00, 0x00, 0x00, 0xc4, 0x00, 0x00, 0x00,
  0xbc, 0x00, 0x00, 0x00, 0x9c, 0x00, 0x00, 0x00, 0x7c, 0x00, 0x00, 0x00,
  0x04, 0x00, 0x00, 0x00, 0xee, 0xf9, 0xff, 0xff, 0x04, 0x00, 0x00, 0x00,
  0x68, 0x00, 0x00, 0x00, 0x10, 0x00, 0x00, 0x00, 0x00, 0x00, 0x00, 0x00,
  0x08, 0x00, 0x0e, 0x00, 0x08, 0x00, 0x04, 0x00, 0x08, 0x00, 0x00, 0x00,
  0x10, 0x00, 0x00, 0x00, 0x2c, 0x00, 0x00, 0x00, 0x00, 0x00, 0x06, 0x00,
  0x08, 0x00, 0x04, 0x00, 0x06, 0x00, 0x00, 0x00, 0x04, 0x00, 0x00, 0x00,
  0x02, 0x00, 0x00, 0x00, 0xeb, 0x03, 0x00, 0x00, 0xd0, 0x07, 0x00, 0x00,
  0x0c, 0x00, 0x18, 0x00, 0x14, 0x00, 0x10, 0x00, 0x0c, 0x00, 0x04, 0x00,
  0x0c, 0x00, 0x00, 0x00, 0x81, 0x7b, 0x0a, 0x3d, 0xf7, 0xb0, 0x3c, 0x11,
  0x02, 0x00, 0x00, 0x00, 0x02, 0x00, 0x00, 0x00, 0x04, 0x00, 0x00, 0x00,
  0x06, 0x00, 0x00, 0x00, 0x32, 0x2e, 0x31, 0x37, 0x2e, 0x31, 0x00, 0x00,
  0x62, 0xfa, 0xff, 0xff, 0x04, 0x00, 0x00, 0x00, 0x10, 0x00, 0x00, 0x00,
  0x00, 0x00, 0x00, 0x00, 0x00, 0x00, 0x00, 0x00, 0x00, 0x00, 0x00, 0x00,
  0x00, 0x00, 0x00, 0x00, 0x7e, 0xfa, 0xff, 0xff, 0x04, 0x00, 0x00, 0x00,
  0x10, 0x00, 0x00, 0x00, 0x32, 0x2e, 0x33, 0x2e, 0x30, 0x00, 0x00, 0x00,
  0x00, 0x00, 0x00, 0x00, 0x00, 0x00, 0x00, 0x00, 0x60, 0xf2, 0xff, 0xff,
  0x64, 0xf2, 0xff, 0xff, 0xa2, 0xfa, 0xff, 0xff, 0x04, 0x00, 0x00, 0x00,
  0x08, 0x00, 0x00, 0x00, 0x34, 0xfe, 0xff, 0xff, 0xcc, 0x01, 0x00, 0x00,
  0xb6, 0xfa, 0xff, 0xff, 0x04, 0x00, 0x00, 0x00, 0x40, 0x02, 0x00, 0x00,
  0xf8, 0xcf, 0xd7, 0xf6, 0x1b, 0xdf, 0x25, 0xea, 0xe8, 0xbe, 0xe8, 0xcb,
  0xce, 0xc5, 0xf6, 0xd1, 0x19, 0x4a, 0x25, 0x24, 0xed, 0xdb, 0x47, 0xd5,
  0xe2, 0xfe, 0xe1, 0x0f, 0xfe, 0xec, 0x06, 0x13, 0xf5, 0x19, 0xe0, 0xe4,
  0x07, 0x12, 0x0c, 0x13, 0x24, 0x19, 0xd6, 0x2c, 0x0c, 0x05, 0xee, 0xf0,
  0xc3, 0xba, 0xf2, 0x1a, 0x19, 0xc6, 0x09, 0xf9, 0xfa, 0x9e, 0xf1, 0xcb,
  0xd4, 0xe8, 0xfc, 0xe2, 0x47, 0x34, 0x10, 0x23, 0xdf, 0xfe, 0x41, 0xba,
  0xf9, 0x33, 0x19, 0xe6, 0xd7, 0xf9, 0x1f, 0x10, 0xc6, 0x19, 0xdc, 0xdd,
  0x21, 0xf5, 0xde, 0x16, 0x03, 0x17, 0xdc, 0x21, 0x12, 0x19, 0xf9, 0x00,
  0x04, 0xf1, 0xe0, 0x47, 0x12, 0xde, 0x12, 0xfe, 0xec, 0xb1, 0x23, 0xd1,
  0xc8, 0xe8, 0xef, 0xd5, 0x25, 0x40, 0x20, 0x19, 0x29, 0xdc, 0x2d, 0xcc,
  0xf5, 0x2d, 0xf9, 0xdd, 0xf3, 0x3f, 0x0c, 0x19, 0xc8, 0x0d, 0xe1, 0xe2,
  0xf4, 0x08, 0xe3, 0x08, 0x09, 0x1e, 0xe9, 0xec, 0x0f, 0xf0, 0xf8, 0xed,
  0xe8, 0xc4, 0xd0, 0xfd, 0xfd, 0xeb, 0x30, 0xf0, 0xfd, 0x90, 0x20, 0xce,
  0xbf, 0xe1, 0xeb, 0x11, 0x45, 0x4b, 0x24, 0x0c, 0x10, 0xe0, 0x45, 0xd0,
  0x1f, 0x4c, 0xef, 0x26, 0xe0, 0xec, 0x05, 0xdc, 0xe6, 0xfe, 0xed, 0xe8,
  0x1c, 0xec, 0x0e, 0x1a, 0x11, 0xf8, 0x04, 0x4b, 0xde, 0xde, 0xe8, 0xe5,
  0xd7, 0xbc, 0xf8, 0xe0, 0x02, 0xca, 0x06, 0x02, 0xfe, 0x81, 0x10, 0xbd,
  0xcd, 0xd9, 0x0b, 0x15, 0x25, 0x3a, 0x25, 0xf7, 0xd6, 0xe9, 0x47, 0xd9,
  0x0b, 0x3b, 0x04, 0xf9, 0xea, 0x0f, 0xfe, 0x22, 0xe9, 0xf6, 0xd2, 0xdf,
  0xfc, 0xdc, 0xf5, 0x0a, 0xf4, 0x19, 0xda, 0x13, 0x0d, 0x09, 0xeb, 0xe9,
  0xd2, 0xd6, 0xf3, 0xd4, 0xea, 0xd9, 0x1f, 0xf5, 0xe6, 0x9e, 0x1a, 0xd0,
  0xcc, 0xe9, 0xef, 0x1d, 0x37, 0x48, 0x15, 0x35, 0xf7, 0x0a, 0x4d, 0xce,
  0x3c, 0x46, 0xf0, 0x53, 0xe3, 0xde, 0x21, 0x11, 0xce, 0x01, 0xd6, 0xf9,
  0xfb, 0xd2, 0x09, 0x14, 0xe9, 0x1d, 0xe1, 0x28, 0xdb, 0x03, 0x00, 0xcf,
  0x0b, 0x39, 0x25, 0xed, 0xdf, 0x27, 0xda, 0xe4, 0x2f, 0x5b, 0x08, 0x17,
  0x05, 0x16, 0x10, 0x2d, 0xbf, 0xb4, 0xcd, 0x0b, 0x1e, 0x0b, 0xc4, 0x15,
  0xf3, 0xd1, 0x29, 0x15, 0x24, 0xf1, 0x09, 0x0d, 0x39, 0xf9, 0x2c, 0x04,
  0xef, 0xe9, 0xfc, 0xe3, 0x08, 0xd5, 0xfb, 0xc1, 0xdb, 0xe8, 0xf1, 0x2b,
  0x1b, 0x43, 0x32, 0xd3, 0x03, 0x38, 0xc7, 0xef, 0x2a, 0x78, 0x13, 0x37,
  0x42, 0x2c, 0x1a, 0x37, 0xc4, 0xb7, 0xe2, 0xef, 0x10, 0x05, 0xc8, 0x6b,
  0x07, 0xe5, 0x06, 0x0c, 0x14, 0x1a, 0xfd, 0x0e, 0x38, 0xec, 0x19, 0x10,
  0x0a, 0x0f, 0x01, 0xe9, 0x2f, 0x0f, 0x23, 0xe9, 0xff, 0x03, 0x23, 0x04,
  0x17, 0x2b, 0x32, 0xbb, 0x0e, 0x39, 0xdd, 0x18, 0x20, 0x63, 0xf4, 0x24,
  0x38, 0x21, 0xf3, 0x1c, 0xca, 0xc0, 0xdb, 0xe8, 0xde, 0x20, 0xcb, 0x5d,
  0x0e, 0xcb, 0x03, 0x2b, 0xed, 0xed, 0xe5, 0xf9, 0x2d, 0xd8, 0x11, 0xf7,
  0xf9, 0x02, 0xf6, 0xe2, 0x1b, 0xf4, 0x05, 0x1b, 0xf3, 0xfa, 0x1b, 0x09,
  0x1f, 0x41, 0x17, 0xfa, 0x00, 0x0a, 0xce, 0x1d, 0xdb, 0x4d, 0xe3, 0x28,
  0x47, 0x2f, 0x09, 0xe7, 0xd1, 0xb2, 0xed, 0xd6, 0xce, 0x26, 0xd2, 0x3f,
  0xf3, 0xd9, 0x01, 0xfd, 0x1d, 0xf4, 0x03, 0x12, 0xff, 0x04, 0x37, 0x13,
  0xca, 0x08, 0xfc, 0x04, 0x1a, 0xea, 0x0e, 0xc3, 0x0e, 0x0d, 0xfa, 0x2b,
  0x14, 0x4b, 0x20, 0x26, 0xff, 0x22, 0xc5, 0x0f, 0xf3, 0x5f, 0x09, 0x44,
  0x39, 0x35, 0xee, 0xe4, 0xb6, 0xc3, 0xf9, 0x0d, 0x14, 0xe4, 0xd8, 0x24,
  0xdd, 0xcc, 0x04, 0xe8, 0x11, 0x01, 0x11, 0xe0, 0xfd, 0xeb, 0x00, 0x09,
  0xeb, 0x07, 0x19, 0xfb, 0x15, 0xe6, 0x12, 0xd5, 0x16, 0x03, 0xeb, 0x29,
  0x28, 0x3f, 0x03, 0xf9, 0x17, 0x24, 0xed, 0x25, 0xf7, 0x74, 0xfb, 0x26,
  0x43, 0x25, 0x1a, 0xe7, 0xda, 0xd6, 0xd0, 0xe5, 0x16, 0x03, 0xaf, 0x55,
  0xee, 0xb7, 0x0c, 0xcf, 0x11, 0x24, 0xe9, 0xda, 0x27, 0xee, 0x06, 0xe7,
  0xfd, 0x2d, 0xec, 0xe6, 0xea, 0xe8, 0x20, 0xd2, 0xff, 0xd6, 0x00, 0x33,
  0xc8, 0xf4, 0xff, 0xff, 0xcc, 0xf4, 0xff, 0xff, 0xd0, 0xf4, 0xff, 0xff,
  0xd4, 0xf4, 0xff, 0xff, 0x12, 0xfd, 0xff, 0xff, 0x04, 0x00, 0x00, 0x00,
  0x00, 0x02, 0x00, 0x00, 0x26, 0x20, 0x0d, 0x3d, 0xc8, 0xfa, 0xff, 0xa5,
  0x26, 0xf8, 0x06, 0x5d, 0x06, 0xbe, 0xea, 0xc8, 0x11, 0xf6, 0x2a, 0xfa,
  0xd2, 0xd1, 0xe9, 0x81, 0x33, 0x06, 0xf5, 0x42, 0xd1, 0xdf, 0x08, 0xc1,
  0x20, 0xf6, 0x1e, 0x54, 0xd6, 0xf4, 0xdb, 0xad, 0x14, 0x2b, 0x0a, 0x3b,
  0x03, 0xfe, 0xec, 0xd6, 0x5c, 0x14, 0x2e, 0x25, 0xef, 0x10, 0x28, 0xe9,
  0x06, 0x29, 0x22, 0x1b, 0xfc, 0xdb, 0xee, 0xcc, 0x3f, 0xf0, 0xf8, 0x0d,
  0xda, 0xb3, 0xd9, 0xa2, 0x39, 0xdf, 0xf5, 0x19, 0xde, 0x90, 0xd0, 0x99,
  0x4c, 0xeb, 0x05, 0xed, 0xd8, 0x9f, 0xca, 0xa0, 0x40, 0x07, 0xec, 0x0b,
  0xc1, 0xc8, 0xcb, 0xb1, 0x44, 0x0c, 0xe7, 0x04, 0xcd, 0xac, 0xfa, 0x97,
  0x41, 0x01, 0x06, 0xf1, 0xe2, 0xd5, 0xbf, 0xa7, 0x4f, 0x08, 0xf2, 0x0b,
  0xbd, 0x93, 0xe0, 0x81, 0x29, 0x23, 0x19, 0xfc, 0xe2, 0xa7, 0xf7, 0xb3,
  0x5e, 0xd8, 0x45, 0x70, 0xe6, 0x08, 0xe9, 0xc0, 0xfe, 0xd3, 0x53, 0x78,
  0xc7, 0xba, 0xfc, 0xc5, 0x35, 0xe2, 0xf6, 0x39, 0xe0, 0x0d, 0xf4, 0x06,
  0xde, 0xf9, 0x15, 0x7f, 0xf8, 0x0e, 0xf4, 0x0f, 0x22, 0xd9, 0x1a, 0xf7,
  0x04, 0xce, 0xcf, 0xc9, 0x2d, 0xfd, 0xfb, 0x42, 0x14, 0xcc, 0xf3, 0x01,
  0x13, 0x22, 0xfe, 0x74, 0x39, 0xc7, 0x1d, 0xa6, 0x30, 0x07, 0xc6, 0x41,
  0x39, 0x0b, 0x04, 0xef, 0x2c, 0xd7, 0x0a, 0xfa, 0xd3, 0xcd, 0xe0, 0xf1,
  0x35, 0x05, 0x03, 0x5c, 0x25, 0xa4, 0x58, 0x67, 0xc7, 0xd2, 0xf7, 0xd1,
  0xc7, 0xb9, 0xea, 0x28, 0x52, 0xe3, 0x45, 0xfe, 0xa8, 0xdd, 0x25, 0xed,
  0xe2, 0xd0, 0xfa, 0xf5, 0xc4, 0xbf, 0xf0, 0xdb, 0x7f, 0x19, 0x2b, 0xe1,
  0xcf, 0xe2, 0x20, 0x2d, 0x4d, 0x35, 0x43, 0xb6, 0xe3, 0xd5, 0xf6, 0x04,
  0x71, 0x3c, 0xf7, 0xc7, 0xbd, 0xbc, 0xe4, 0xfd, 0x2b, 0x74, 0xd6, 0x12,
  0x14, 0x05, 0x2f, 0xe7, 0x42, 0xeb, 0x01, 0xeb, 0xca, 0xfe, 0xf9, 0xad,
  0x19, 0xf1, 0xe4, 0xff, 0xe3, 0xfd, 0x28, 0x74, 0x34, 0x16, 0xbd, 0x28,
  0xf1, 0x20, 0xf5, 0xc9, 0xd7, 0x07, 0xd7, 0x06, 0xf2, 0x12, 0xec, 0x59,
  0x19, 0x1e, 0xc5, 0xf8, 0x4f, 0xf1, 0xf3, 0xdc, 0x1e, 0x35, 0x29, 0x1c,
  0xd2, 0x20, 0xf8, 0x7f, 0xf7, 0x3c, 0x21, 0x09, 0x35, 0xd2, 0xcb, 0x0c,
  0x18, 0xff, 0x09, 0xfc, 0xca, 0xa9, 0x28, 0xdd, 0x48, 0xfb, 0x32, 0xd0,
  0xb4, 0xab, 0xdd, 0x1b, 0x45, 0xd0, 0x7b, 0x49, 0x4e, 0xf9, 0x5a, 0xfb,
  0x34, 0x0e, 0xfd, 0x31, 0x29, 0xf8, 0x0a, 0x7b, 0x67, 0xd0, 0xfd, 0x09,
  0xd4, 0x99, 0xd2, 0x4a, 0x27, 0xf6, 0x01, 0xbd, 0xef, 0xe1, 0xc2, 0xe8,
  0x2b, 0xd7, 0xde, 0x74, 0xd8, 0xcb, 0xcc, 0xff, 0x42, 0xc6, 0x58, 0xd5,
  0x00, 0x81, 0x5a, 0xfa, 0x3a, 0x54, 0xf3, 0xe8, 0xe4, 0xc0, 0x95, 0x46,
  0x43, 0x20, 0x35, 0x3f, 0x13, 0xd6, 0x88, 0x27, 0x0a, 0x3b, 0x34, 0x2e,
  0xef, 0xd4, 0x87, 0x05, 0x0f, 0x69, 0x0f, 0x55, 0xf5, 0xb9, 0x91, 0xef,
  0x04, 0x35, 0x21, 0x42, 0xfb, 0xbd, 0x90, 0xeb, 0xee, 0x4f, 0xef, 0x3b,
  0x06, 0xa6, 0xaa, 0x04, 0x05, 0x31, 0x17, 0x24, 0x1b, 0xc6, 0x9f, 0xf4,
  0xe6, 0x63, 0x0f, 0x4c, 0x12, 0xbd, 0x81, 0xe9, 0xb8, 0xc0, 0xce, 0xc8,
  0xeb, 0xf0, 0x19, 0xf2, 0xd9, 0xf9, 0xd9, 0x39, 0xee, 0xee, 0x2d, 0x13,
  0x17, 0x3c, 0x28, 0xc1, 0x11, 0x29, 0x11, 0xf4, 0xac, 0x03, 0xbe, 0x0f,
  0xef, 0xe5, 0x20, 0xee, 0xa0, 0x3c, 0xc9, 0x61, 0xfb, 0x3f, 0x43, 0xf7,
  0xc3, 0xd3, 0xba, 0xe1, 0xdb, 0x02, 0x4a, 0x17, 0xd8, 0xb9, 0xe4, 0x99,
  0xf4, 0x21, 0x56, 0xf8, 0x9f, 0xd2, 0x81, 0xe2, 0xef, 0x36, 0xfd, 0xce,
  0x1e, 0xff, 0xff, 0xff, 0x04, 0x00, 0x00, 0x00, 0x20, 0x00, 0x00, 0x00,
  0x45, 0x00, 0x00, 0x00, 0x69, 0x01, 0x00, 0x00, 0xcb, 0x00, 0x00, 0x00,
  0xa5, 0x00, 0x00, 0x00, 0x28, 0xff, 0xff, 0xff, 0x92, 0xfd, 0xff, 0xff,
  0x1d, 0x00, 0x00, 0x00, 0x5a, 0x01, 0x00, 0x00, 0x4a, 0xff, 0xff, 0xff,
  0x04, 0x00, 0x00, 0x00, 0x08, 0x00, 0x00, 0x00, 0xff, 0xff, 0xff, 0xff,
  0x20, 0x01, 0x00, 0x00, 0x5e, 0xff, 0xff, 0xff, 0x04, 0x00, 0x00, 0x00,
  0x08, 0x00, 0x00, 0x00, 0x20, 0x00, 0x00, 0x00, 0x20, 0x00, 0x00, 0x00,
  0x38, 0xf7, 0xff, 0xff, 0x3c, 0xf7, 0xff, 0xff, 0x0f, 0x00, 0x00, 0x00,
  0x4d, 0x4c, 0x49, 0x52, 0x20, 0x43, 0x6f, 0x6e, 0x76, 0x65, 0x72, 0x74,
  0x65, 0x64, 0x2e, 0x00, 0x01, 0x00, 0x00, 0x00, 0x14, 0x00, 0x00, 0x00,
  0x00, 0x00, 0x0e, 0x00, 0x18, 0x00, 0x14, 0x00, 0x10, 0x00, 0x0c, 0x00,
  0x08, 0x00, 0x04, 0x00, 0x0e, 0x00, 0x00, 0x00, 0x14, 0x00, 0x00, 0x00,
  0x1c, 0x00, 0x00, 0x00, 0xc8, 0x01, 0x00, 0x00, 0xcc, 0x01, 0x00, 0x00,
  0xd0, 0x01, 0x00, 0x00, 0x04, 0x00, 0x00, 0x00, 0x6d, 0x61, 0x69, 0x6e,
  0x00, 0x00, 0x00, 0x00, 0x06, 0x00, 0x00, 0x00, 0x74, 0x01, 0x00, 0x00,
  0x10, 0x01, 0x00, 0x00, 0xac, 0x00, 0x00, 0x00, 0x84, 0x00, 0x00, 0x00,
  0x40, 0x00, 0x00, 0x00, 0x04, 0x00, 0x00, 0x00, 0x12, 0xff, 0xff, 0xff,
  0x1c, 0x00, 0x00, 0x00, 0x00, 0x00, 0x00, 0x09, 0x1c, 0x00, 0x00, 0x00,
  0x20, 0x00, 0x00, 0x00, 0x05, 0x00, 0x00, 0x00, 0x00, 0x00, 0x06, 0x00,
  0x08, 0x00, 0x04, 0x00, 0x06, 0x00, 0x00, 0x00, 0x00, 0x00, 0x80, 0x3f,
  0x01, 0x00, 0x00, 0x00, 0x0c, 0x00, 0x00, 0x00, 0x01, 0x00, 0x00, 0x00,
  0x0b, 0x00, 0x00, 0x00, 0x4a, 0xff, 0xff, 0xff, 0x14, 0x00, 0x00, 0x00,
  0x00, 0x00, 0x00, 0x08, 0x10, 0x00, 0x00, 0x00, 0x14, 0x00, 0x00, 0x00,
  0x04, 0x00, 0x00, 0x00, 0xfc, 0xf7, 0xff, 0xff, 0x01, 0x00, 0x00, 0x00,
  0x0b, 0x00, 0x00, 0x00, 0x03, 0x00, 0x00, 0x00, 0x08, 0x00, 0x00, 0x00,
  0x09, 0x00, 0x00, 0x00, 0x0a, 0x00, 0x00, 0x00, 0x00, 0x00, 0x0a, 0x00,
  0x10, 0x00, 0x0c, 0x00, 0x08, 0x00, 0x04, 0x00, 0x0a, 0x00, 0x00, 0x00,
  0x0c, 0x00, 0x00, 0x00, 0x10, 0x00, 0x00, 0x00, 0x03, 0x00, 0x00, 0x00,
  0x01, 0x00, 0x00, 0x00, 0x08, 0x00, 0x00, 0x00, 0x02, 0x00, 0x00, 0x00,
  0x07, 0x00, 0x00, 0x00, 0x02, 0x00, 0x00, 0x00, 0xae, 0xff, 0xff, 0xff,
  0x24, 0x00, 0x00, 0x00, 0x00, 0x00, 0x00, 0x05, 0x34, 0x00, 0x00, 0x00,
  0x38, 0x00, 0x00, 0x00, 0x02, 0x00, 0x00, 0x00, 0x00, 0x00, 0x0e, 0x00,
  0x18, 0x00, 0x17, 0x00, 0x10, 0x00, 0x0c, 0x00, 0x08, 0x00, 0x04, 0x00,
  0x0e, 0x00, 0x00, 0x00, 0x02, 0x00, 0x00, 0x00, 0x02, 0x00, 0x00, 0x00,
  0x02, 0x00, 0x00, 0x00, 0x02, 0x00, 0x00, 0x00, 0x00, 0x00, 0x00, 0x01,
  0x01, 0x00, 0x00, 0x00, 0x07, 0x00, 0x00, 0x00, 0x01, 0x00, 0x00, 0x00,
  0x06, 0x00, 0x00, 0x00, 0x00, 0x00, 0x0e, 0x00, 0x18, 0x00, 0x14, 0x00,
  0x10, 0x00, 0x0c, 0x00, 0x0b, 0x00, 0x04, 0x00, 0x0e, 0x00, 0x00, 0x00,
  0x20, 0x00, 0x00, 0x00, 0x00, 0x00, 0x00, 0x01, 0x2c, 0x00, 0x00, 0x00,
  0x30, 0x00, 0x00, 0x00, 0x01, 0x00, 0x00, 0x00, 0x0c, 0x00, 0x14, 0x00,
  0x13, 0x00, 0x0c, 0x00, 0x08, 0x00, 0x07, 0x00, 0x0c, 0x00, 0x00, 0x00,
  0x00, 0x00, 0x00, 0x01, 0x02, 0x00, 0x00, 0x00, 0x02, 0x00, 0x00, 0x00,
  0x00, 0x00, 0x00, 0x01, 0x01, 0x00, 0x00, 0x00, 0x06, 0x00, 0x00, 0x00,
  0x03, 0x00, 0x00, 0x00, 0x05, 0x00, 0x00, 0x00, 0x04, 0x00, 0x00, 0x00,
  0x03, 0x00, 0x00, 0x00, 0x00, 0x00, 0x0e, 0x00, 0x14, 0x00, 0x00, 0x00,
  0x10, 0x00, 0x0c, 0x00, 0x0b, 0x00, 0x04, 0x00, 0x0e, 0x00, 0x00, 0x00,
  0x18, 0x00, 0x00, 0x00, 0x00, 0x00, 0x00, 0x4a, 0x18, 0x00, 0x00, 0x00,
  0x1c, 0x00, 0x00, 0x00, 0x08, 0x00, 0x08, 0x00, 0x00, 0x00, 0x07, 0x00,
  0x08, 0x00, 0x00, 0x00, 0x00, 0x00, 0x00, 0x01, 0x01, 0x00, 0x00, 0x00,
  0x05, 0x00, 0x00, 0x00, 0x02, 0x00, 0x00, 0x00, 0x00, 0x00, 0x00, 0x00,
  0x01, 0x00, 0x00, 0x00, 0x01, 0x00, 0x00, 0x00, 0x0c, 0x00, 0x00, 0x00,
  0x01, 0x00, 0x00, 0x00, 0x00, 0x00, 0x00, 0x00, 0x0d, 0x00, 0x00, 0x00,
  0xe8, 0x06, 0x00, 0x00, 0x8c, 0x06, 0x00, 0x00, 0x34, 0x06, 0x00, 0x00,
  0x80, 0x05, 0x00, 0x00, 0xbc, 0x04, 0x00, 0x00, 0x18, 0x04, 0x00, 0x00,
  0x44, 0x03, 0x00, 0x00, 0xb0, 0x02, 0x00, 0x00, 0x34, 0x02, 0x00, 0x00,
  0x88, 0x01, 0x00, 0x00, 0x24, 0x01, 0x00, 0x00, 0x80, 0x00, 0x00, 0x00,
  0x04, 0x00, 0x00, 0x00, 0x62, 0xf9, 0xff, 0xff, 0x00, 0x00, 0x00, 0x01,
  0x18, 0x00, 0x00, 0x00, 0x20, 0x00, 0x00, 0x00, 0x3c, 0x00, 0x00, 0x00,
  0x0d, 0x00, 0x00, 0x00, 0x00, 0x00, 0x00, 0x09, 0x50, 0x00, 0x00, 0x00,
  0x02, 0x00, 0x00, 0x00, 0xff, 0xff, 0xff, 0xff, 0x02, 0x00, 0x00, 0x00,
  0x44, 0xf9, 0xff, 0xff, 0x08, 0x00, 0x00, 0x00, 0x10, 0x00, 0x00, 0x00,
  0x01, 0x00, 0x00, 0x00, 0x80, 0xff, 0xff, 0xff, 0xff, 0xff, 0xff, 0xff,
  0x01, 0x00, 0x00, 0x00, 0x00, 0x00, 0x80, 0x3b, 0x19, 0x00, 0x00, 0x00,
  0x53, 0x74, 0x61, 0x74, 0x65, 0x66, 0x75, 0x6c, 0x50, 0x61, 0x72, 0x74,
  0x69, 0x74, 0x69, 0x6f, 0x6e, 0x65, 0x64, 0x43, 0x61, 0x6c, 0x6c, 0x3a,
  0x30, 0x00, 0x00, 0x00, 0x02, 0x00, 0x00, 0x00, 0x01, 0x00, 0x00, 0x00,
  0x02, 0x00, 0x00, 0x00, 0xda, 0xf9, 0xff, 0xff, 0x00, 0x00, 0x00, 0x01,
  0x18, 0x00, 0x00, 0x00, 0x20, 0x00, 0x00, 0x00, 0x40, 0x00, 0x00, 0x00,
  0x0c, 0x00, 0x00, 0x00, 0x00, 0x00, 0x00, 0x09, 0x78, 0x00, 0x00, 0x00,
  0x02, 0x00, 0x00, 0x00, 0xff, 0xff, 0xff, 0xff, 0x02, 0x00, 0x00, 0x00,
  0xbc, 0xf9, 0xff, 0xff, 0x08, 0x00, 0x00, 0x00, 0x14, 0x00, 0x00, 0x00,
  0x01, 0x00, 0x00, 0x00, 0x02, 0x00, 0x00, 0x00, 0x00, 0x00, 0x00, 0x00,
  0x00, 0x00, 0x00, 0x00, 0x01, 0x00, 0x00, 0x00, 0x9b, 0xb0, 0x9f, 0x3d,
  0x3c, 0x00, 0x00, 0x00, 0x73, 0x65, 0x71, 0x75, 0x65, 0x6e, 0x74, 0x69,
  0x61, 0x6c, 0x2f, 0x71, 0x75, 0x61, 0x6e, 0x74, 0x5f, 0x64, 0x65, 0x6e,
  0x73, 0x65, 0x2f, 0x4d, 0x61, 0x74, 0x4d, 0x75, 0x6c, 0x3b, 0x73, 0x65,
  0x71, 0x75, 0x65, 0x6e, 0x74, 0x69, 0x61, 0x6c, 0x2f, 0x71, 0x75, 0x61,
  0x6e, 0x74, 0x5f, 0x64, 0x65, 0x6e, 0x73, 0x65, 0x2f, 0x42, 0x69, 0x61,
  0x73, 0x41, 0x64, 0x64, 0x00, 0x00, 0x00, 0x00, 0x02, 0x00, 0x00, 0x00,
  0x01, 0x00, 0x00, 0x00, 0x02, 0x00, 0x00, 0x00, 0xd2, 0xfa, 0xff, 0xff,
  0x00, 0x00, 0x00, 0x01, 0x14, 0x00, 0x00, 0x00, 0x34, 0x00, 0x00, 0x00,
  0x0b, 0x00, 0x00, 0x00, 0x00, 0x00, 0x00, 0x02, 0x40, 0x00, 0x00, 0x00,
  0x4c, 0xfa, 0xff, 0xff, 0x08, 0x00, 0x00, 0x00, 0x14, 0x00, 0x00, 0x00,
  0x01, 0x00, 0x00, 0x00, 0x00, 0x00, 0x00, 0x00, 0x00, 0x00, 0x00, 0x00,
  0x00, 0x00, 0x00, 0x00, 0x01, 0x00, 0x00, 0x00, 0x73, 0x9f, 0x92, 0x39,
  0x12, 0x00, 0x00, 0x00, 0x74, 0x66, 0x6c, 0x2e, 0x70, 0x73, 0x65, 0x75,
  0x64, 0x6f, 0x5f, 0x71, 0x63, 0x6f, 0x6e, 0x73, 0x74, 0x32, 0x00, 0x00,
  0x01, 0x00, 0x00, 0x00, 0x02, 0x00, 0x00, 0x00, 0x32, 0xfb, 0xff, 0xff,
  0x00, 0x00, 0x00, 0x01, 0x14, 0x00, 0x00, 0x00, 0x30, 0x00, 0x00, 0x00,
  0x0a, 0x00, 0x00, 0x00, 0x00, 0x00, 0x00, 0x09, 0x84, 0x00, 0x00, 0x00,
  0xac, 0xfa, 0xff, 0xff, 0x08, 0x00, 0x00, 0x00, 0x10, 0x00, 0x00, 0x00,
  0x01, 0x00, 0x00, 0x00, 0x00, 0x00, 0x00, 0x00, 0x00, 0x00, 0x00, 0x00,
  0x01, 0x00, 0x00, 0x00, 0xb9, 0x94, 0xa6, 0x3b, 0x5b, 0x00, 0x00, 0x00,
  0x73, 0x65, 0x71, 0x75, 0x65, 0x6e, 0x74, 0x69, 0x61, 0x6c, 0x2f, 0x71,
  0x75, 0x61, 0x6e, 0x74, 0x5f, 0x64, 0x65, 0x6e, 0x73, 0x65, 0x2f, 0x4d,
  0x61, 0x74, 0x4d, 0x75, 0x6c, 0x3b, 0x73, 0x65, 0x71, 0x75, 0x65, 0x6e,
  0x74, 0x69, 0x61, 0x6c, 0x2f, 0x71, 0x75, 0x61, 0x6e, 0x74, 0x5f, 0x64,
  0x65, 0x6e, 0x73, 0x65, 0x2f, 0x4c, 0x61, 0x73, 0x74, 0x56, 0x61, 0x6c,
  0x75, 0x65, 0x51, 0x75, 0x61, 0x6e, 0x74, 0x2f, 0x46, 0x61, 0x6b, 0x65,
  0x51, 0x75, 0x61, 0x6e, 0x74, 0x57, 0x69, 0x74, 0x68, 0x4d, 0x69, 0x6e,
  0x4d, 0x61, 0x78, 0x56, 0x61, 0x72, 0x73, 0x00, 0x02, 0x00, 0x00, 0x00,
  0x02, 0x00, 0x00, 0x00, 0x20, 0x01, 0x00, 0x00, 0x82, 0xfb, 0xff, 0xff,
  0x00, 0x00, 0x00, 0x01, 0x18, 0x00, 0x00, 0x00, 0x20, 0x00, 0x00, 0x00,
  0x3c, 0x00, 0x00, 0x00, 0x09, 0x00, 0x00, 0x00, 0x00, 0x00, 0x00, 0x09,
  0x50, 0x00, 0x00, 0x00, 0x02, 0x00, 0x00, 0x00, 0xff, 0xff, 0xff, 0xff,
  0x20, 0x01, 0x00, 0x00, 0x64, 0xfb, 0xff, 0xff, 0x08, 0x00, 0x00, 0x00,
  0x10, 0x00, 0x00, 0x00, 0x01, 0x00, 0x00, 0x00, 0xb1, 0xff, 0xff, 0xff,
  0xff, 0xff, 0xff, 0xff, 0x01, 0x00, 0x00, 0x00, 0x1d, 0x54, 0x61, 0x3d,
  0x1a, 0x00, 0x00, 0x00, 0x73, 0x65, 0x71, 0x75, 0x65, 0x6e, 0x74, 0x69,
  0x61, 0x6c, 0x2f, 0x66, 0x6c, 0x61, 0x74, 0x74, 0x65, 0x6e, 0x2f, 0x52,
  0x65, 0x73, 0x68, 0x61, 0x70, 0x65, 0x00, 0x00, 0x02, 0x00, 0x00, 0x00,
  0x01, 0x00, 0x00, 0x00, 0x20, 0x01, 0x00, 0x00, 0xfa, 0xfb, 0xff, 0xff,
  0x00, 0x00, 0x00, 0x01, 0x18, 0x00, 0x00, 0x00, 0x28, 0x00, 0x00, 0x00,
  0x44, 0x00, 0x00, 0x00, 0x08, 0x00, 0x00, 0x00, 0x00, 0x00, 0x00, 0x09,
  0x60, 0x00, 0x00, 0x00, 0x04, 0x00, 0x00, 0x00, 0xff, 0xff, 0xff, 0xff,
  0x06, 0x00, 0x00, 0x00, 0x06, 0x00, 0x00, 0x00, 0x08, 0x00, 0x00, 0x00,
  0xe4, 0xfb, 0xff, 0xff, 0x08, 0x00, 0x00, 0x00, 0x10, 0x00, 0x00, 0x00,
  0x01, 0x00, 0x00, 0x00, 0xb1, 0xff, 0xff, 0xff, 0xff, 0xff, 0xff, 0xff,
  0x01, 0x00, 0x00, 0x00, 0x1d, 0x54, 0x61, 0x3d, 0x20, 0x00, 0x00, 0x00,
  0x73, 0x65, 0x71, 0x75, 0x65, 0x6e, 0x74, 0x69, 0x61, 0x6c, 0x2f, 0x6d,
  0x61, 0x78, 0x5f, 0x70, 0x6f, 0x6f, 0x6c, 0x69, 0x6e, 0x67, 0x32, 0x64,
  0x2f, 0x4d, 0x61, 0x78, 0x50, 0x6f, 0x6f, 0x6c, 0x00, 0x00, 0x00, 0x00,
  0x04, 0x00, 0x00, 0x00, 0x01, 0x00, 0x00, 0x00, 0x06, 0x00, 0x00, 0x00,
  0x06, 0x00, 0x00, 0x00, 0x08, 0x00, 0x00, 0x00, 0x8a, 0xfc, 0xff, 0xff,
  0x00, 0x00, 0x00, 0x01, 0x18, 0x00, 0x00, 0x00, 0x28, 0x00, 0x00, 0x00,
  0x48, 0x00, 0x00, 0x00, 0x07, 0x00, 0x00, 0x00, 0x00, 0x00, 0x00, 0x09,
  0xa0, 0x00, 0x00, 0x00, 0x04, 0x00, 0x00, 0x00, 0xff, 0xff, 0xff, 0xff,
  0x0d, 0x00, 0x00, 0x00, 0x0d, 0x00, 0x00, 0x00, 0x08, 0x00, 0x00, 0x00,
  0x74, 0xfc, 0xff, 0xff, 0x08, 0x00, 0x00, 0x00, 0x14, 0x00, 0x00, 0x00,
  0x01, 0x00, 0x00, 0x00, 0xb1, 0xff, 0xff, 0xff, 0xff, 0xff, 0xff, 0xff,
  0x00, 0x00, 0x00, 0x00, 0x01, 0x00, 0x00, 0x00, 0x1d, 0x54, 0x61, 0x3d,
  0x5c, 0x00, 0x00, 0x00, 0x73, 0x65, 0x71, 0x75, 0x65, 0x6e, 0x74, 0x69,
  0x61, 0x6c, 0x2f, 0x71, 0x75, 0x61, 0x6e, 0x74, 0x5f, 0x63, 0x6f, 0x6e,
  0x76, 0x32, 0x64, 0x2f, 0x52, 0x65, 0x6c, 0x75, 0x3b, 0x73, 0x65, 0x71,
  0x75, 0x65, 0x6e, 0x74, 0x69, 0x61, 0x6c, 0x2f, 0x71, 0x75, 0x61, 0x6e,
  0x74, 0x5f, 0x63, 0x6f, 0x6e, 0x76, 0x32, 0x64, 0x2f, 0x42, 0x69, 0x61,
  0x73, 0x41, 0x64, 0x64, 0x3b, 0x73, 0x65, 0x71, 0x75, 0x65, 0x6e, 0x74,
  0x69, 0x61, 0x6c, 0x2f, 0x71, 0x75, 0x61, 0x6e, 0x74, 0x5f, 0x63, 0x6f,
  0x6e, 0x76, 0x32, 0x64, 0x2f, 0x43, 0x6f, 0x6e, 0x76, 0x32, 0x44, 0x3b,
  0x00, 0x00, 0x00, 0x00, 0x04, 0x00, 0x00, 0x00, 0x01, 0x00, 0x00, 0x00,
  0x0d, 0x00, 0x00, 0x00, 0x0d, 0x00, 0x00, 0x00, 0x08, 0x00, 0x00, 0x00,
  0x5a, 0xfd, 0xff, 0xff, 0x00, 0x00, 0x00, 0x01, 0x18, 0x00, 0x00, 0x00,
  0x28, 0x00, 0x00, 0x00, 0x44, 0x00, 0x00, 0x00, 0x06, 0x00, 0x00, 0x00,
  0x00, 0x00, 0x00, 0x09, 0x70, 0x00, 0x00, 0x00, 0x04, 0x00, 0x00, 0x00,
  0xff, 0xff, 0xff, 0xff, 0x20, 0x00, 0x00, 0x00, 0x20, 0x00, 0x00, 0x00,
  0x01, 0x00, 0x00, 0x00, 0x44, 0xfd, 0xff, 0xff, 0x08, 0x00, 0x00, 0x00,
  0x10, 0x00, 0x00, 0x00, 0x01, 0x00, 0x00, 0x00, 0x80, 0xff, 0xff, 0xff,
  0xff, 0xff, 0xff, 0xff, 0x01, 0x00, 0x00, 0x00, 0xd2, 0x30, 0x2f, 0x3e,
  0x30, 0x00, 0x00, 0x00, 0x73, 0x65, 0x71, 0x75, 0x65, 0x6e, 0x74, 0x69,
  0x61, 0x6c, 0x2f, 0x72, 0x65, 0x73, 0x69, 0x7a, 0x69, 0x6e, 0x67, 0x2f,
  0x72, 0x65, 0x73, 0x69, 0x7a, 0x65, 0x2f, 0x52, 0x65, 0x73, 0x69, 0x7a,
  0x65, 0x4e, 0x65, 0x61, 0x72, 0x65, 0x73, 0x74, 0x4e, 0x65, 0x69, 0x67,
  0x68, 0x62, 0x6f, 0x72, 0x00, 0x00, 0x00, 0x00, 0x04, 0x00, 0x00, 0x00,
  0x01, 0x00, 0x00, 0x00, 0x20, 0x00, 0x00, 0x00, 0x20, 0x00, 0x00, 0x00,
  0x01, 0x00, 0x00, 0x00, 0x52, 0xfe, 0xff, 0xff, 0x00, 0x00, 0x00, 0x01,
  0x14, 0x00, 0x00, 0x00, 0x88, 0x00, 0x00, 0x00, 0x05, 0x00, 0x00, 0x00,
  0x00, 0x00, 0x00, 0x09, 0x94, 0x00, 0x00, 0x00, 0xcc, 0xfd, 0xff, 0xff,
  0x08, 0x00, 0x00, 0x00, 0x4c, 0x00, 0x00, 0x00, 0x08, 0x00, 0x00, 0x00,
  0x00, 0x00, 0x00, 0x00, 0x00, 0x00, 0x00, 0x00, 0x00, 0x00, 0x00, 0x00,
  0x00, 0x00, 0x00, 0x00, 0x00, 0x00, 0x00, 0x00, 0x00, 0x00, 0x00, 0x00,
  0x00, 0x00, 0x00, 0x00, 0x00, 0x00, 0x00, 0x00, 0x00, 0x00, 0x00, 0x00,
  0x00, 0x00, 0x00, 0x00, 0x00, 0x00, 0x00, 0x00, 0x00, 0x00, 0x00, 0x00,
  0x00, 0x00, 0x00, 0x00, 0x00, 0x00, 0x00, 0x00, 0x00, 0x00, 0x00, 0x00,
  0x00, 0x00, 0x00, 0x00, 0x00, 0x00, 0x00, 0x00, 0x08, 0x00, 0x00, 0x00,
  0x7f, 0x1d, 0x6b, 0x3b, 0x5e, 0x36, 0x85, 0x3b, 0xf5, 0xd5, 0x09, 0x3b,
  0x44, 0xdd, 0x16, 0x3b, 0x42, 0xa7, 0x12, 0x3b, 0x7b, 0x62, 0xcf, 0x3a,
  0x94, 0xdc, 0x2c, 0x3b, 0x8f, 0x2f, 0x1d, 0x3b, 0x12, 0x00, 0x00, 0x00,
  0x74, 0x66, 0x6c, 0x2e, 0x70, 0x73, 0x65, 0x75, 0x64, 0x6f, 0x5f, 0x71,
  0x63, 0x6f, 0x6e, 0x73, 0x74, 0x31, 0x00, 0x00, 0x04, 0x00, 0x00, 0x00,
  0x08, 0x00, 0x00, 0x00, 0x08, 0x00, 0x00, 0x00, 0x08, 0x00, 0x00, 0x00,
  0x01, 0x00, 0x00, 0x00, 0x12, 0xff, 0xff, 0xff, 0x00, 0x00, 0x00, 0x01,
  0x14, 0x00, 0x00, 0x00, 0x84, 0x00, 0x00, 0x00, 0x04, 0x00, 0x00, 0x00,
  0x00, 0x00, 0x00, 0x02, 0x90, 0x00, 0x00, 0x00, 0x8c, 0xfe, 0xff, 0xff,
  0x08, 0x00, 0x00, 0x00, 0x48, 0x00, 0x00, 0x00, 0x08, 0x00, 0x00, 0x00,
  0x00, 0x00, 0x00, 0x00, 0x00, 0x00, 0x00, 0x00, 0x00, 0x00, 0x00, 0x00,
  0x00, 0x00, 0x00, 0x00, 0x00, 0x00, 0x00, 0x00, 0x00, 0x00, 0x00, 0x00,
  0x00, 0x00, 0x00, 0x00, 0x00, 0x00, 0x00, 0x00, 0x00, 0x00, 0x00, 0x00,
  0x00, 0x00, 0x00, 0x00, 0x00, 0x00, 0x00, 0x00, 0x00, 0x00, 0x00, 0x00,
  0x00, 0x00, 0x00, 0x00, 0x00, 0x00, 0x00, 0x00, 0x00, 0x00, 0x00, 0x00,
  0x00, 0x00, 0x00, 0x00, 0x08, 0x00, 0x00, 0x00, 0x00, 0xe6, 0x20, 0x3a,
  0x23, 0x53, 0x36, 0x3a, 0x17, 0xa7, 0xbc, 0x39, 0x0d, 0x7c, 0xce, 0x39,
  0x9c, 0xb8, 0xc8, 0x39, 0xdf, 0xeb, 0x8d, 0x39, 0x81, 0x97, 0xec, 0x39,
  0xf9, 0x22, 0xd7, 0x39, 0x11, 0x00, 0x00, 0x00, 0x74, 0x66, 0x6c, 0x2e,
  0x70, 0x73, 0x65, 0x75, 0x64, 0x6f, 0x5f, 0x71, 0x63, 0x6f, 0x6e, 0x73,
  0x74, 0x00, 0x00, 0x00, 0x01, 0x00, 0x00, 0x00, 0x08, 0x00, 0x00, 0x00,
  0xc2, 0xff, 0xff, 0xff, 0x00, 0x00, 0x00, 0x01, 0x14, 0x00, 0x00, 0x00,
  0x14, 0x00, 0x00, 0x00, 0x03, 0x00, 0x00, 0x00, 0x00, 0x00, 0x00, 0x02,
  0x1c, 0x00, 0x00, 0x00, 0xac, 0xff, 0xff, 0xff, 0x0f, 0x00, 0x00, 0x00,
  0x61, 0x72, 0x69, 0x74, 0x68, 0x2e, 0x63, 0x6f, 0x6e, 0x73, 0x74, 0x61,
  0x6e, 0x74, 0x31, 0x00, 0x01, 0x00, 0x00, 0x00, 0x02, 0x00, 0x00, 0x00,
  0x00, 0x00, 0x16, 0x00, 0x1c, 0x00, 0x18, 0x00, 0x17, 0x00, 0x10, 0x00,
  0x0c, 0x00, 0x08, 0x00, 0x00, 0x00, 0x00, 0x00, 0x00, 0x00, 0x07, 0x00,
  0x16, 0x00, 0x00, 0x00, 0x00, 0x00, 0x00, 0x01, 0x18, 0x00, 0x00, 0x00,
  0x18, 0x00, 0x00, 0x00, 0x02, 0x00, 0x00, 0x00, 0x00, 0x00, 0x00, 0x02,
  0x20, 0x00, 0x00, 0x00, 0x04, 0x00, 0x04, 0x00, 0x04, 0x00, 0x00, 0x00,
  0x0e, 0x00, 0x00, 0x00, 0x61, 0x72, 0x69, 0x74, 0x68, 0x2e, 0x63, 0x6f,
  0x6e, 0x73, 0x74, 0x61, 0x6e, 0x74, 0x00, 0x00, 0x01, 0x00, 0x00, 0x00,
  0x02, 0x00, 0x00, 0x00, 0x00, 0x00, 0x16, 0x00, 0x20, 0x00, 0x1c, 0x00,
  0x1b, 0x00, 0x14, 0x00, 0x10, 0x00, 0x0c, 0x00, 0x00, 0x00, 0x00, 0x00,
  0x08, 0x00, 0x07, 0x00, 0x16, 0x00, 0x00, 0x00, 0x00, 0x00, 0x00, 0x01,
  0x18, 0x00, 0x00, 0x00, 0x34, 0x00, 0x00, 0x00, 0x54, 0x00, 0x00, 0x00,
  0x01, 0x00, 0x00, 0x00, 0x00, 0x00, 0x00, 0x09, 0x68, 0x00, 0x00, 0x00,
  0x04, 0x00, 0x00, 0x00, 0xff, 0xff, 0xff, 0xff, 0x18, 0x01, 0x00, 0x00,
  0x80, 0x00, 0x00, 0x00, 0x01, 0x00, 0x00, 0x00, 0x0c, 0x00, 0x0c, 0x00,
  0x00, 0x00, 0x00, 0x00, 0x08, 0x00, 0x04, 0x00, 0x0c, 0x00, 0x00, 0x00,
  0x08, 0x00, 0x00, 0x00, 0x14, 0x00, 0x00, 0x00, 0x01, 0x00, 0x00, 0x00,
  0x80, 0xff, 0xff, 0xff, 0xff, 0xff, 0xff, 0xff, 0x00, 0x00, 0x00, 0x00,
  0x01, 0x00, 0x00, 0x00, 0xd2, 0x30, 0x2f, 0x3e, 0x19, 0x00, 0x00, 0x00,
  0x73, 0x65, 0x72, 0x76, 0x69, 0x6e, 0x67, 0x5f, 0x64, 0x65, 0x66, 0x61,
  0x75, 0x6c, 0x74, 0x5f, 0x69, 0x6e, 0x70, 0x75, 0x74, 0x5f, 0x31, 0x3a,
  0x30, 0x00, 0x00, 0x00, 0x04, 0x00, 0x00, 0x00, 0x01, 0x00, 0x00, 0x00,
  0x18, 0x01, 0x00, 0x00, 0x80, 0x00, 0x00, 0x00, 0x01, 0x00, 0x00, 0x00,
  0x06, 0x00, 0x00, 0x00, 0x7c, 0x00, 0x00, 0x00, 0x5c, 0x00, 0x00, 0x00,
  0x48, 0x00, 0x00, 0x00, 0x38, 0x00, 0x00, 0x00, 0x18, 0x00, 0x00, 0x00,
  0x04, 0x00, 0x00, 0x00, 0xa8, 0xff, 0xff, 0xff, 0x19, 0x00, 0x00, 0x00,
  0x02, 0x00, 0x00, 0x00, 0x00, 0x00, 0x00, 0x19, 0xb8, 0xff, 0xff, 0xff,
  0x09, 0x00, 0x00, 0x00, 0x04, 0x00, 0x00, 0x00, 0x00, 0x00, 0x00, 0x09,
  0x0c, 0x00, 0x0c, 0x00, 0x0b, 0x00, 0x00, 0x00, 0x00, 0x00, 0x04, 0x00,
  0x0c, 0x00, 0x00, 0x00, 0x16, 0x00, 0x00, 0x00, 0x00, 0x00, 0x00, 0x16,
  0xe0, 0xff, 0xff, 0xff, 0x11, 0x00, 0x00, 0x00, 0x02, 0x00, 0x00, 0x00,
  0x00, 0x00, 0x00, 0x11, 0xf0, 0xff, 0xff, 0xff, 0x03, 0x00, 0x00, 0x00,
  0x03, 0x00, 0x00, 0x00, 0x00, 0x00, 0x00, 0x03, 0x0c, 0x00, 0x10, 0x00,
  0x0f, 0x00, 0x00, 0x00, 0x08, 0x00, 0x04, 0x00, 0x0c, 0x00, 0x00, 0x00,
  0x61, 0x00, 0x00, 0x00, 0x03, 0x00, 0x00, 0x00, 0x00, 0x00, 0x00, 0x61
  0x20, 0x00, 0x00, 0x00, 0x54, 0x46, 0x4c, 0x33, 0x00, 0x00, 0x00, 0x00,
  0x14, 0x00, 0x20, 0x00, 0x1c, 0x00, 0x18, 0x00, 0x14, 0x00, 0x10, 0x00,
  0x0c, 0x00, 0x00, 0x00, 0x08, 0x00, 0x04, 0x00, 0x14, 0x00, 0x00, 0x00,
  0x1c, 0x00, 0x00, 0x00, 0x84, 0x00, 0x00, 0x00, 0x04, 0x01, 0x00, 0x00,
  0xd4, 0x06, 0x00, 0x00, 0xe4, 0x06, 0x00, 0x00, 0x60, 0x10, 0x00, 0x00,
  0x03, 0x00, 0x00, 0x00, 0x01, 0x00, 0x00, 0x00, 0x04, 0x00, 0x00, 0x00,
  0x6a, 0xf8, 0xff, 0xff, 0x0c, 0x00, 0x00, 0x00, 0x1c, 0x00, 0x00, 0x00,
  0x3c, 0x00, 0x00, 0x00, 0x0f, 0x00, 0x00, 0x00, 0x73, 0x65, 0x72, 0x76,
  0x69, 0x6e, 0x67, 0x5f, 0x64, 0x65, 0x66, 0x61, 0x75, 0x6c, 0x74, 0x00,
  0x01, 0x00, 0x00, 0x00, 0x04, 0x00, 0x00, 0x00, 0x70, 0xff, 0xff, 0xff,
  0x0c, 0x00, 0x00, 0x00, 0x04, 0x00, 0x00, 0x00, 0x0b, 0x00, 0x00, 0x00,
  0x71, 0x75, 0x61, 0x6e, 0x74, 0x5f, 0x64, 0x65, 0x6e, 0x73, 0x65, 0x00,
  0x01, 0x00, 0x00, 0x00, 0x04, 0x00, 0x00, 0x00, 0x0e, 0xf9, 0xff, 0xff,
  0x04, 0x00, 0x00, 0x00, 0x07, 0x00, 0x00, 0x00, 0x69, 0x6e, 0x70, 0x75,
  0x74, 0x5f, 0x31, 0x00, 0x03, 0x00, 0x00, 0x00, 0x5c, 0x00, 0x00, 0x00,
  0x2c, 0x00, 0x00, 0x00, 0x04, 0x00, 0x00, 0x00, 0xb8, 0xff, 0xff, 0xff,
  0x10, 0x00, 0x00, 0x00, 0x04, 0x00, 0x00, 0x00, 0x13, 0x00, 0x00, 0x00,
  0x43, 0x4f, 0x4e, 0x56, 0x45, 0x52, 0x53, 0x49, 0x4f, 0x4e, 0x5f, 0x4d,
  0x45, 0x54, 0x41, 0x44, 0x41, 0x54, 0x41, 0x00, 0xdc, 0xff, 0xff, 0xff,
  0x0f, 0x00, 0x00, 0x00, 0x04, 0x00, 0x00, 0x00, 0x13, 0x00, 0x00, 0x00,
  0x6d, 0x69, 0x6e, 0x5f, 0x72, 0x75, 0x6e, 0x74, 0x69, 0x6d, 0x65, 0x5f,
  0x76, 0x65, 0x72, 0x73, 0x69, 0x6f, 0x6e, 0x00, 0x08, 0x00, 0x0c, 0x00,
  0x08, 0x00, 0x04, 0x00, 0x08, 0x00, 0x00, 0x00, 0x0e, 0x00, 0x00, 0x00,
  0x04, 0x00, 0x00, 0x00, 0x13, 0x00, 0x00, 0x00, 0x6d, 0x69, 0x6e, 0x5f,
  0x72, 0x75, 0x6e, 0x74, 0x69, 0x6d, 0x65, 0x5f, 0x76, 0x65, 0x72, 0x73,
  0x69, 0x6f, 0x6e, 0x00, 0x11, 0x00, 0x00, 0x00, 0xcc, 0x05, 0x00, 0x00,
  0xc4, 0x05, 0x00, 0x00, 0xac, 0x05, 0x00, 0x00, 0x94, 0x05, 0x00, 0x00,
  0x64, 0x05, 0x00, 0x00, 0x54, 0x03, 0x00, 0x00, 0x4c, 0x03, 0x00, 0x00,
  0x44, 0x03, 0x00, 0x00, 0x3c, 0x03, 0x00, 0x00, 0x34, 0x03, 0x00, 0x00,
  0xe4, 0x00, 0x00, 0x00, 0xcc, 0x00, 0x00, 0x00, 0xc4, 0x00, 0x00, 0x00,
  0xbc, 0x00, 0x00, 0x00, 0x9c, 0x00, 0x00, 0x00, 0x7c, 0x00, 0x00, 0x00,
  0x04, 0x00, 0x00, 0x00, 0xee, 0xf9, 0xff, 0xff, 0x04, 0x00, 0x00, 0x00,
  0x68, 0x00, 0x00, 0x00, 0x10, 0x00, 0x00, 0x00, 0x00, 0x00, 0x00, 0x00,
  0x08, 0x00, 0x0e, 0x00, 0x08, 0x00, 0x04, 0x00, 0x08, 0x00, 0x00, 0x00,
  0x10, 0x00, 0x00, 0x00, 0x2c, 0x00, 0x00, 0x00, 0x00, 0x00, 0x06, 0x00,
  0x08, 0x00, 0x04, 0x00, 0x06, 0x00, 0x00, 0x00, 0x04, 0x00, 0x00, 0x00,
  0x02, 0x00, 0x00, 0x00, 0xeb, 0x03, 0x00, 0x00, 0xd0, 0x07, 0x00, 0x00,
  0x0c, 0x00, 0x18, 0x00, 0x14, 0x00, 0x10, 0x00, 0x0c, 0x00, 0x04, 0x00,
  0x0c, 0x00, 0x00, 0x00, 0x81, 0x7b, 0x0a, 0x3d, 0xf7, 0xb0, 0x3c, 0x11,
  0x02, 0x00, 0x00, 0x00, 0x02, 0x00, 0x00, 0x00, 0x04, 0x00, 0x00, 0x00,
  0x06, 0x00, 0x00, 0x00, 0x32, 0x2e, 0x31, 0x37, 0x2e, 0x31, 0x00, 0x00,
  0x62, 0xfa, 0xff, 0xff, 0x04, 0x00, 0x00, 0x00, 0x10, 0x00, 0x00, 0x00,
  0x00, 0x00, 0x00, 0x00, 0x00, 0x00, 0x00, 0x00, 0x00, 0x00, 0x00, 0x00,
  0x00, 0x00, 0x00, 0x00, 0x7e, 0xfa, 0xff, 0xff, 0x04, 0x00, 0x00, 0x00,
  0x10, 0x00, 0x00, 0x00, 0x32, 0x2e, 0x33, 0x2e, 0x30, 0x00, 0x00, 0x00,
  0x00, 0x00, 0x00, 0x00, 0x00, 0x00, 0x00, 0x00, 0x60, 0xf2, 0xff, 0xff,
  0x64, 0xf2, 0xff, 0xff, 0xa2, 0xfa, 0xff, 0xff, 0x04, 0x00, 0x00, 0x00,
  0x08, 0x00, 0x00, 0x00, 0x34, 0xfe, 0xff, 0xff, 0xcc, 0x01, 0x00, 0x00,
  0xb6, 0xfa, 0xff, 0xff, 0x04, 0x00, 0x00, 0x00, 0x40, 0x02, 0x00, 0x00,
  0xf8, 0xcf, 0xd7, 0xf6, 0x1b, 0xdf, 0x25, 0xea, 0xe8, 0xbe, 0xe8, 0xcb,
  0xce, 0xc5, 0xf6, 0xd1, 0x19, 0x4a, 0x25, 0x24, 0xed, 0xdb, 0x47, 0xd5,
  0xe2, 0xfe, 0xe1, 0x0f, 0xfe, 0xec, 0x06, 0x13, 0xf5, 0x19, 0xe0, 0xe4,
  0x07, 0x12, 0x0c, 0x13, 0x24, 0x19, 0xd6, 0x2c, 0x0c, 0x05, 0xee, 0xf0,
  0xc3, 0xba, 0xf2, 0x1a, 0x19, 0xc6, 0x09, 0xf9, 0xfa, 0x9e, 0xf1, 0xcb,
  0xd4, 0xe8, 0xfc, 0xe2, 0x47, 0x34, 0x10, 0x23, 0xdf, 0xfe, 0x41, 0xba,
  0xf9, 0x33, 0x19, 0xe6, 0xd7, 0xf9, 0x1f, 0x10, 0xc6, 0x19, 0xdc, 0xdd,
  0x21, 0xf5, 0xde, 0x16, 0x03, 0x17, 0xdc, 0x21, 0x12, 0x19, 0xf9, 0x00,
  0x04, 0xf1, 0xe0, 0x47, 0x12, 0xde, 0x12, 0xfe, 0xec, 0xb1, 0x23, 0xd1,
  0xc8, 0xe8, 0xef, 0xd5, 0x25, 0x40, 0x20, 0x19, 0x29, 0xdc, 0x2d, 0xcc,
  0xf5, 0x2d, 0xf9, 0xdd, 0xf3, 0x3f, 0x0c, 0x19, 0xc8, 0x0d, 0xe1, 0xe2,
  0xf4, 0x08, 0xe3, 0x08, 0x09, 0x1e, 0xe9, 0xec, 0x0f, 0xf0, 0xf8, 0xed,
  0xe8, 0xc4, 0xd0, 0xfd, 0xfd, 0xeb, 0x30, 0xf0, 0xfd, 0x90, 0x20, 0xce,
  0xbf, 0xe1, 0xeb, 0x11, 0x45, 0x4b, 0x24, 0x0c, 0x10, 0xe0, 0x45, 0xd0,
  0x1f, 0x4c, 0xef, 0x26, 0xe0, 0xec, 0x05, 0xdc, 0xe6, 0xfe, 0xed, 0xe8,
  0x1c, 0xec, 0x0e, 0x1a, 0x11, 0xf8, 0x04, 0x4b, 0xde, 0xde, 0xe8, 0xe5,
  0xd7, 0xbc, 0xf8, 0xe0, 0x02, 0xca, 0x06, 0x02, 0xfe, 0x81, 0x10, 0xbd,
  0xcd, 0xd9, 0x0b, 0x15, 0x25, 0x3a, 0x25, 0xf7, 0xd6, 0xe9, 0x47, 0xd9,
  0x0b, 0x3b, 0x04, 0xf9, 0xea, 0x0f, 0xfe, 0x22, 0xe9, 0xf6, 0xd2, 0xdf,
  0xfc, 0xdc, 0xf5, 0x0a, 0xf4, 0x19, 0xda, 0x13, 0x0d, 0x09, 0xeb, 0xe9,
  0xd2, 0xd6, 0xf3, 0xd4, 0xea, 0xd9, 0x1f, 0xf5, 0xe6, 0x9e, 0x1a, 0xd0,
  0xcc, 0xe9, 0xef, 0x1d, 0x37, 0x48, 0x15, 0x35, 0xf7, 0x0a, 0x4d, 0xce,
  0x3c, 0x46, 0xf0, 0x53, 0xe3, 0xde, 0x21, 0x11, 0xce, 0x01, 0xd6, 0xf9,
  0xfb, 0xd2, 0x09, 0x14, 0xe9, 0x1d, 0xe1, 0x28, 0xdb, 0x03, 0x00, 0xcf,
  0x0b, 0x39, 0x25, 0xed, 0xdf, 0x27, 0xda, 0xe4, 0x2f, 0x5b, 0x08, 0x17,
  0x05, 0x16, 0x10, 0x2d, 0xbf, 0xb4, 0xcd, 0x0b, 0x1e, 0x0b, 0xc4, 0x15,
  0xf3, 0xd1, 0x29, 0x15, 0x24, 0xf1, 0x09, 0x0d, 0x39, 0xf9, 0x2c, 0x04,
  0xef, 0xe9, 0xfc, 0xe3, 0x08, 0xd5, 0xfb, 0xc1, 0xdb, 0xe8, 0xf1, 0x2b,
  0x1b, 0x43, 0x32, 0xd3, 0x03, 0x38, 0xc7, 0xef, 0x2a, 0x78, 0x13, 0x37,
  0x42, 0x2c, 0x1a, 0x37, 0xc4, 0xb7, 0xe2, 0xef, 0x10, 0x05, 0xc8, 0x6b,
  0x07, 0xe5, 0x06, 0x0c, 0x14, 0x1a, 0xfd, 0x0e, 0x38, 0xec, 0x19, 0x10,
  0x0a, 0x0f, 0x01, 0xe9, 0x2f, 0x0f, 0x23, 0xe9, 0xff, 0x03, 0x23, 0x04,
  0x17, 0x2b, 0x32, 0xbb, 0x0e, 0x39, 0xdd, 0x18, 0x20, 0x63, 0xf4, 0x24,
  0x38, 0x21, 0xf3, 0x1c, 0xca, 0xc0, 0xdb, 0xe8, 0xde, 0x20, 0xcb, 0x5d,
  0x0e, 0xcb, 0x03, 0x2b, 0xed, 0xed, 0xe5, 0xf9, 0x2d, 0xd8, 0x11, 0xf7,
  0xf9, 0x02, 0xf6, 0xe2, 0x1b, 0xf4, 0x05, 0x1b, 0xf3, 0xfa, 0x1b, 0x09,
  0x1f, 0x41, 0x17, 0xfa, 0x00, 0x0a, 0xce, 0x1d, 0xdb, 0x4d, 0xe3, 0x28,
  0x47, 0x2f, 0x09, 0xe7, 0xd1, 0xb2, 0xed, 0xd6, 0xce, 0x26, 0xd2, 0x3f,
  0xf3, 0xd9, 0x01, 0xfd, 0x1d, 0xf4, 0x03, 0x12, 0xff, 0x04, 0x37, 0x13,
  0xca, 0x08, 0xfc, 0x04, 0x1a, 0xea, 0x0e, 0xc3, 0x0e, 0x0d, 0xfa, 0x2b,
  0x14, 0x4b, 0x20, 0x26, 0xff, 0x22, 0xc5, 0x0f, 0xf3, 0x5f, 0x09, 0x44,
  0x39, 0x35, 0xee, 0xe4, 0xb6, 0xc3, 0xf9, 0x0d, 0x14, 0xe4, 0xd8, 0x24,
  0xdd, 0xcc, 0x04, 0xe8, 0x11, 0x01, 0x11, 0xe0, 0xfd, 0xeb, 0x00, 0x09,
  0xeb, 0x07, 0x19, 0xfb, 0x15, 0xe6, 0x12, 0xd5, 0x16, 0x03, 0xeb, 0x29,
  0x28, 0x3f, 0x03, 0xf9, 0x17, 0x24, 0xed, 0x25, 0xf7, 0x74, 0xfb, 0x26,
  0x43, 0x25, 0x1a, 0xe7, 0xda, 0xd6, 0xd0, 0xe5, 0x16, 0x03, 0xaf, 0x55,
  0xee, 0xb7, 0x0c, 0xcf, 0x11, 0x24, 0xe9, 0xda, 0x27, 0xee, 0x06, 0xe7,
  0xfd, 0x2d, 0xec, 0xe6, 0xea, 0xe8, 0x20, 0xd2, 0xff, 0xd6, 0x00, 0x33,
  0xc8, 0xf4, 0xff, 0xff, 0xcc, 0xf4, 0xff, 0xff, 0xd0, 0xf4, 0xff, 0xff,
  0xd4, 0xf4, 0xff, 0xff, 0x12, 0xfd, 0xff, 0xff, 0x04, 0x00, 0x00, 0x00,
  0x00, 0x02, 0x00, 0x00, 0x26, 0x20, 0x0d, 0x3d, 0xc8, 0xfa, 0xff, 0xa5,
  0x26, 0xf8, 0x06, 0x5d, 0x06, 0xbe, 0xea, 0xc8, 0x11, 0xf6, 0x2a, 0xfa,
  0xd2, 0xd1, 0xe9, 0x81, 0x33, 0x06, 0xf5, 0x42, 0xd1, 0xdf, 0x08, 0xc1,
  0x20, 0xf6, 0x1e, 0x54, 0xd6, 0xf4, 0xdb, 0xad, 0x14, 0x2b, 0x0a, 0x3b,
  0x03, 0xfe, 0xec, 0xd6, 0x5c, 0x14, 0x2e, 0x25, 0xef, 0x10, 0x28, 0xe9,
  0x06, 0x29, 0x22, 0x1b, 0xfc, 0xdb, 0xee, 0xcc, 0x3f, 0xf0, 0xf8, 0x0d,
  0xda, 0xb3, 0xd9, 0xa2, 0x39, 0xdf, 0xf5, 0x19, 0xde, 0x90, 0xd0, 0x99,
  0x4c, 0xeb, 0x05, 0xed, 0xd8, 0x9f, 0xca, 0xa0, 0x40, 0x07, 0xec, 0x0b,
  0xc1, 0xc8, 0xcb, 0xb1, 0x44, 0x0c, 0xe7, 0x04, 0xcd, 0xac, 0xfa, 0x97,
  0x41, 0x01, 0x06, 0xf1, 0xe2, 0xd5, 0xbf, 0xa7, 0x4f, 0x08, 0xf2, 0x0b,
  0xbd, 0x93, 0xe0, 0x81, 0x29, 0x23, 0x19, 0xfc, 0xe2, 0xa7, 0xf7, 0xb3,
  0x5e, 0xd8, 0x45, 0x70, 0xe6, 0x08, 0xe9, 0xc0, 0xfe, 0xd3, 0x53, 0x78,
  0xc7, 0xba, 0xfc, 0xc5, 0x35, 0xe2, 0xf6, 0x39, 0xe0, 0x0d, 0xf4, 0x06,
  0xde, 0xf9, 0x15, 0x7f, 0xf8, 0x0e, 0xf4, 0x0f, 0x22, 0xd9, 0x1a, 0xf7,
  0x04, 0xce, 0xcf, 0xc9, 0x2d, 0xfd, 0xfb, 0x42, 0x14, 0xcc, 0xf3, 0x01,
  0x13, 0x22, 0xfe, 0x74, 0x39, 0xc7, 0x1d, 0xa6, 0x30, 0x07, 0xc6, 0x41,
  0x39, 0x0b, 0x04, 0xef, 0x2c, 0xd7, 0x0a, 0xfa, 0xd3, 0xcd, 0xe0, 0xf1,
  0x35, 0x05, 0x03, 0x5c, 0x25, 0xa4, 0x58, 0x67, 0xc7, 0xd2, 0xf7, 0xd1,
  0xc7, 0xb9, 0xea, 0x28, 0x52, 0xe3, 0x45, 0xfe, 0xa8, 0xdd, 0x25, 0xed,
  0xe2, 0xd0, 0xfa, 0xf5, 0xc4, 0xbf, 0xf0, 0xdb, 0x7f, 0x19, 0x2b, 0xe1,
  0xcf, 0xe2, 0x20, 0x2d, 0x4d, 0x35, 0x43, 0xb6, 0xe3, 0xd5, 0xf6, 0x04,
  0x71, 0x3c, 0xf7, 0xc7, 0xbd, 0xbc, 0xe4, 0xfd, 0x2b, 0x74, 0xd6, 0x12,
  0x14, 0x05, 0x2f, 0xe7, 0x42, 0xeb, 0x01, 0xeb, 0xca, 0xfe, 0xf9, 0xad,
  0x19, 0xf1, 0xe4, 0xff, 0xe3, 0xfd, 0x28, 0x74, 0x34, 0x16, 0xbd, 0x28,
  0xf1, 0x20, 0xf5, 0xc9, 0xd7, 0x07, 0xd7, 0x06, 0xf2, 0x12, 0xec, 0x59,
  0x19, 0x1e, 0xc5, 0xf8, 0x4f, 0xf1, 0xf3, 0xdc, 0x1e, 0x35, 0x29, 0x1c,
  0xd2, 0x20, 0xf8, 0x7f, 0xf7, 0x3c, 0x21, 0x09, 0x35, 0xd2, 0xcb, 0x0c,
  0x18, 0xff, 0x09, 0xfc, 0xca, 0xa9, 0x28, 0xdd, 0x48, 0xfb, 0x32, 0xd0,
  0xb4, 0xab, 0xdd, 0x1b, 0x45, 0xd0, 0x7b, 0x49, 0x4e, 0xf9, 0x5a, 0xfb,
  0x34, 0x0e, 0xfd, 0x31, 0x29, 0xf8, 0x0a, 0x7b, 0x67, 0xd0, 0xfd, 0x09,
  0xd4, 0x99, 0xd2, 0x4a, 0x27, 0xf6, 0x01, 0xbd, 0xef, 0xe1, 0xc2, 0xe8,
  0x2b, 0xd7, 0xde, 0x74, 0xd8, 0xcb, 0xcc, 0xff, 0x42, 0xc6, 0x58, 0xd5,
  0x00, 0x81, 0x5a, 0xfa, 0x3a, 0x54, 0xf3, 0xe8, 0xe4, 0xc0, 0x95, 0x46,
  0x43, 0x20, 0x35, 0x3f, 0x13, 0xd6, 0x88, 0x27, 0x0a, 0x3b, 0x34, 0x2e,
  0xef, 0xd4, 0x87, 0x05, 0x0f, 0x69, 0x0f, 0x55, 0xf5, 0xb9, 0x91, 0xef,
  0x04, 0x35, 0x21, 0x42, 0xfb, 0xbd, 0x90, 0xeb, 0xee, 0x4f, 0xef, 0x3b,
  0x06, 0xa6, 0xaa, 0x04, 0x05, 0x31, 0x17, 0x24, 0x1b, 0xc6, 0x9f, 0xf4,
  0xe6, 0x63, 0x0f, 0x4c, 0x12, 0xbd, 0x81, 0xe9, 0xb8, 0xc0, 0xce, 0xc8,
  0xeb, 0xf0, 0x19, 0xf2, 0xd9, 0xf9, 0xd9, 0x39, 0xee, 0xee, 0x2d, 0x13,
  0x17, 0x3c, 0x28, 0xc1, 0x11, 0x29, 0x11, 0xf4, 0xac, 0x03, 0xbe, 0x0f,
  0xef, 0xe5, 0x20, 0xee, 0xa0, 0x3c, 0xc9, 0x61, 0xfb, 0x3f, 0x43, 0xf7,
  0xc3, 0xd3, 0xba, 0xe1, 0xdb, 0x02, 0x4a, 0x17, 0xd8, 0xb9, 0xe4, 0x99,
  0xf4, 0x21, 0x56, 0xf8, 0x9f, 0xd2, 0x81, 0xe2, 0xef, 0x36, 0xfd, 0xce,
  0x1e, 0xff, 0xff, 0xff, 0x04, 0x00, 0x00, 0x00, 0x20, 0x00, 0x00, 0x00,
  0x67, 0x00, 0x00, 0x00, 0x1b, 0x02, 0x00, 0x00, 0x2f, 0x01, 0x00, 0x00,
  0xf7, 0x00, 0x00, 0x00, 0xbd, 0xfe, 0xff, 0xff, 0x5f, 0xfc, 0xff, 0xff,
  0x2c, 0x00, 0x00, 0x00, 0x05, 0x02, 0x00, 0x00, 0x4a, 0xff, 0xff, 0xff,
  0x04, 0x00, 0x00, 0x00, 0x08, 0x00, 0x00, 0x00, 0xff, 0xff, 0xff, 0xff,
  0x20, 0x01, 0x00, 0x00, 0x5e, 0xff, 0xff, 0xff, 0x04, 0x00, 0x00, 0x00,
  0x08, 0x00, 0x00, 0x00, 0x20, 0x00, 0x00, 0x00, 0x20, 0x00, 0x00, 0x00,
  0x38, 0xf7, 0xff, 0xff, 0x3c, 0xf7, 0xff, 0xff, 0x0f, 0x00, 0x00, 0x00,
  0x4d, 0x4c, 0x49, 0x52, 0x20, 0x43, 0x6f, 0x6e, 0x76, 0x65, 0x72, 0x74,
  0x65, 0x64, 0x2e, 0x00, 0x01, 0x00, 0x00, 0x00, 0x14, 0x00, 0x00, 0x00,
  0x00, 0x00, 0x0e, 0x00, 0x18, 0x00, 0x14, 0x00, 0x10, 0x00, 0x0c, 0x00,
  0x08, 0x00, 0x04, 0x00, 0x0e, 0x00, 0x00, 0x00, 0x14, 0x00, 0x00, 0x00,
  0x1c, 0x00, 0x00, 0x00, 0xc8, 0x01, 0x00, 0x00, 0xcc, 0x01, 0x00, 0x00,
  0xd0, 0x01, 0x00, 0x00, 0x04, 0x00, 0x00, 0x00, 0x6d, 0x61, 0x69, 0x6e,
  0x00, 0x00, 0x00, 0x00, 0x06, 0x00, 0x00, 0x00, 0x74, 0x01, 0x00, 0x00,
  0x10, 0x01, 0x00, 0x00, 0xac, 0x00, 0x00, 0x00, 0x84, 0x00, 0x00, 0x00,
  0x40, 0x00, 0x00, 0x00, 0x04, 0x00, 0x00, 0x00, 0x12, 0xff, 0xff, 0xff,
  0x1c, 0x00, 0x00, 0x00, 0x00, 0x00, 0x00, 0x09, 0x1c, 0x00, 0x00, 0x00,
  0x20, 0x00, 0x00, 0x00, 0x05, 0x00, 0x00, 0x00, 0x00, 0x00, 0x06, 0x00,
  0x08, 0x00, 0x04, 0x00, 0x06, 0x00, 0x00, 0x00, 0x00, 0x00, 0x80, 0x3f,
  0x01, 0x00, 0x00, 0x00, 0x0c, 0x00, 0x00, 0x00, 0x01, 0x00, 0x00, 0x00,
  0x0b, 0x00, 0x00, 0x00, 0x4a, 0xff, 0xff, 0xff, 0x14, 0x00, 0x00, 0x00,
  0x00, 0x00, 0x00, 0x08, 0x10, 0x00, 0x00, 0x00, 0x14, 0x00, 0x00, 0x00,
  0x04, 0x00, 0x00, 0x00, 0xfc, 0xf7, 0xff, 0xff, 0x01, 0x00, 0x00, 0x00,
  0x0b, 0x00, 0x00, 0x00, 0x03, 0x00, 0x00, 0x00, 0x08, 0x00, 0x00, 0x00,
  0x09, 0x00, 0x00, 0x00, 0x0a, 0x00, 0x00, 0x00, 0x00, 0x00, 0x0a, 0x00,
  0x10, 0x00, 0x0c, 0x00, 0x08, 0x00, 0x04, 0x00, 0x0a, 0x00, 0x00, 0x00,
  0x0c, 0x00, 0x00, 0x00, 0x10, 0x00, 0x00, 0x00, 0x03, 0x00, 0x00, 0x00,
  0x01, 0x00, 0x00, 0x00, 0x08, 0x00, 0x00, 0x00, 0x02, 0x00, 0x00, 0x00,
  0x07, 0x00, 0x00, 0x00, 0x02, 0x00, 0x00, 0x00, 0xae, 0xff, 0xff, 0xff,
  0x24, 0x00, 0x00, 0x00, 0x00, 0x00, 0x00, 0x05, 0x34, 0x00, 0x00, 0x00,
  0x38, 0x00, 0x00, 0x00, 0x02, 0x00, 0x00, 0x00, 0x00, 0x00, 0x0e, 0x00,
  0x18, 0x00, 0x17, 0x00, 0x10, 0x00, 0x0c, 0x00, 0x08, 0x00, 0x04, 0x00,
  0x0e, 0x00, 0x00, 0x00, 0x02, 0x00, 0x00, 0x00, 0x02, 0x00, 0x00, 0x00,
  0x02, 0x00, 0x00, 0x00, 0x02, 0x00, 0x00, 0x00, 0x00, 0x00, 0x00, 0x01,
  0x01, 0x00, 0x00, 0x00, 0x07, 0x00, 0x00, 0x00, 0x01, 0x00, 0x00, 0x00,
  0x06, 0x00, 0x00, 0x00, 0x00, 0x00, 0x0e, 0x00, 0x18, 0x00, 0x14, 0x00,
  0x10, 0x00, 0x0c, 0x00, 0x0b, 0x00, 0x04, 0x00, 0x0e, 0x00, 0x00, 0x00,
  0x20, 0x00, 0x00, 0x00, 0x00, 0x00, 0x00, 0x01, 0x2c, 0x00, 0x00, 0x00,
  0x30, 0x00, 0x00, 0x00, 0x01, 0x00, 0x00, 0x00, 0x0c, 0x00, 0x14, 0x00,
  0x13, 0x00, 0x0c, 0x00, 0x08, 0x00, 0x07, 0x00, 0x0c, 0x00, 0x00, 0x00,
  0x00, 0x00, 0x00, 0x01, 0x02, 0x00, 0x00, 0x00, 0x02, 0x00, 0x00, 0x00,
  0x00, 0x00, 0x00, 0x01, 0x01, 0x00, 0x00, 0x00, 0x06, 0x00, 0x00, 0x00,
  0x03, 0x00, 0x00, 0x00, 0x05, 0x00, 0x00, 0x00, 0x04, 0x00, 0x00, 0x00,
  0x03, 0x00, 0x00, 0x00, 0x00, 0x00, 0x0e, 0x00, 0x14, 0x00, 0x00, 0x00,
  0x10, 0x00, 0x0c, 0x00, 0x0b, 0x00, 0x04, 0x00, 0x0e, 0x00, 0x00, 0x00,
  0x18, 0x00, 0x00, 0x00, 0x00, 0x00, 0x00, 0x4a, 0x18, 0x00, 0x00, 0x00,
  0x1c, 0x00, 0x00, 0x00, 0x08, 0x00, 0x08, 0x00, 0x00, 0x00, 0x07, 0x00,
  0x08, 0x00, 0x00, 0x00, 0x00, 0x00, 0x00, 0x01, 0x01, 0x00, 0x00, 0x00,
  0x05, 0x00, 0x00, 0x00, 0x02, 0x00, 0x00, 0x00, 0x00, 0x00, 0x00, 0x00,
  0x01, 0x00, 0x00, 0x00, 0x01, 0x00, 0x00, 0x00, 0x0c, 0x00, 0x00, 0x00,
  0x01, 0x00, 0x00, 0x00, 0x00, 0x00, 0x00, 0x00, 0x0d, 0x00, 0x00, 0x00,
  0xe8, 0x06, 0x00, 0x00, 0x8c, 0x06, 0x00, 0x00, 0x34, 0x06, 0x00, 0x00,
  0x80, 0x05, 0x00, 0x00, 0xbc, 0x04, 0x00, 0x00, 0x18, 0x04, 0x00, 0x00,
  0x44, 0x03, 0x00, 0x00, 0xb0, 0x02, 0x00, 0x00, 0x34, 0x02, 0x00, 0x00,
  0x88, 0x01, 0x00, 0x00, 0x24, 0x01, 0x00, 0x00, 0x80, 0x00, 0x00, 0x00,
  0x04, 0x00, 0x00, 0x00, 0x62, 0xf9, 0xff, 0xff, 0x00, 0x00, 0x00, 0x01,
  0x18, 0x00, 0x00, 0x00, 0x20, 0x00, 0x00, 0x00, 0x3c, 0x00, 0x00, 0x00,
  0x0d, 0x00, 0x00, 0x00, 0x00, 0x00, 0x00, 0x09, 0x50, 0x00, 0x00, 0x00,
  0x02, 0x00, 0x00, 0x00, 0xff, 0xff, 0xff, 0xff, 0x02, 0x00, 0x00, 0x00,
  0x44, 0xf9, 0xff, 0xff, 0x08, 0x00, 0x00, 0x00, 0x10, 0x00, 0x00, 0x00,
  0x01, 0x00, 0x00, 0x00, 0x80, 0xff, 0xff, 0xff, 0xff, 0xff, 0xff, 0xff,
  0x01, 0x00, 0x00, 0x00, 0x00, 0x00, 0x80, 0x3b, 0x19, 0x00, 0x00, 0x00,
  0x53, 0x74, 0x61, 0x74, 0x65, 0x66, 0x75, 0x6c, 0x50, 0x61, 0x72, 0x74,
  0x69, 0x74, 0x69, 0x6f, 0x6e, 0x65, 0x64, 0x43, 0x61, 0x6c, 0x6c, 0x3a,
  0x30, 0x00, 0x00, 0x00, 0x02, 0x00, 0x00, 0x00, 0x01, 0x00, 0x00, 0x00,
  0x02, 0x00, 0x00, 0x00, 0xda, 0xf9, 0xff, 0xff, 0x00, 0x00, 0x00, 0x01,
  0x18, 0x00, 0x00, 0x00, 0x20, 0x00, 0x00, 0x00, 0x40, 0x00, 0x00, 0x00,
  0x0c, 0x00, 0x00, 0x00, 0x00, 0x00, 0x00, 0x09, 0x78, 0x00, 0x00, 0x00,
  0x02, 0x00, 0x00, 0x00, 0xff, 0xff, 0xff, 0xff, 0x02, 0x00, 0x00, 0x00,
  0xbc, 0xf9, 0xff, 0xff, 0x08, 0x00, 0x00, 0x00, 0x14, 0x00, 0x00, 0x00,
  0x01, 0x00, 0x00, 0x00, 0x02, 0x00, 0x00, 0x00, 0x00, 0x00, 0x00, 0x00,
  0x00, 0x00, 0x00, 0x00, 0x01, 0x00, 0x00, 0x00, 0x9b, 0xb0, 0x9f, 0x3d,
  0x3c, 0x00, 0x00, 0x00, 0x73, 0x65, 0x71, 0x75, 0x65, 0x6e, 0x74, 0x69,
  0x61, 0x6c, 0x2f, 0x71, 0x75, 0x61, 0x6e, 0x74, 0x5f, 0x64, 0x65, 0x6e,
  0x73, 0x65, 0x2f, 0x4d, 0x61, 0x74, 0x4d, 0x75, 0x6c, 0x3b, 0x73, 0x65,
  0x71, 0x75, 0x65, 0x6e, 0x74, 0x69, 0x61, 0x6c, 0x2f, 0x71, 0x75, 0x61,
  0x6e, 0x74, 0x5f, 0x64, 0x65, 0x6e, 0x73, 0x65, 0x2f, 0x42, 0x69, 0x61,
  0x73, 0x41, 0x64, 0x64, 0x00, 0x00, 0x00, 0x00, 0x02, 0x00, 0x00, 0x00,
  0x01, 0x00, 0x00, 0x00, 0x02, 0x00, 0x00, 0x00, 0xd2, 0xfa, 0xff, 0xff,
  0x00, 0x00, 0x00, 0x01, 0x14, 0x00, 0x00, 0x00, 0x34, 0x00, 0x00, 0x00,
  0x0b, 0x00, 0x00, 0x00, 0x00, 0x00, 0x00, 0x02, 0x40, 0x00, 0x00, 0x00,
  0x4c, 0xfa, 0xff, 0xff, 0x08, 0x00, 0x00, 0x00, 0x14, 0x00, 0x00, 0x00,
  0x01, 0x00, 0x00, 0x00, 0x00, 0x00, 0x00, 0x00, 0x00, 0x00, 0x00, 0x00,
  0x00, 0x00, 0x00, 0x00, 0x01, 0x00, 0x00, 0x00, 0x73, 0x9f, 0x92, 0x39,
  0x12, 0x00, 0x00, 0x00, 0x74, 0x66, 0x6c, 0x2e, 0x70, 0x73, 0x65, 0x75,
  0x64, 0x6f, 0x5f, 0x71, 0x63, 0x6f, 0x6e, 0x73, 0x74, 0x32, 0x00, 0x00,
  0x01, 0x00, 0x00, 0x00, 0x02, 0x00, 0x00, 0x00, 0x32, 0xfb, 0xff, 0xff,
  0x00, 0x00, 0x00, 0x01, 0x14, 0x00, 0x00, 0x00, 0x30, 0x00, 0x00, 0x00,
  0x0a, 0x00, 0x00, 0x00, 0x00, 0x00, 0x00, 0x09, 0x84, 0x00, 0x00, 0x00,
  0xac, 0xfa, 0xff, 0xff, 0x08, 0x00, 0x00, 0x00, 0x10, 0x00, 0x00, 0x00,
  0x01, 0x00, 0x00, 0x00, 0x00, 0x00, 0x00, 0x00, 0x00, 0x00, 0x00, 0x00,
  0x01, 0x00, 0x00, 0x00, 0xb9, 0x94, 0xa6, 0x3b, 0x5b, 0x00, 0x00, 0x00,
  0x73, 0x65, 0x71, 0x75, 0x65, 0x6e, 0x74, 0x69, 0x61, 0x6c, 0x2f, 0x71,
  0x75, 0x61, 0x6e, 0x74, 0x5f, 0x64, 0x65, 0x6e, 0x73, 0x65, 0x2f, 0x4d,
  0x61, 0x74, 0x4d, 0x75, 0x6c, 0x3b, 0x73, 0x65, 0x71, 0x75, 0x65, 0x6e,
  0x74, 0x69, 0x61, 0x6c, 0x2f, 0x71, 0x75, 0x61, 0x6e, 0x74, 0x5f, 0x64,
  0x65, 0x6e, 0x73, 0x65, 0x2f, 0x4c, 0x61, 0x73, 0x74, 0x56, 0x61, 0x6c,
  0x75, 0x65, 0x51, 0x75, 0x61, 0x6e, 0x74, 0x2f, 0x46, 0x61, 0x6b, 0x65,
  0x51, 0x75, 0x61, 0x6e, 0x74, 0x57, 0x69, 0x74, 0x68, 0x4d, 0x69, 0x6e,
  0x4d, 0x61, 0x78, 0x56, 0x61, 0x72, 0x73, 0x00, 0x02, 0x00, 0x00, 0x00,
  0x02, 0x00, 0x00, 0x00, 0x20, 0x01, 0x00, 0x00, 0x82, 0xfb, 0xff, 0xff,
  0x00, 0x00, 0x00, 0x01, 0x18, 0x00, 0x00, 0x00, 0x20, 0x00, 0x00, 0x00,
  0x3c, 0x00, 0x00, 0x00, 0x09, 0x00, 0x00, 0x00, 0x00, 0x00, 0x00, 0x09,
  0x50, 0x00, 0x00, 0x00, 0x02, 0x00, 0x00, 0x00, 0xff, 0xff, 0xff, 0xff,
  0x20, 0x01, 0x00, 0x00, 0x64, 0xfb, 0xff, 0xff, 0x08, 0x00, 0x00, 0x00,
  0x10, 0x00, 0x00, 0x00, 0x01, 0x00, 0x00, 0x00, 0xb1, 0xff, 0xff, 0xff,
  0xff, 0xff, 0xff, 0xff, 0x01, 0x00, 0x00, 0x00, 0x1d, 0x54, 0x61, 0x3d,
  0x1a, 0x00, 0x00, 0x00, 0x73, 0x65, 0x71, 0x75, 0x65, 0x6e, 0x74, 0x69,
  0x61, 0x6c, 0x2f, 0x66, 0x6c, 0x61, 0x74, 0x74, 0x65, 0x6e, 0x2f, 0x52,
  0x65, 0x73, 0x68, 0x61, 0x70, 0x65, 0x00, 0x00, 0x02, 0x00, 0x00, 0x00,
  0x01, 0x00, 0x00, 0x00, 0x20, 0x01, 0x00, 0x00, 0xfa, 0xfb, 0xff, 0xff,
  0x00, 0x00, 0x00, 0x01, 0x18, 0x00, 0x00, 0x00, 0x28, 0x00, 0x00, 0x00,
  0x44, 0x00, 0x00, 0x00, 0x08, 0x00, 0x00, 0x00, 0x00, 0x00, 0x00, 0x09,
  0x60, 0x00, 0x00, 0x00, 0x04, 0x00, 0x00, 0x00, 0xff, 0xff, 0xff, 0xff,
  0x06, 0x00, 0x00, 0x00, 0x06, 0x00, 0x00, 0x00, 0x08, 0x00, 0x00, 0x00,
  0xe4, 0xfb, 0xff, 0xff, 0x08, 0x00, 0x00, 0x00, 0x10, 0x00, 0x00, 0x00,
  0x01, 0x00, 0x00, 0x00, 0xb1, 0xff, 0xff, 0xff, 0xff, 0xff, 0xff, 0xff,
  0x01, 0x00, 0x00, 0x00, 0x1d, 0x54, 0x61, 0x3d, 0x20, 0x00, 0x00, 0x00,
  0x73, 0x65, 0x71, 0x75, 0x65, 0x6e, 0x74, 0x69, 0x61, 0x6c, 0x2f, 0x6d,
  0x61, 0x78, 0x5f, 0x70, 0x6f, 0x6f, 0x6c, 0x69, 0x6e, 0x67, 0x32, 0x64,
  0x2f, 0x4d, 0x61, 0x78, 0x50, 0x6f, 0x6f, 0x6c, 0x00, 0x00, 0x00, 0x00,
  0x04, 0x00, 0x00, 0x00, 0x01, 0x00, 0x00, 0x00, 0x06, 0x00, 0x00, 0x00,
  0x06, 0x00, 0x00, 0x00, 0x08, 0x00, 0x00, 0x00, 0x8a, 0xfc, 0xff, 0xff,
  0x00, 0x00, 0x00, 0x01, 0x18, 0x00, 0x00, 0x00, 0x28, 0x00, 0x00, 0x00,
  0x48, 0x00, 0x00, 0x00, 0x07, 0x00, 0x00, 0x00, 0x00, 0x00, 0x00, 0x09,
  0xa0, 0x00, 0x00, 0x00, 0x04, 0x00, 0x00, 0x00, 0xff, 0xff, 0xff, 0xff,
  0x0d, 0x00, 0x00, 0x00, 0x0d, 0x00, 0x00, 0x00, 0x08, 0x00, 0x00, 0x00,
  0x74, 0xfc, 0xff, 0xff, 0x08, 0x00, 0x00, 0x00, 0x14, 0x00, 0x00, 0x00,
  0x01, 0x00, 0x00, 0x00, 0xb1, 0xff, 0xff, 0xff, 0xff, 0xff, 0xff, 0xff,
  0x00, 0x00, 0x00, 0x00, 0x01, 0x00, 0x00, 0x00, 0x1d, 0x54, 0x61, 0x3d,
  0x5c, 0x00, 0x00, 0x00, 0x73, 0x65, 0x71, 0x75, 0x65, 0x6e, 0x74, 0x69,
  0x61, 0x6c, 0x2f, 0x71, 0x75, 0x61, 0x6e, 0x74, 0x5f, 0x63, 0x6f, 0x6e,
  0x76, 0x32, 0x64, 0x2f, 0x52, 0x65, 0x6c, 0x75, 0x3b, 0x73, 0x65, 0x71,
  0x75, 0x65, 0x6e, 0x74, 0x69, 0x61, 0x6c, 0x2f, 0x71, 0x75, 0x61, 0x6e,
  0x74, 0x5f, 0x63, 0x6f, 0x6e, 0x76, 0x32, 0x64, 0x2f, 0x42, 0x69, 0x61,
  0x73, 0x41, 0x64, 0x64, 0x3b, 0x73, 0x65, 0x71, 0x75, 0x65, 0x6e, 0x74,
  0x69, 0x61, 0x6c, 0x2f, 0x71, 0x75, 0x61, 0x6e, 0x74, 0x5f, 0x63, 0x6f,
  0x6e, 0x76, 0x32, 0x64, 0x2f, 0x43, 0x6f, 0x6e, 0x76, 0x32, 0x44, 0x3b,
  0x00, 0x00, 0x00, 0x00, 0x04, 0x00, 0x00, 0x00, 0x01, 0x00, 0x00, 0x00,
  0x0d, 0x00, 0x00, 0x00, 0x0d, 0x00, 0x00, 0x00, 0x08, 0x00, 0x00, 0x00,
  0x5a, 0xfd, 0xff, 0xff, 0x00, 0x00, 0x00, 0x01, 0x18, 0x00, 0x00, 0x00,
  0x28, 0x00, 0x00, 0x00, 0x44, 0x00, 0x00, 0x00, 0x06, 0x00, 0x00, 0x00,
  0x00, 0x00, 0x00, 0x09, 0x70, 0x00, 0x00, 0x00, 0x04, 0x00, 0x00, 0x00,
  0xff, 0xff, 0xff, 0xff, 0x20, 0x00, 0x00, 0x00, 0x20, 0x00, 0x00, 0x00,
  0x01, 0x00, 0x00, 0x00, 0x44, 0xfd, 0xff, 0xff, 0x08, 0x00, 0x00, 0x00,
  0x10, 0x00, 0x00, 0x00, 0x01, 0x00, 0x00, 0x00, 0x80, 0xff, 0xff, 0xff,
  0xff, 0xff, 0xff, 0xff, 0x01, 0x00, 0x00, 0x00, 0x67, 0x6d, 0xea, 0x3d,
  0x30, 0x00, 0x00, 0x00, 0x73, 0x65, 0x71, 0x75, 0x65, 0x6e, 0x74, 0x69,
  0x61, 0x6c, 0x2f, 0x72, 0x65, 0x73, 0x69, 0x7a, 0x69, 0x6e, 0x67, 0x2f,
  0x72, 0x65, 0x73, 0x69, 0x7a, 0x65, 0x2f, 0x52, 0x65, 0x73, 0x69, 0x7a,
  0x65, 0x4e, 0x65, 0x61, 0x72, 0x65, 0x73, 0x74, 0x4e, 0x65, 0x69, 0x67,
  0x68, 0x62, 0x6f, 0x72, 0x00, 0x00, 0x00, 0x00, 0x04, 0x00, 0x00, 0x00,
  0x01, 0x00, 0x00, 0x00, 0x20, 0x00, 0x00, 0x00, 0x20, 0x00, 0x00, 0x00,
  0x01, 0x00, 0x00, 0x00, 0x52, 0xfe, 0xff, 0xff, 0x00, 0x00, 0x00, 0x01,
  0x14, 0x00, 0x00, 0x00, 0x88, 0x00, 0x00, 0x00, 0x05, 0x00, 0x00, 0x00,
  0x00, 0x00, 0x00, 0x09, 0x94, 0x00, 0x00, 0x00, 0xcc, 0xfd, 0xff, 0xff,
  0x08, 0x00, 0x00, 0x00, 0x4c, 0x00, 0x00, 0x00, 0x08, 0x00, 0x00, 0x00,
  0x00, 0x00, 0x00, 0x00, 0x00, 0x00, 0x00, 0x00, 0x00, 0x00, 0x00, 0x00,
  0x00, 0x00, 0x00, 0x00, 0x00, 0x00, 0x00, 0x00, 0x00, 0x00, 0x00, 0x00,
  0x00, 0x00, 0x00, 0x00, 0x00, 0x00, 0x00, 0x00, 0x00, 0x00, 0x00, 0x00,
  0x00, 0x00, 0x00, 0x00, 0x00, 0x00, 0x00, 0x00, 0x00, 0x00, 0x00, 0x00,
  0x00, 0x00, 0x00, 0x00, 0x00, 0x00, 0x00, 0x00, 0x00, 0x00, 0x00, 0x00,
  0x00, 0x00, 0x00, 0x00, 0x00, 0x00, 0x00, 0x00, 0x08, 0x00, 0x00, 0x00,
  0x7f, 0x1d, 0x6b, 0x3b, 0x5e, 0x36, 0x85, 0x3b, 0xf5, 0xd5, 0x09, 0x3b,
  0x44, 0xdd, 0x16, 0x3b, 0x42, 0xa7, 0x12, 0x3b, 0x7b, 0x62, 0xcf, 0x3a,
  0x94, 0xdc, 0x2c, 0x3b, 0x8f, 0x2f, 0x1d, 0x3b, 0x12, 0x00, 0x00, 0x00,
  0x74, 0x66, 0x6c, 0x2e, 0x70, 0x73, 0x65, 0x75, 0x64, 0x6f, 0x5f, 0x71,
  0x63, 0x6f, 0x6e, 0x73, 0x74, 0x31, 0x00, 0x00, 0x04, 0x00, 0x00, 0x00,
  0x08, 0x00, 0x00, 0x00, 0x08, 0x00, 0x00, 0x00, 0x08, 0x00, 0x00, 0x00,
  0x01, 0x00, 0x00, 0x00, 0x12, 0xff, 0xff, 0xff, 0x00, 0x00, 0x00, 0x01,
  0x14, 0x00, 0x00, 0x00, 0x84, 0x00, 0x00, 0x00, 0x04, 0x00, 0x00, 0x00,
  0x00, 0x00, 0x00, 0x02, 0x90, 0x00, 0x00, 0x00, 0x8c, 0xfe, 0xff, 0xff,
  0x08, 0x00, 0x00, 0x00, 0x48, 0x00, 0x00, 0x00, 0x08, 0x00, 0x00, 0x00,
  0x00, 0x00, 0x00, 0x00, 0x00, 0x00, 0x00, 0x00, 0x00, 0x00, 0x00, 0x00,
  0x00, 0x00, 0x00, 0x00, 0x00, 0x00, 0x00, 0x00, 0x00, 0x00, 0x00, 0x00,
  0x00, 0x00, 0x00, 0x00, 0x00, 0x00, 0x00, 0x00, 0x00, 0x00, 0x00, 0x00,
  0x00, 0x00, 0x00, 0x00, 0x00, 0x00, 0x00, 0x00, 0x00, 0x00, 0x00, 0x00,
  0x00, 0x00, 0x00, 0x00, 0x00, 0x00, 0x00, 0x00, 0x00, 0x00, 0x00, 0x00,
  0x00, 0x00, 0x00, 0x00, 0x08, 0x00, 0x00, 0x00, 0x70, 0x4d, 0xd7, 0x39,
  0x3f, 0xf9, 0xf3, 0x39, 0xf3, 0x70, 0x7c, 0x39, 0xb9, 0x26, 0x8a, 0x39,
  0x8f, 0x4b, 0x86, 0x39, 0xa5, 0xe8, 0x3d, 0x39, 0x7f, 0x4b, 0x9e, 0x39,
  0xa5, 0xf0, 0x8f, 0x39, 0x11, 0x00, 0x00, 0x00, 0x74, 0x66, 0x6c, 0x2e,
  0x70, 0x73, 0x65, 0x75, 0x64, 0x6f, 0x5f, 0x71, 0x63, 0x6f, 0x6e, 0x73,
  0x74, 0x00, 0x00, 0x00, 0x01, 0x00, 0x00, 0x00, 0x08, 0x00, 0x00, 0x00,
  0xc2, 0xff, 0xff, 0xff, 0x00, 0x00, 0x00, 0x01, 0x14, 0x00, 0x00, 0x00,
  0x14, 0x00, 0x00, 0x00, 0x03, 0x00, 0x00, 0x00, 0x00, 0x00, 0x00, 0x02,
  0x1c, 0x00, 0x00, 0x00, 0xac, 0xff, 0xff, 0xff, 0x0f, 0x00, 0x00, 0x00,
  0x61, 0x72, 0x69, 0x74, 0x68, 0x2e, 0x63, 0x6f, 0x6e, 0x73, 0x74, 0x61,
  0x6e, 0x74, 0x31, 0x00, 0x01, 0x00, 0x00, 0x00, 0x02, 0x00, 0x00, 0x00,
  0x00, 0x00, 0x16, 0x00, 0x1c, 0x00, 0x18, 0x00, 0x17, 0x00, 0x10, 0x00,
  0x0c, 0x00, 0x08, 0x00, 0x00, 0x00, 0x00, 0x00, 0x00, 0x00, 0x07, 0x00,
  0x16, 0x00, 0x00, 0x00, 0x00, 0x00, 0x00, 0x01, 0x18, 0x00, 0x00, 0x00,
  0x18, 0x00, 0x00, 0x00, 0x02, 0x00, 0x00, 0x00, 0x00, 0x00, 0x00, 0x02,
  0x20, 0x00, 0x00, 0x00, 0x04, 0x00, 0x04, 0x00, 0x04, 0x00, 0x00, 0x00,
  0x0e, 0x00, 0x00, 0x00, 0x61, 0x72, 0x69, 0x74, 0x68, 0x2e, 0x63, 0x6f,
  0x6e, 0x73, 0x74, 0x61, 0x6e, 0x74, 0x00, 0x00, 0x01, 0x00, 0x00, 0x00,
  0x02, 0x00, 0x00, 0x00, 0x00, 0x00, 0x16, 0x00, 0x20, 0x00, 0x1c, 0x00,
  0x1b, 0x00, 0x14, 0x00, 0x10, 0x00, 0x0c, 0x00, 0x00, 0x00, 0x00, 0x00,
  0x08, 0x00, 0x07, 0x00, 0x16, 0x00, 0x00, 0x00, 0x00, 0x00, 0x00, 0x01,
  0x18, 0x00, 0x00, 0x00, 0x34, 0x00, 0x00, 0x00, 0x54, 0x00, 0x00, 0x00,
  0x01, 0x00, 0x00, 0x00, 0x00, 0x00, 0x00, 0x09, 0x68, 0x00, 0x00, 0x00,
  0x04, 0x00, 0x00, 0x00, 0xff, 0xff, 0xff, 0xff, 0x18, 0x01, 0x00, 0x00,
  0x80, 0x00, 0x00, 0x00, 0x01, 0x00, 0x00, 0x00, 0x0c, 0x00, 0x0c, 0x00,
  0x00, 0x00, 0x00, 0x00, 0x08, 0x00, 0x04, 0x00, 0x0c, 0x00, 0x00, 0x00,
  0x08, 0x00, 0x00, 0x00, 0x14, 0x00, 0x00, 0x00, 0x01, 0x00, 0x00, 0x00,
  0x80, 0xff, 0xff, 0xff, 0xff, 0xff, 0xff, 0xff, 0x00, 0x00, 0x00, 0x00,
  0x01, 0x00, 0x00, 0x00, 0x67, 0x6d, 0xea, 0x3d, 0x19, 0x00, 0x00, 0x00,
  0x73, 0x65, 0x72, 0x76, 0x69, 0x6e, 0x67, 0x5f, 0x64, 0x65, 0x66, 0x61,
  0x75, 0x6c, 0x74, 0x5f, 0x69, 0x6e, 0x70, 0x75, 0x74, 0x5f, 0x31, 0x3a,
  0x30, 0x00, 0x00, 0x00, 0x04, 0x00, 0x00, 0x00, 0x01, 0x00, 0x00, 0x00,
  0x18, 0x01, 0x00, 0x00, 0x80, 0x00, 0x00, 0x00, 0x01, 0x00, 0x00, 0x00,
  0x06, 0x00, 0x00, 0x00, 0x7c, 0x00, 0x00, 0x00, 0x5c, 0x00, 0x00, 0x00,
  0x48, 0x00, 0x00, 0x00, 0x38, 0x00, 0x00, 0x00, 0x18, 0x00, 0x00, 0x00,
  0x04, 0x00, 0x00, 0x00, 0xa8, 0xff, 0xff, 0xff, 0x19, 0x00, 0x00, 0x00,
  0x02, 0x00, 0x00, 0x00, 0x00, 0x00, 0x00, 0x19, 0xb8, 0xff, 0xff, 0xff,
  0x09, 0x00, 0x00, 0x00, 0x04, 0x00, 0x00, 0x00, 0x00, 0x00, 0x00, 0x09,
  0x0c, 0x00, 0x0c, 0x00, 0x0b, 0x00, 0x00, 0x00, 0x00, 0x00, 0x04, 0x00,
  0x0c, 0x00, 0x00, 0x00, 0x16, 0x00, 0x00, 0x00, 0x00, 0x00, 0x00, 0x16,
  0xe0, 0xff, 0xff, 0xff, 0x11, 0x00, 0x00, 0x00, 0x02, 0x00, 0x00, 0x00,
  0x00, 0x00, 0x00, 0x11, 0xf0, 0xff, 0xff, 0xff, 0x03, 0x00, 0x00, 0x00,
  0x03, 0x00, 0x00, 0x00, 0x00, 0x00, 0x00, 0x03, 0x0c, 0x00, 0x10, 0x00,
  0x0f, 0x00, 0x00, 0x00, 0x08, 0x00, 0x04, 0x00, 0x0c, 0x00, 0x00, 0x00,
  0x61, 0x00, 0x00, 0x00, 0x03, 0x00, 0x00, 0x00, 0x00, 0x00, 0x00, 0x61
