  0x20, 0x00, 0x00, 0x00, 0x54, 0x46, 0x4c, 0x33, 0x00, 0x00, 0x00, 0x00,
  0x14, 0x00, 0x20, 0x00, 0x1c, 0x00, 0x18, 0x00, 0x14, 0x00, 0x10, 0x00,
  0x0c, 0x00, 0x00, 0x00, 0x08, 0x00, 0x04, 0x00, 0x14, 0x00, 0x00, 0x00,
  0x1c, 0x00, 0x00, 0x00, 0x84, 0x00, 0x00, 0x00, 0x04, 0x01, 0x00, 0x00,
  0xd4, 0x06, 0x00, 0x00, 0xe4, 0x06, 0x00, 0x00, 0x60, 0x10, 0x00, 0x00,
  0x03, 0x00, 0x00, 0x00, 0x01, 0x00, 0x00, 0x00, 0x04, 0x00, 0x00, 0x00,
  0x6a, 0xf8, 0xff, 0xff, 0x0c, 0x00, 0x00, 0x00, 0x1c, 0x00, 0x00, 0x00,
  0x3c, 0x00, 0x00, 0x00, 0x0f, 0x00, 0x00, 0x00, 0x73, 0x65, 0x72, 0x76,
  0x69, 0x6e, 0x67, 0x5f, 0x64, 0x65, 0x66, 0x61, 0x75, 0x6c, 0x74, 0x00,
  0x01, 0x00, 0x00, 0x00, 0x04, 0x00, 0x00, 0x00, 0x70, 0xff, 0xff, 0xff,
  0x0c, 0x00, 0x00, 0x00, 0x04, 0x00, 0x00, 0x00, 0x0b, 0x00, 0x00, 0x00,
  0x71, 0x75, 0x61, 0x6e, 0x74, 0x5f, 0x64, 0x65, 0x6e, 0x73, 0x65, 0x00,
  0x01, 0x00, 0x00, 0x00, 0x04, 0x00, 0x00, 0x00, 0x0e, 0xf9, 0xff, 0xff,
  0x04, 0x00, 0x00, 0x00, 0x07, 0x00, 0x00, 0x00, 0x69, 0x6e, 0x70, 0x75,
  0x74, 0x5f, 0x31, 0x00, 0x03, 0x00, 0x00, 0x00, 0x5c, 0x00, 0x00, 0x00,
  0x2c, 0x00, 0x00, 0x00, 0x04, 0x00, 0x00, 0x00, 0xb8, 0xff, 0xff, 0xff,
  0x10, 0x00, 0x00, 0x00, 0x04, 0x00, 0x00, 0x00, 0x13, 0x00, 0x00, 0x00,
  0x43, 0x4f, 0x4e, 0x56, 0x45, 0x52, 0x53, 0x49, 0x4f, 0x4e, 0x5f, 0x4d,
  0x45, 0x54, 0x41, 0x44, 0x41, 0x54, 0x41, 0x00, 0xdc, 0xff, 0xff, 0xff,
  0x0f, 0x00, 0x00, 0x00, 0x04, 0x00, 0x00, 0x00, 0x13, 0x00, 0x00, 0x00,
  0x6d, 0x69, 0x6e, 0x5f, 0x72, 0x75, 0x6e, 0x74, 0x69, 0x6d, 0x65, 0x5f,
  0x76, 0x65, 0x72, 0x73, 0x69, 0x6f, 0x6e, 0x00, 0x08, 0x00, 0x0c, 0x00,
  0x08, 0x00, 0x04, 0x00, 0x08, 0x00, 0x00, 0x00, 0x0e, 0x00, 0x00, 0x00,
  0x04, 0x00, 0x00, 0x00, 0x13, 0x00, 0x00, 0x00, 0x6d, 0x69, 0x6e, 0x5f,
  0x72, 0x75, 0x6e, 0x74, 0x69, 0x6d, 0x65, 0x5f, 0x76, 0x65, 0x72, 0x73,
  0x69, 0x6f, 0x6e, 0x00, 0x11, 0x00, 0x00, 0x00, 0xcc, 0x05, 0x00, 0x00,
  0xc4, 0x05, 0x00, 0x00, 0xac, 0x05, 0x00, 0x00, 0x94, 0x05, 0x00, 0x00,
  0x64, 0x05, 0x00, 0x00, 0x54, 0x03, 0x00, 0x00, 0x4c, 0x03, 0x00, 0x00,
  0x44, 0x03, 0x00, 0x00, 0x3c, 0x03, 0x00, 0x00, 0x34, 0x03, 0x00, 0x00,
  0xe4, 0x00, 0x00, 0x00, 0xcc, 0x00, 0x00, 0x00, 0xc4, 0x00, 0x00, 0x00,
  0xbc, 0x00, 0x00, 0x00, 0x9c, 0x00, 0x00, 0x00, 0x7c, 0x00, 0x00, 0x00,
  0x04, 0x00, 0x00, 0x00, 0xee, 0xf9, 0xff, 0xff, 0x04, 0x00, 0x00, 0x00,
  0x68, 0x00, 0x00, 0x00, 0x10, 0x00, 0x00, 0x00, 0x00, 0x00, 0x00, 0x00,
  0x08, 0x00, 0x0e, 0x00, 0x08, 0x00, 0x04, 0x00, 0x08, 0x00, 0x00, 0x00,
  0x10, 0x00, 0x00, 0x00, 0x2c, 0x00, 0x00, 0x00, 0x00, 0x00, 0x06, 0x00,
  0x08, 0x00, 0x04, 0x00, 0x06, 0x00, 0x00, 0x00, 0x04, 0x00, 0x00, 0x00,
  0x02, 0x00, 0x00, 0x00, 0xeb, 0x03, 0x00, 0x00, 0xd0, 0x07, 0x00, 0x00,
  0x0c, 0x00, 0x18, 0x00, 0x14, 0x00, 0x10, 0x00, 0x0c, 0x00, 0x04, 0x00,
  0x0c, 0x00, 0x00, 0x00, 0x81, 0x7b, 0x0a, 0x3d, 0xf7, 0xb0, 0x3c, 0x11,
  0x02, 0x00, 0x00, 0x00, 0x02, 0x00, 0x00, 0x00, 0x04, 0x00, 0x00, 0x00,
  0x06, 0x00, 0x00, 0x00, 0x32, 0x2e, 0x31, 0x37, 0x2e, 0x31, 0x00, 0x00,
  0x62, 0xfa, 0xff, 0xff, 0x04, 0x00, 0x00, 0x00, 0x10, 0x00, 0x00, 0x00,
  0x00, 0x00, 0x00, 0x00, 0x00, 0x00, 0x00, 0x00, 0x00, 0x00, 0x00, 0x00,
  0x00, 0x00, 0x00, 0x00, 0x7e, 0xfa, 0xff, 0xff, 0x04, 0x00, 0x00, 0x00,
  0x10, 0x00, 0x00, 0x00, 0x32, 0x2e, 0x33, 0x2e, 0x30, 0x00, 0x00, 0x00,
  0x00, 0x00, 0x00, 0x00, 0x00, 0x00, 0x00, 0x00, 0x60, 0xf2, 0xff, 0xff,
  0x64, 0xf2, 0xff, 0xff, 0xa2, 0xfa, 0xff, 0xff, 0x04, 0x00, 0x00, 0x00,
  0x08, 0x00, 0x00, 0x00, 0x37, 0xf9, 0xff, 0xff, 0xd1, 0x06, 0x00, 0x00,
  0xb6, 0xfa, 0xff, 0xff, 0x04, 0x00, 0x00, 0x00, 0x40, 0x02, 0x00, 0x00,
  0xfb, 0xb8, 0x95, 0x47, 0xfb, 0xbc, 0xb6, 0x5b, 0xea, 0x28, 0xfa, 0x04,
  0xdf, 0x22, 0xfc, 0xf4, 0x06, 0xfc, 0xd7, 0xf7, 0x01, 0xeb, 0xd4, 0x02,
  0x0b, 0x07, 0x0e, 0xf7, 0x10, 0xde, 0x01, 0x0e, 0x04, 0x0e, 0x09, 0xf4,
  0xda, 0x14, 0x17, 0xe0, 0xef, 0x1a, 0x05, 0x04, 0x17, 0x15, 0xfa, 0x01,
  0xf2, 0xae, 0x95, 0x2a, 0xea, 0xb7, 0xc2, 0x32, 0xfa, 0x34, 0x2d, 0xe1,
  0xd1, 0x12, 0x19, 0xfc, 0x16, 0x15, 0x00, 0xfe, 0xf1, 0x12, 0xe3, 0x0e,
  0x1e, 0xf4, 0x1f, 0xf1, 0x0e, 0xe1, 0x04, 0xe9, 0x18, 0xf6, 0x1e, 0x0e,
  0xe5, 0x15, 0x02, 0xe9, 0xfd, 0x04, 0xd3, 0x07, 0x27, 0xe6, 0x0b, 0xe9,
  0x26, 0xd3, 0xb4, 0x3a, 0x22, 0xd2, 0xac, 0x3a, 0x28, 0x23, 0x0d, 0xf7,
  0xc5, 0x36, 0x01, 0xfc, 0xff, 0xf5, 0xeb, 0xf0, 0xe8, 0xf3, 0xe5, 0xfc,
  0xf3, 0x12, 0x16, 0x08, 0xf7, 0xff, 0xf8, 0xe2, 0x11, 0xf6, 0x1f, 0xfc,
  0x01, 0xf9, 0x03, 0xe8, 0xec, 0xe7, 0xfc, 0xfc, 0x1f, 0xfe, 0x0a, 0xf0,
  0x1b, 0xe0, 0x81, 0x36, 0x00, 0xad, 0xb8, 0x43, 0x13, 0x33, 0x42, 0xce,
  0xbc, 0x45, 0xf1, 0xf9, 0x29, 0x0e, 0x02, 0xe9, 0xd9, 0xfa, 0xe7, 0x17,
  0x06, 0x13, 0xff, 0xfe, 0x05, 0xd5, 0xee, 0xec, 0xf2, 0xd9, 0x0c, 0xd3,
  0xf6, 0x04, 0x13, 0xc9, 0xf1, 0xce, 0xf4, 0xfc, 0x22, 0x08, 0xf4, 0xfc,
  0xe4, 0xc4, 0xae, 0x30, 0x13, 0xb0, 0x9c, 0x45, 0x00, 0x5a, 0x10, 0xd2,
  0xe0, 0x3e, 0x02, 0xde, 0x04, 0xe6, 0xf3, 0xef, 0xd1, 0x0a, 0xd3, 0xe3,
  0xf4, 0x0c, 0xf8, 0x08, 0x1b, 0xd7, 0x04, 0xeb, 0xf9, 0x03, 0x06, 0xff,
  0x07, 0xef, 0xfc, 0xff, 0x20, 0xe4, 0x0a, 0xf1, 0x10, 0xfb, 0xfe, 0xf5,
  0x0e, 0xe5, 0xb2, 0x42, 0x07, 0xb7, 0x97, 0x64, 0x1a, 0x33, 0x1a, 0xdf,
  0xc6, 0x2c, 0x20, 0xf9, 0xfb, 0x26, 0xdd, 0xe7, 0xc6, 0xda, 0xf0, 0x05,
  0xf6, 0xe2, 0x0f, 0xe8, 0x1b, 0xed, 0x02, 0x1e, 0xef, 0x32, 0x14, 0x0f,
  0xfd, 0x1e, 0x2e, 0xf0, 0xfa, 0xe3, 0xe5, 0x1b, 0x20, 0x08, 0x0a, 0x05,
  0x1e, 0x46, 0x3a, 0xbb, 0xfd, 0x6a, 0x64, 0xae, 0x07, 0xce, 0xd9, 0x26,
  0x25, 0xc1, 0xc9, 0x28, 0xea, 0xff, 0xe8, 0xf9, 0x1b, 0xd9, 0x03, 0xdd,
  0xfe, 0x10, 0xff, 0xd3, 0x0a, 0x0d, 0x0a, 0xeb, 0x15, 0x0c, 0xcc, 0x08,
  0x04, 0xd9, 0xf0, 0x2f, 0xeb, 0x05, 0x1a, 0xfb, 0xf2, 0xf9, 0x0f, 0x09,
  0x26, 0x39, 0x72, 0xe3, 0xda, 0x56, 0x64, 0xab, 0xf2, 0xdc, 0xf3, 0x15,
  0x26, 0xe9, 0xf8, 0x11, 0xe1, 0x08, 0xdf, 0x1f, 0x29, 0xf3, 0x22, 0xfd,
  0xe5, 0xeb, 0xf0, 0xdb, 0xef, 0x2f, 0x0b, 0xe4, 0x00, 0x10, 0xca, 0xef,
  0x14, 0xe4, 0xf3, 0x0e, 0x05, 0xf5, 0xea, 0x16, 0x08, 0xe4, 0x05, 0xf5,
  0xf7, 0x2e, 0x64, 0xe4, 0x14, 0x62, 0x3c, 0xb2, 0xc9, 0xa6, 0xbe, 0x0c,
  0x14, 0xd3, 0xe2, 0x28, 0xf4, 0xde, 0xff, 0x1f, 0x2e, 0xeb, 0x07, 0x0e,
  0xe2, 0x11, 0x07, 0xff, 0xe9, 0x37, 0x0c, 0xf0, 0xfd, 0x10, 0xf6, 0x1a,
  0x33, 0xec, 0xe0, 0x14, 0xfa, 0x0b, 0x1b, 0xf5, 0x1f, 0xee, 0xfb, 0xf0,
  0x0f, 0x1f, 0x47, 0xa8, 0xf2, 0x26, 0x35, 0xb0, 0xfb, 0xc9, 0xd7, 0xf4,
  0x1d, 0xba, 0x0f, 0x1a, 0x0a, 0xf3, 0x1a, 0x13, 0x05, 0x01, 0xdd, 0x01,
  0x1a, 0x1c, 0xda, 0xf3, 0xf5, 0x28, 0x17, 0x03, 0xff, 0xfd, 0xeb, 0xee,
  0x2f, 0x05, 0x08, 0x09, 0xf5, 0x04, 0x1f, 0x05, 0x04, 0x0a, 0xf1, 0x18,
  0x26, 0x45, 0x2c, 0xb8, 0xef, 0x53, 0x47, 0xd0, 0x12, 0xcf, 0xbe, 0x13,
  0x44, 0xd3, 0xf5, 0x1d, 0xef, 0x09, 0xfe, 0x1c, 0x0c, 0x16, 0x21, 0xdf,
  0xf7, 0x00, 0xed, 0xf0, 0x08, 0x15, 0x18, 0xea, 0x23, 0x0d, 0xc6, 0xfb,
  0x1a, 0xd6, 0xf5, 0x20, 0x09, 0xf9, 0x09, 0x0b, 0xf3, 0xff, 0x16, 0x09,
  0xed, 0x27, 0x4b, 0xb1, 0xe7, 0x21, 0x6b, 0xc1, 0xdc, 0xd9, 0xd4, 0xfa,
  0x2b, 0xd2, 0x1c, 0x2e, 0x23, 0x0c, 0x03, 0x0e, 0x0e, 0xe7, 0x0f, 0xfb,
  0xfc, 0xef, 0x09, 0xde, 0xf8, 0x0c, 0xfe, 0x07, 0x1d, 0xfe, 0xdf, 0x32,
  0xfc, 0xde, 0xeb, 0x10, 0x10, 0x00, 0x1b, 0x24, 0x16, 0xfe, 0x15, 0x18,
  0xc8, 0xf4, 0xff, 0xff, 0xcc, 0xf4, 0xff, 0xff, 0xd0, 0xf4, 0xff, 0xff,
  0xd4, 0xf4, 0xff, 0xff, 0x12, 0xfd, 0xff, 0xff, 0x04, 0x00, 0x00, 0x00,
  0x00, 0x02, 0x00, 0x00, 0x01, 0xd3, 0x70, 0xe3, 0xef, 0xc9, 0xfd, 0xab,
  0xf4, 0x27, 0xd1, 0x24, 0xdc, 0x0a, 0x12, 0x09, 0xee, 0xfe, 0xf4, 0xd9,
  0xbe, 0xcd, 0xdb, 0xd9, 0x39, 0x0c, 0x37, 0xd7, 0xf0, 0x9e, 0xa1, 0xdc,
  0xe3, 0x0d, 0x24, 0xf8, 0xa4, 0xb1, 0xd8, 0xdf, 0x7f, 0x10, 0x12, 0x2f,
  0xd0, 0xee, 0xf7, 0xe4, 0x5c, 0xd0, 0x07, 0xd7, 0xa7, 0xa4, 0x9e, 0xe7,
  0x0e, 0xfc, 0x1d, 0x33, 0x99, 0xf9, 0x05, 0x23, 0x48, 0xf8, 0xce, 0x81,
  0x8e, 0x1f, 0x03, 0xd6, 0x66, 0xf3, 0xd2, 0xb5, 0xc6, 0x37, 0x01, 0xf9,
  0x32, 0x0c, 0xe0, 0x98, 0x3f, 0x63, 0x29, 0xe5, 0x48, 0xef, 0xd6, 0xc9,
  0xc2, 0x11, 0xe7, 0xfd, 0x3d, 0xd1, 0x90, 0xcf, 0x0b, 0x3b, 0x05, 0xee,
  0x5c, 0xef, 0xe2, 0x83, 0x10, 0x12, 0x10, 0xec, 0x33, 0xbd, 0xa8, 0xb4,
  0xc7, 0x26, 0x0f, 0xf2, 0x3e, 0x09, 0xe7, 0x96, 0x9b, 0x59, 0xfb, 0xf5,
  0xf8, 0xd2, 0xb8, 0xcf, 0x96, 0x38, 0x0e, 0xe5, 0xf0, 0xdc, 0x8e, 0xc0,
  0xa0, 0xe0, 0x03, 0x05, 0x03, 0xc9, 0xba, 0xe9, 0xa8, 0xf7, 0x11, 0x01,
  0x23, 0xdd, 0xa1, 0xda, 0xb9, 0xd8, 0xd8, 0xf7, 0x26, 0xb8, 0xbf, 0x9d,
  0x91, 0xdd, 0xd4, 0x33, 0x01, 0xcf, 0x81, 0xcb, 0xa3, 0x31, 0x0a, 0x25,
  0x1e, 0xe9, 0xb7, 0xb9, 0xd4, 0xcc, 0x07, 0x0b, 0x07, 0xc6, 0x88, 0xcd,
  0xe5, 0xf8, 0x36, 0xe5, 0x10, 0xe7, 0x15, 0x4a, 0x3c, 0xd5, 0xc5, 0xcc,
  0xea, 0xdb, 0x1f, 0x1d, 0x32, 0xf9, 0xcc, 0x9d, 0xd4, 0xe0, 0x1d, 0x45,
  0x56, 0xe2, 0xbf, 0xc8, 0x09, 0xc6, 0x22, 0x15, 0x26, 0x1f, 0xc7, 0x81,
  0xe8, 0xe5, 0x21, 0x34, 0x28, 0xf5, 0xbb, 0xad, 0x0c, 0xf1, 0x1e, 0x18,
  0xfe, 0x17, 0xac, 0xc9, 0x16, 0xe1, 0x25, 0x33, 0x25, 0xf8, 0xb8, 0xbd,
  0x09, 0xd5, 0x03, 0x1e, 0x28, 0x04, 0xbe, 0xa4, 0xe2, 0x2d, 0x42, 0xe5,
  0x46, 0x34, 0x39, 0xfd, 0xd8, 0x2f, 0xf8, 0x55, 0x06, 0x3d, 0xee, 0xb9,
  0xa4, 0x29, 0x30, 0x55, 0x56, 0xd9, 0x13, 0xe6, 0x99, 0xeb, 0x08, 0x1f,
  0x00, 0x26, 0xc6, 0x81, 0x8e, 0xa9, 0x65, 0x34, 0xef, 0x49, 0xb9, 0xc7,
  0xc8, 0x13, 0x6f, 0x39, 0xf3, 0x07, 0xc0, 0x93, 0xc7, 0x13, 0x2f, 0x29,
  0x0c, 0xf8, 0xdc, 0xaa, 0x32, 0x55, 0x41, 0x22, 0xdd, 0x04, 0x16, 0x94,
  0x1a, 0x1a, 0xa5, 0xa4, 0xe0, 0x34, 0x09, 0xf9, 0x0f, 0xde, 0xa8, 0x9d,
  0xd4, 0x2c, 0x2c, 0xf7, 0x31, 0xff, 0x81, 0xb0, 0xcc, 0x22, 0xdf, 0x20,
  0x26, 0xec, 0xb8, 0xa1, 0x2b, 0x3c, 0x07, 0x08, 0x37, 0xe6, 0x94, 0xca,
  0x07, 0xee, 0x08, 0x0c, 0x27, 0xe9, 0xbb, 0xd4, 0xc8, 0xfd, 0x07, 0x02,
  0x39, 0xd2, 0xac, 0x8a, 0xba, 0x34, 0x08, 0xf7, 0xf1, 0xf6, 0x84, 0x92,
  0xbd, 0x08, 0x2b, 0x02, 0x2b, 0xdd, 0xc6, 0xc7, 0xe7, 0x19, 0xf6, 0xf3,
  0x18, 0xee, 0xa7, 0xac, 0xf4, 0x04, 0x4a, 0xe4, 0x0f, 0xdb, 0xba, 0xed,
  0xe4, 0x56, 0x39, 0x0b, 0x12, 0xf4, 0xd4, 0xbd, 0xda, 0x51, 0x2f, 0xf8,
  0x1c, 0xbe, 0xa7, 0xa0, 0xca, 0x19, 0x14, 0xf7, 0xf9, 0xd7, 0xc1, 0xc0,
  0xc1, 0xcb, 0x02, 0x28, 0x08, 0xdd, 0x81, 0xbd, 0xda, 0x2c, 0x48, 0xe4,
  0xee, 0xb8, 0x8f, 0x93, 0xbf, 0xec, 0x13, 0x14, 0xf2, 0xcf, 0x1e, 0x33,
  0x3d, 0xf1, 0xe5, 0xa7, 0xe8, 0xd3, 0x20, 0x2a, 0x3e, 0x1c, 0xd5, 0x94,
  0xf8, 0xd0, 0x0a, 0x2c, 0x52, 0x09, 0xb9, 0x85, 0xf7, 0xf5, 0x27, 0x1f,
  0x45, 0x08, 0xcd, 0x81, 0x0d, 0xdb, 0xfe, 0x30, 0x0f, 0xef, 0xd1, 0x86,
  0xec, 0xdb, 0x2d, 0x22, 0x07, 0x16, 0xbe, 0x8f, 0xff, 0xda, 0x19, 0x2b,
  0x20, 0x0a, 0xbb, 0x9f, 0xcd, 0xba, 0x0e, 0x26, 0x33, 0x06, 0xf8, 0xc7,
  0x1e, 0xff, 0xff, 0xff, 0x04, 0x00, 0x00, 0x00, 0x20, 0x00, 0x00, 0x00,
  0xe1, 0xfd, 0xff, 0xff, 0xb4, 0x01, 0x00, 0x00, 0xde, 0x02, 0x00, 0x00,
  0x8d, 0x00, 0x00, 0x00, 0x1e, 0x02, 0x00, 0x00, 0x37, 0x02, 0x00, 0x00,
  0xd4, 0xfe, 0xff, 0xff, 0x06, 0x01, 0x00, 0x00, 0x4a, 0xff, 0xff, 0xff,
  0x04, 0x00, 0x00, 0x00, 0x08, 0x00, 0x00, 0x00, 0xff, 0xff, 0xff, 0xff,
  0x20, 0x01, 0x00, 0x00, 0x5e, 0xff, 0xff, 0xff, 0x04, 0x00, 0x00, 0x00,
  0x08, 0x00, 0x00, 0x00, 0x20, 0x00, 0x00, 0x00, 0x20, 0x00, 0x00, 0x00,
  0x38, 0xf7, 0xff, 0xff, 0x3c, 0xf7, 0xff, 0xff, 0x0f, 0x00, 0x00, 0x00,
  0x4d, 0x4c, 0x49, 0x52, 0x20, 0x43, 0x6f, 0x6e, 0x76, 0x65, 0x72, 0x74,
  0x65, 0x64, 0x2e, 0x00, 0x01, 0x00, 0x00, 0x00, 0x14, 0x00, 0x00, 0x00,
  0x00, 0x00, 0x0e, 0x00, 0x18, 0x00, 0x14, 0x00, 0x10, 0x00, 0x0c, 0x00,
  0x08, 0x00, 0x04, 0x00, 0x0e, 0x00, 0x00, 0x00, 0x14, 0x00, 0x00, 0x00,
  0x1c, 0x00, 0x00, 0x00, 0xc8, 0x01, 0x00, 0x00, 0xcc, 0x01, 0x00, 0x00,
  0xd0, 0x01, 0x00, 0x00, 0x04, 0x00, 0x00, 0x00, 0x6d, 0x61, 0x69, 0x6e,
  0x00, 0x00, 0x00, 0x00, 0x06, 0x00, 0x00, 0x00, 0x74, 0x01, 0x00, 0x00,
  0x10, 0x01, 0x00, 0x00, 0xac, 0x00, 0x00, 0x00, 0x84, 0x00, 0x00, 0x00,
  0x40, 0x00, 0x00, 0x00, 0x04, 0x00, 0x00, 0x00, 0x12, 0xff, 0xff, 0xff,
  0x1c, 0x00, 0x00, 0x00, 0x00, 0x00, 0x00, 0x09, 0x1c, 0x00, 0x00, 0x00,
  0x20, 0x00, 0x00, 0x00, 0x05, 0x00, 0x00, 0x00, 0x00, 0x00, 0x06, 0x00,
  0x08, 0x00, 0x04, 0x00, 0x06, 0x00, 0x00, 0x00, 0x00, 0x00, 0x80, 0x3f,
  0x01, 0x00, 0x00, 0x00, 0x0c, 0x00, 0x00, 0x00, 0x01, 0x00, 0x00, 0x00,
  0x0b, 0x00, 0x00, 0x00, 0x4a, 0xff, 0xff, 0xff, 0x14, 0x00, 0x00, 0x00,
  0x00, 0x00, 0x00, 0x08, 0x10, 0x00, 0x00, 0x00, 0x14, 0x00, 0x00, 0x00,
  0x04, 0x00, 0x00, 0x00, 0xfc, 0xf7, 0xff, 0xff, 0x01, 0x00, 0x00, 0x00,
  0x0b, 0x00, 0x00, 0x00, 0x03, 0x00, 0x00, 0x00, 0x08, 0x00, 0x00, 0x00,
  0x09, 0x00, 0x00, 0x00, 0x0a, 0x00, 0x00, 0x00, 0x00, 0x00, 0x0a, 0x00,
  0x10, 0x00, 0x0c, 0x00, 0x08, 0x00, 0x04, 0x00, 0x0a, 0x00, 0x00, 0x00,
  0x0c, 0x00, 0x00, 0x00, 0x10, 0x00, 0x00, 0x00, 0x03, 0x00, 0x00, 0x00,
  0x01, 0x00, 0x00, 0x00, 0x08, 0x00, 0x00, 0x00, 0x02, 0x00, 0x00, 0x00,
  0x07, 0x00, 0x00, 0x00, 0x02, 0x00, 0x00, 0x00, 0xae, 0xff, 0xff, 0xff,
  0x24, 0x00, 0x00, 0x00, 0x00, 0x00, 0x00, 0x05, 0x34, 0x00, 0x00, 0x00,
  0x38, 0x00, 0x00, 0x00, 0x02, 0x00, 0x00, 0x00, 0x00, 0x00, 0x0e, 0x00,
  0x18, 0x00, 0x17, 0x00, 0x10, 0x00, 0x0c, 0x00, 0x08, 0x00, 0x04, 0x00,
  0x0e, 0x00, 0x00, 0x00, 0x02, 0x00, 0x00, 0x00, 0x02, 0x00, 0x00, 0x00,
  0x02, 0x00, 0x00, 0x00, 0x02, 0x00, 0x00, 0x00, 0x00, 0x00, 0x00, 0x01,
  0x01, 0x00, 0x00, 0x00, 0x07, 0x00, 0x00, 0x00, 0x01, 0x00, 0x00, 0x00,
  0x06, 0x00, 0x00, 0x00, 0x00, 0x00, 0x0e, 0x00, 0x18, 0x00, 0x14, 0x00,
  0x10, 0x00, 0x0c, 0x00, 0x0b, 0x00, 0x04, 0x00, 0x0e, 0x00, 0x00, 0x00,
  0x20, 0x00, 0x00, 0x00, 0x00, 0x00, 0x00, 0x01, 0x2c, 0x00, 0x00, 0x00,
  0x30, 0x00, 0x00, 0x00, 0x01, 0x00, 0x00, 0x00, 0x0c, 0x00, 0x14, 0x00,
  0x13, 0x00, 0x0c, 0x00, 0x08, 0x00, 0x07, 0x00, 0x0c, 0x00, 0x00, 0x00,
  0x00, 0x00, 0x00, 0x01, 0x02, 0x00, 0x00, 0x00, 0x02, 0x00, 0x00, 0x00,
  0x00, 0x00, 0x00, 0x01, 0x01, 0x00, 0x00, 0x00, 0x06, 0x00, 0x00, 0x00,
  0x03, 0x00, 0x00, 0x00, 0x05, 0x00, 0x00, 0x00, 0x04, 0x00, 0x00, 0x00,
  0x03, 0x00, 0x00, 0x00, 0x00, 0x00, 0x0e, 0x00, 0x14, 0x00, 0x00, 0x00,
  0x10, 0x00, 0x0c, 0x00, 0x0b, 0x00, 0x04, 0x00, 0x0e, 0x00, 0x00, 0x00,
  0x18, 0x00, 0x00, 0x00, 0x00, 0x00, 0x00, 0x4a, 0x18, 0x00, 0x00, 0x00,
  0x1c, 0x00, 0x00, 0x00, 0x08, 0x00, 0x08, 0x00, 0x00, 0x00, 0x07, 0x00,
  0x08, 0x00, 0x00, 0x00, 0x00, 0x00, 0x00, 0x01, 0x01, 0x00, 0x00, 0x00,
  0x05, 0x00, 0x00, 0x00, 0x02, 0x00, 0x00, 0x00, 0x00, 0x00, 0x00, 0x00,
  0x01, 0x00, 0x00, 0x00, 0x01, 0x00, 0x00, 0x00, 0x0c, 0x00, 0x00, 0x00,
  0x01, 0x00, 0x00, 0x00, 0x00, 0x00, 0x00, 0x00, 0x0d, 0x00, 0x00, 0x00,
  0xe8, 0x06, 0x00, 0x00, 0x8c, 0x06, 0x00, 0x00, 0x34, 0x06, 0x00, 0x00,
  0x80, 0x05, 0x00, 0x00, 0xbc, 0x04, 0x00, 0x00, 0x18, 0x04, 0x00, 0x00,
  0x44, 0x03, 0x00, 0x00, 0xb0, 0x02, 0x00, 0x00, 0x34, 0x02, 0x00, 0x00,
  0x88, 0x01, 0x00, 0x00, 0x24, 0x01, 0x00, 0x00, 0x80, 0x00, 0x00, 0x00,
  0x04, 0x00, 0x00, 0x00, 0x62, 0xf9, 0xff, 0xff, 0x00, 0x00, 0x00, 0x01,
  0x18, 0x00, 0x00, 0x00, 0x20, 0x00, 0x00, 0x00, 0x3c, 0x00, 0x00, 0x00,
  0x0d, 0x00, 0x00, 0x00, 0x00, 0x00, 0x00, 0x09, 0x50, 0x00, 0x00, 0x00,
  0x02, 0x00, 0x00, 0x00, 0xff, 0xff, 0xff, 0xff, 0x02, 0x00, 0x00, 0x00,
  0x44, 0xf9, 0xff, 0xff, 0x08, 0x00, 0x00, 0x00, 0x10, 0x00, 0x00, 0x00,
  0x01, 0x00, 0x00, 0x00, 0x80, 0xff, 0xff, 0xff, 0xff, 0xff, 0xff, 0xff,
  0x01, 0x00, 0x00, 0x00, 0x00, 0x00, 0x80, 0x3b, 0x19, 0x00, 0x00, 0x00,
  0x53, 0x74, 0x61, 0x74, 0x65, 0x66, 0x75, 0x6c, 0x50, 0x61, 0x72, 0x74,
  0x69, 0x74, 0x69, 0x6f, 0x6e, 0x65, 0x64, 0x43, 0x61, 0x6c, 0x6c, 0x3a,
  0x30, 0x00, 0x00, 0x00, 0x02, 0x00, 0x00, 0x00, 0x01, 0x00, 0x00, 0x00,
  0x02, 0x00, 0x00, 0x00, 0xda, 0xf9, 0xff, 0xff, 0x00, 0x00, 0x00, 0x01,
  0x18, 0x00, 0x00, 0x00, 0x20, 0x00, 0x00, 0x00, 0x40, 0x00, 0x00, 0x00,
  0x0c, 0x00, 0x00, 0x00, 0x00, 0x00, 0x00, 0x09, 0x78, 0x00, 0x00, 0x00,
  0x02, 0x00, 0x00, 0x00, 0xff, 0xff, 0xff, 0xff, 0x02, 0x00, 0x00, 0x00,
  0xbc, 0xf9, 0xff, 0xff, 0x08, 0x00, 0x00, 0x00, 0x14, 0x00, 0x00, 0x00,
  0x01, 0x00, 0x00, 0x00, 0x02, 0x00, 0x00, 0x00, 0x00, 0x00, 0x00, 0x00,
  0x00, 0x00, 0x00, 0x00, 0x01, 0x00, 0x00, 0x00, 0x0c, 0x6f, 0x90, 0x3d,
  0x3c, 0x00, 0x00, 0x00, 0x73, 0x65, 0x71, 0x75, 0x65, 0x6e, 0x74, 0x69,
  0x61, 0x6c, 0x2f, 0x71, 0x75, 0x61, 0x6e, 0x74, 0x5f, 0x64, 0x65, 0x6e,
  0x73, 0x65, 0x2f, 0x4d, 0x61, 0x74, 0x4d, 0x75, 0x6c, 0x3b, 0x73, 0x65,
  0x71, 0x75, 0x65, 0x6e, 0x74, 0x69, 0x61, 0x6c, 0x2f, 0x71, 0x75, 0x61,
  0x6e, 0x74, 0x5f, 0x64, 0x65, 0x6e, 0x73, 0x65, 0x2f, 0x42, 0x69, 0x61,
  0x73, 0x41, 0x64, 0x64, 0x00, 0x00, 0x00, 0x00, 0x02, 0x00, 0x00, 0x00,
  0x01, 0x00, 0x00, 0x00, 0x02, 0x00, 0x00, 0x00, 0xd2, 0xfa, 0xff, 0xff,
  0x00, 0x00, 0x00, 0x01, 0x14, 0x00, 0x00, 0x00, 0x34, 0x00, 0x00, 0x00,
  0x0b, 0x00, 0x00, 0x00, 0x00, 0x00, 0x00, 0x02, 0x40, 0x00, 0x00, 0x00,
  0x4c, 0xfa, 0xff, 0xff, 0x08, 0x00, 0x00, 0x00, 0x14, 0x00, 0x00, 0x00,
  0x01, 0x00, 0x00, 0x00, 0x00, 0x00, 0x00, 0x00, 0x00, 0x00, 0x00, 0x00,
  0x00, 0x00, 0x00, 0x00, 0x01, 0x00, 0x00, 0x00, 0xb9, 0xd3, 0x2c, 0x39,
  0x12, 0x00, 0x00, 0x00, 0x74, 0x66, 0x6c, 0x2e, 0x70, 0x73, 0x65, 0x75,
  0x64, 0x6f, 0x5f, 0x71, 0x63, 0x6f, 0x6e, 0x73, 0x74, 0x32, 0x00, 0x00,
  0x01, 0x00, 0x00, 0x00, 0x02, 0x00, 0x00, 0x00, 0x32, 0xfb, 0xff, 0xff,
  0x00, 0x00, 0x00, 0x01, 0x14, 0x00, 0x00, 0x00, 0x30, 0x00, 0x00, 0x00,
  0x0a, 0x00, 0x00, 0x00, 0x00, 0x00, 0x00, 0x09, 0x84, 0x00, 0x00, 0x00,
  0xac, 0xfa, 0xff, 0xff, 0x08, 0x00, 0x00, 0x00, 0x10, 0x00, 0x00, 0x00,
  0x01, 0x00, 0x00, 0x00, 0x00, 0x00, 0x00, 0x00, 0x00, 0x00, 0x00, 0x00,
  0x01, 0x00, 0x00, 0x00, 0xf6, 0xda, 0x84, 0x3b, 0x5b, 0x00, 0x00, 0x00,
  0x73, 0x65, 0x71, 0x75, 0x65, 0x6e, 0x74, 0x69, 0x61, 0x6c, 0x2f, 0x71,
  0x75, 0x61, 0x6e, 0x74, 0x5f, 0x64, 0x65, 0x6e, 0x73, 0x65, 0x2f, 0x4d,
  0x61, 0x74, 0x4d, 0x75, 0x6c, 0x3b, 0x73, 0x65, 0x71, 0x75, 0x65, 0x6e,
  0x74, 0x69, 0x61, 0x6c, 0x2f, 0x71, 0x75, 0x61, 0x6e, 0x74, 0x5f, 0x64,
  0x65, 0x6e, 0x73, 0x65, 0x2f, 0x4c, 0x61, 0x73, 0x74, 0x56, 0x61, 0x6c,
  0x75, 0x65, 0x51, 0x75, 0x61, 0x6e, 0x74, 0x2f, 0x46, 0x61, 0x6b, 0x65,
  0x51, 0x75, 0x61, 0x6e, 0x74, 0x57, 0x69, 0x74, 0x68, 0x4d, 0x69, 0x6e,
  0x4d, 0x61, 0x78, 0x56, 0x61, 0x72, 0x73, 0x00, 0x02, 0x00, 0x00, 0x00,
  0x02, 0x00, 0x00, 0x00, 0x20, 0x01, 0x00, 0x00, 0x82, 0xfb, 0xff, 0xff,
  0x00, 0x00, 0x00, 0x01, 0x18, 0x00, 0x00, 0x00, 0x20, 0x00, 0x00, 0x00,
  0x3c, 0x00, 0x00, 0x00, 0x09, 0x00, 0x00, 0x00, 0x00, 0x00, 0x00, 0x09,
  0x50, 0x00, 0x00, 0x00, 0x02, 0x00, 0x00, 0x00, 0xff, 0xff, 0xff, 0xff,
  0x20, 0x01, 0x00, 0x00, 0x64, 0xfb, 0xff, 0xff, 0x08, 0x00, 0x00, 0x00,
  0x10, 0x00, 0x00, 0x00, 0x01, 0x00, 0x00, 0x00, 0xb6, 0xff, 0xff, 0xff,
  0xff, 0xff, 0xff, 0xff, 0x01, 0x00, 0x00, 0x00, 0xcc, 0x82, 0x26, 0x3d,
  0x1a, 0x00, 0x00, 0x00, 0x73, 0x65, 0x71, 0x75, 0x65, 0x6e, 0x74, 0x69,
  0x61, 0x6c, 0x2f, 0x66, 0x6c, 0x61, 0x74, 0x74, 0x65, 0x6e, 0x2f, 0x52,
  0x65, 0x73, 0x68, 0x61, 0x70, 0x65, 0x00, 0x00, 0x02, 0x00, 0x00, 0x00,
  0x01, 0x00, 0x00, 0x00, 0x20, 0x01, 0x00, 0x00, 0xfa, 0xfb, 0xff, 0xff,
  0x00, 0x00, 0x00, 0x01, 0x18, 0x00, 0x00, 0x00, 0x28, 0x00, 0x00, 0x00,
  0x44, 0x00, 0x00, 0x00, 0x08, 0x00, 0x00, 0x00, 0x00, 0x00, 0x00, 0x09,
  0x60, 0x00, 0x00, 0x00, 0x04, 0x00, 0x00, 0x00, 0xff, 0xff, 0xff, 0xff,
  0x06, 0x00, 0x00, 0x00, 0x06, 0x00, 0x00, 0x00, 0x08, 0x00, 0x00, 0x00,
  0xe4, 0xfb, 0xff, 0xff, 0x08, 0x00, 0x00, 0x00, 0x10, 0x00, 0x00, 0x00,
  0x01, 0x00, 0x00, 0x00, 0xb6, 0xff, 0xff, 0xff, 0xff, 0xff, 0xff, 0xff,
  0x01, 0x00, 0x00, 0x00, 0xcc, 0x82, 0x26, 0x3d, 0x20, 0x00, 0x00, 0x00,
  0x73, 0x65, 0x71, 0x75, 0x65, 0x6e, 0x74, 0x69, 0x61, 0x6c, 0x2f, 0x6d,
  0x61, 0x78, 0x5f, 0x70, 0x6f, 0x6f, 0x6c, 0x69, 0x6e, 0x67, 0x32, 0x64,
  0x2f, 0x4d, 0x61, 0x78, 0x50, 0x6f, 0x6f, 0x6c, 0x00, 0x00, 0x00, 0x00,
  0x04, 0x00, 0x00, 0x00, 0x01, 0x00, 0x00, 0x00, 0x06, 0x00, 0x00, 0x00,
  0x06, 0x00, 0x00, 0x00, 0x08, 0x00, 0x00, 0x00, 0x8a, 0xfc, 0xff, 0xff,
  0x00, 0x00, 0x00, 0x01, 0x18, 0x00, 0x00, 0x00, 0x28, 0x00, 0x00, 0x00,
  0x48, 0x00, 0x00, 0x00, 0x07, 0x00, 0x00, 0x00, 0x00, 0x00, 0x00, 0x09,
  0xa0, 0x00, 0x00, 0x00, 0x04, 0x00, 0x00, 0x00, 0xff, 0xff, 0xff, 0xff,
  0x0d, 0x00, 0x00, 0x00, 0x0d, 0x00, 0x00, 0x00, 0x08, 0x00, 0x00, 0x00,
  0x74, 0xfc, 0xff, 0xff, 0x08, 0x00, 0x00, 0x00, 0x14, 0x00, 0x00, 0x00,
  0x01, 0x00, 0x00, 0x00, 0xb6, 0xff, 0xff, 0xff, 0xff, 0xff, 0xff, 0xff,
  0x00, 0x00, 0x00, 0x00, 0x01, 0x00, 0x00, 0x00, 0xcc, 0x82, 0x26, 0x3d,
  0x5c, 0x00, 0x00, 0x00, 0x73, 0x65, 0x71, 0x75, 0x65, 0x6e, 0x74, 0x69,
  0x61, 0x6c, 0x2f, 0x71, 0x75, 0x61, 0x6e, 0x74, 0x5f, 0x63, 0x6f, 0x6e,
  0x76, 0x32, 0x64, 0x2f, 0x52, 0x65, 0x6c, 0x75, 0x3b, 0x73, 0x65, 0x71,
  0x75, 0x65, 0x6e, 0x74, 0x69, 0x61, 0x6c, 0x2f, 0x71, 0x75, 0x61, 0x6e,
  0x74, 0x5f, 0x63, 0x6f, 0x6e, 0x76, 0x32, 0x64, 0x2f, 0x42, 0x69, 0x61,
  0x73, 0x41, 0x64, 0x64, 0x3b, 0x73, 0x65, 0x71, 0x75, 0x65, 0x6e, 0x74,
  0x69, 0x61, 0x6c, 0x2f, 0x71, 0x75, 0x61, 0x6e, 0x74, 0x5f, 0x63, 0x6f,
  0x6e, 0x76, 0x32, 0x64, 0x2f, 0x43, 0x6f, 0x6e, 0x76, 0x32, 0x44, 0x3b,
  0x00, 0x00, 0x00, 0x00, 0x04, 0x00, 0x00, 0x00, 0x01, 0x00, 0x00, 0x00,
  0x0d, 0x00, 0x00, 0x00, 0x0d, 0x00, 0x00, 0x00, 0x08, 0x00, 0x00, 0x00,
  0x5a, 0xfd, 0xff, 0xff, 0x00, 0x00, 0x00, 0x01, 0x18, 0x00, 0x00, 0x00,
  0x28, 0x00, 0x00, 0x00, 0x44, 0x00, 0x00, 0x00, 0x06, 0x00, 0x00, 0x00,
  0x00, 0x00, 0x00, 0x09, 0x70, 0x00, 0x00, 0x00, 0x04, 0x00, 0x00, 0x00,
  0xff, 0xff, 0xff, 0xff, 0x20, 0x00, 0x00, 0x00, 0x20, 0x00, 0x00, 0x00,
  0x01, 0x00, 0x00, 0x00, 0x44, 0xfd, 0xff, 0xff, 0x08, 0x00, 0x00, 0x00,
  0x10, 0x00, 0x00, 0x00, 0x01, 0x00, 0x00, 0x00, 0x80, 0xff, 0xff, 0xff,
  0xff, 0xff, 0xff, 0xff, 0x01, 0x00, 0x00, 0x00, 0xd4, 0x2e, 0x09, 0x3e,
  0x30, 0x00, 0x00, 0x00, 0x73, 0x65, 0x71, 0x75, 0x65, 0x6e, 0x74, 0x69,
  0x61, 0x6c, 0x2f, 0x72, 0x65, 0x73, 0x69, 0x7a, 0x69, 0x6e, 0x67, 0x2f,
  0x72, 0x65, 0x73, 0x69, 0x7a, 0x65, 0x2f, 0x52, 0x65, 0x73, 0x69, 0x7a,
  0x65, 0x4e, 0x65, 0x61, 0x72, 0x65, 0x73, 0x74, 0x4e, 0x65, 0x69, 0x67,
  0x68, 0x62, 0x6f, 0x72, 0x00, 0x00, 0x00, 0x00, 0x04, 0x00, 0x00, 0x00,
  0x01, 0x00, 0x00, 0x00, 0x20, 0x00, 0x00, 0x00, 0x20, 0x00, 0x00, 0x00,
  0x01, 0x00, 0x00, 0x00, 0x52, 0xfe, 0xff, 0xff, 0x00, 0x00, 0x00, 0x01,
  0x14, 0x00, 0x00, 0x00, 0x88, 0x00, 0x00, 0x00, 0x05, 0x00, 0x00, 0x00,
  0x00, 0x00, 0x00, 0x09, 0x94, 0x00, 0x00, 0x00, 0xcc, 0xfd, 0xff, 0xff,
  0x08, 0x00, 0x00, 0x00, 0x4c, 0x00, 0x00, 0x00, 0x08, 0x00, 0x00, 0x00,
  0x00, 0x00, 0x00, 0x00, 0x00, 0x00, 0x00, 0x00, 0x00, 0x00, 0x00, 0x00,
  0x00, 0x00, 0x00, 0x00, 0x00, 0x00, 0x00, 0x00, 0x00, 0x00, 0x00, 0x00,
  0x00, 0x00, 0x00, 0x00, 0x00, 0x00, 0x00, 0x00, 0x00, 0x00, 0x00, 0x00,
  0x00, 0x00, 0x00, 0x00, 0x00, 0x00, 0x00, 0x00, 0x00, 0x00, 0x00, 0x00,
  0x00, 0x00, 0x00, 0x00, 0x00, 0x00, 0x00, 0x00, 0x00, 0x00, 0x00, 0x00,
  0x00, 0x00, 0x00, 0x00, 0x00, 0x00, 0x00, 0x00, 0x08, 0x00, 0x00, 0x00,
  0x13, 0xe2, 0xae, 0x3a, 0xc6, 0x6e, 0x01, 0x3b, 0x39, 0x6a, 0x46, 0x3b,
  0x8b, 0x1e, 0x3c, 0x3b, 0x64, 0xcf, 0xd8, 0x3a, 0x8b, 0xbb, 0x2c, 0x3b,
  0xd6, 0xd3, 0x01, 0x3b, 0xb3, 0x79, 0x3b, 0x3b, 0x12, 0x00, 0x00, 0x00,
  0x74, 0x66, 0x6c, 0x2e, 0x70, 0x73, 0x65, 0x75, 0x64, 0x6f, 0x5f, 0x71,
  0x63, 0x6f, 0x6e, 0x73, 0x74, 0x31, 0x00, 0x00, 0x04, 0x00, 0x00, 0x00,
  0x08, 0x00, 0x00, 0x00, 0x08, 0x00, 0x00, 0x00, 0x08, 0x00, 0x00, 0x00,
  0x01, 0x00, 0x00, 0x00, 0x12, 0xff, 0xff, 0xff, 0x00, 0x00, 0x00, 0x01,
  0x14, 0x00, 0x00, 0x00, 0x84, 0x00, 0x00, 0x00, 0x04, 0x00, 0x00, 0x00,
  0x00, 0x00, 0x00, 0x02, 0x90, 0x00, 0x00, 0x00, 0x8c, 0xfe, 0xff, 0xff,
  0x08, 0x00, 0x00, 0x00, 0x48, 0x00, 0x00, 0x00, 0x08, 0x00, 0x00, 0x00,
  0x00, 0x00, 0x00, 0x00, 0x00, 0x00, 0x00, 0x00, 0x00, 0x00, 0x00, 0x00,
  0x00, 0x00, 0x00, 0x00, 0x00, 0x00, 0x00, 0x00, 0x00, 0x00, 0x00, 0x00,
  0x00, 0x00, 0x00, 0x00, 0x00, 0x00, 0x00, 0x00, 0x00, 0x00, 0x00, 0x00,
  0x00, 0x00, 0x00, 0x00, 0x00, 0x00, 0x00, 0x00, 0x00, 0x00, 0x00, 0x00,
  0x00, 0x00, 0x00, 0x00, 0x00, 0x00, 0x00, 0x00, 0x00, 0x00, 0x00, 0x00,
  0x00, 0x00, 0x00, 0x00, 0x08, 0x00, 0x00, 0x00, 0xf3, 0x6d, 0x3b, 0x39,
  0xea, 0xb7, 0x8a, 0x39, 0x48, 0xa6, 0xd4, 0x39, 0x83, 0x9d, 0xc9, 0x39,
  0x4b, 0x5d, 0x68, 0x39, 0xec, 0x1f, 0xb9, 0x39, 0x3a, 0x24, 0x8b, 0x39,
  0xd8, 0xec, 0xc8, 0x39, 0x11, 0x00, 0x00, 0x00, 0x74, 0x66, 0x6c, 0x2e,
  0x70, 0x73, 0x65, 0x75, 0x64, 0x6f, 0x5f, 0x71, 0x63, 0x6f, 0x6e, 0x73,
  0x74, 0x00, 0x00, 0x00, 0x01, 0x00, 0x00, 0x00, 0x08, 0x00, 0x00, 0x00,
  0xc2, 0xff, 0xff, 0xff, 0x00, 0x00, 0x00, 0x01, 0x14, 0x00, 0x00, 0x00,
  0x14, 0x00, 0x00, 0x00, 0x03, 0x00, 0x00, 0x00, 0x00, 0x00, 0x00, 0x02,
  0x1c, 0x00, 0x00, 0x00, 0xac, 0xff, 0xff, 0xff, 0x0f, 0x00, 0x00, 0x00,
  0x61, 0x72, 0x69, 0x74, 0x68, 0x2e, 0x63, 0x6f, 0x6e, 0x73, 0x74, 0x61,
  0x6e, 0x74, 0x31, 0x00, 0x01, 0x00, 0x00, 0x00, 0x02, 0x00, 0x00, 0x00,
  0x00, 0x00, 0x16, 0x00, 0x1c, 0x00, 0x18, 0x00, 0x17, 0x00, 0x10, 0x00,
  0x0c, 0x00, 0x08, 0x00, 0x00, 0x00, 0x00, 0x00, 0x00, 0x00, 0x07, 0x00,
  0x16, 0x00, 0x00, 0x00, 0x00, 0x00, 0x00, 0x01, 0x18, 0x00, 0x00, 0x00,
  0x18, 0x00, 0x00, 0x00, 0x02, 0x00, 0x00, 0x00, 0x00, 0x00, 0x00, 0x02,
  0x20, 0x00, 0x00, 0x00, 0x04, 0x00, 0x04, 0x00, 0x04, 0x00, 0x00, 0x00,
  0x0e, 0x00, 0x00, 0x00, 0x61, 0x72, 0x69, 0x74, 0x68, 0x2e, 0x63, 0x6f,
  0x6e, 0x73, 0x74, 0x61, 0x6e, 0x74, 0x00, 0x00, 0x01, 0x00, 0x00, 0x00,
  0x02, 0x00, 0x00, 0x00, 0x00, 0x00, 0x16, 0x00, 0x20, 0x00, 0x1c, 0x00,
  0x1b, 0x00, 0x14, 0x00, 0x10, 0x00, 0x0c, 0x00, 0x00, 0x00, 0x00, 0x00,
  0x08, 0x00, 0x07, 0x00, 0x16, 0x00, 0x00, 0x00, 0x00, 0x00, 0x00, 0x01,
  0x18, 0x00, 0x00, 0x00, 0x34, 0x00, 0x00, 0x00, 0x54, 0x00, 0x00, 0x00,
  0x01, 0x00, 0x00, 0x00, 0x00, 0x00, 0x00, 0x09, 0x68, 0x00, 0x00, 0x00,
  0x04, 0x00, 0x00, 0x00, 0xff, 0xff, 0xff, 0xff, 0x18, 0x01, 0x00, 0x00,
  0x81, 0x00, 0x00, 0x00, 0x01, 0x00, 0x00, 0x00, 0x0c, 0x00, 0x0c, 0x00,
  0x00, 0x00, 0x00, 0x00, 0x08, 0x00, 0x04, 0x00, 0x0c, 0x00, 0x00, 0x00,
  0x08, 0x00, 0x00, 0x00, 0x14, 0x00, 0x00, 0x00, 0x01, 0x00, 0x00, 0x00,
  0x80, 0xff, 0xff, 0xff, 0xff, 0xff, 0xff, 0xff, 0x00, 0x00, 0x00, 0x00,
  0x01, 0x00, 0x00, 0x00, 0xd4, 0x2e, 0x09, 0x3e, 0x19, 0x00, 0x00, 0x00,
  0x73, 0x65, 0x72, 0x76, 0x69, 0x6e, 0x67, 0x5f, 0x64, 0x65, 0x66, 0x61,
  0x75, 0x6c, 0x74, 0x5f, 0x69, 0x6e, 0x70, 0x75, 0x74, 0x5f, 0x31, 0x3a,
  0x30, 0x00, 0x00, 0x00, 0x04, 0x00, 0x00, 0x00, 0x01, 0x00, 0x00, 0x00,
  0x18, 0x01, 0x00, 0x00, 0x81, 0x00, 0x00, 0x00, 0x01, 0x00, 0x00, 0x00,
  0x06, 0x00, 0x00, 0x00, 0x7c, 0x00, 0x00, 0x00, 0x5c, 0x00, 0x00, 0x00,
  0x48, 0x00, 0x00, 0x00, 0x38, 0x00, 0x00, 0x00, 0x18, 0x00, 0x00, 0x00,
  0x04, 0x00, 0x00, 0x00, 0xa8, 0xff, 0xff, 0xff, 0x19, 0x00, 0x00, 0x00,
  0x02, 0x00, 0x00, 0x00, 0x00, 0x00, 0x00, 0x19, 0xb8, 0xff, 0xff, 0xff,
  0x09, 0x00, 0x00, 0x00, 0x04, 0x00, 0x00, 0x00, 0x00, 0x00, 0x00, 0x09,
  0x0c, 0x00, 0x0c, 0x00, 0x0b, 0x00, 0x00, 0x00, 0x00, 0x00, 0x04, 0x00,
  0x0c, 0x00, 0x00, 0x00, 0x16, 0x00, 0x00, 0x00, 0x00, 0x00, 0x00, 0x16,
  0xe0, 0xff, 0xff, 0xff, 0x11, 0x00, 0x00, 0x00, 0x02, 0x00, 0x00, 0x00,
  0x00, 0x00, 0x00, 0x11, 0xf0, 0xff, 0xff, 0xff, 0x03, 0x00, 0x00, 0x00,
  0x03, 0x00, 0x00, 0x00, 0x00, 0x00, 0x00, 0x03, 0x0c, 0x00, 0x10, 0x00,
  0x0f, 0x00, 0x00, 0x00, 0x08, 0x00, 0x04, 0x00, 0x0c, 0x00, 0x00, 0x00,
  0x61, 0x00, 0x00, 0x00, 0x03, 0x00, 0x00, 0x00, 0x00, 0x00, 0x00, 0x61
